<unk>	0
<s>	0
</s>	0
.	-3.09112
▁the	-3.26825
,	-3.34067
s	-3.65958
▁of	-3.72046
▁a	-3.90503
▁and	-3.94343
▁to	-4.06437
▁is	-4.13128
▁in	-4.24207
▁for	-4.90208
-	-4.96876
▁The	-5.01091
▁	-5.0239
▁or	-5.04649
▁are	-5.09877
▁that	-5.17174
▁(	-5.17778
▁as	-5.34942
▁on	-5.44258
▁you	-5.44956
▁with	-5.45301
)	-5.55597
▁from	-5.58111
▁it	-5.58759
▁can	-5.59654
'	-5.60236
▁an	-5.61389
▁be	-5.62637
▁by	-5.63154
▁your	-5.67222
ing	-5.72211
:	-5.76952
▁1	-5.84444
ed	-5.91467
▁A	-5.92016
▁2	-5.9798
▁at	-6.06012
▁have	-6.09848
t	-6.14911
d	-6.1723
▁which	-6.17772
▁not	-6.21128
▁was	-6.24884
▁In	-6.33516
▁will	-6.33723
▁It	-6.35843
).	-6.37768
▁3	-6.38061
▁this	-6.40036
▁one	-6.41406
▁also	-6.41889
▁more	-6.438
▁has	-6.47864
▁used	-6.52119
▁per	-6.52832
▁other	-6.52907
’	-6.57645
y	-6.5815
▁may	-6.5933
▁about	-6.60811
▁average	-6.61633
er	-6.61653
▁than	-6.61925
ly	-6.62589
▁most	-6.63026
▁cost	-6.64238
▁name	-6.643
▁but	-6.65157
e	-6.66352
▁I	-6.66786
▁This	-6.74996
/	-6.75131
▁all	-6.77438
▁they	-6.78804
a	-6.79072
▁up	-6.81829
al	-6.81834
▁what	-6.85528
▁into	-6.87179
▁their	-6.88119
▁body	-6.89217
▁when	-6.90195
;	-6.91203
▁4	-6.91242
▁blood	-6.9237
▁between	-6.92973
▁if	-6.94472
n	-6.9523
▁two	-6.95311
▁If	-6.95917
▁time	-6.9873
or	-6.99956
▁called	-7.02954
▁its	-7.03684
▁such	-7.0392
▁water	-7.04075
▁year	-7.05743
▁years	-7.06429
▁first	-7.06445
S	-7.08029
▁use	-7.0879
re	-7.09241
▁do	-7.10712
▁some	-7.10864
▁how	-7.10947
in	-7.14624
),	-7.15424
es	-7.1733
▁people	-7.17743
▁out	-7.18666
r	-7.19328
▁For	-7.19396
▁over	-7.19848
▁only	-7.21076
▁many	-7.2277
th	-7.22876
▁system	-7.23812
▁who	-7.25802
▁C	-7.26442
m	-7.28019
▁so	-7.28069
▁5	-7.28141
▁make	-7.30691
▁cells	-7.30875
▁any	-7.31181
o	-7.31521
▁S	-7.32364
▁You	-7.3325
▁known	-7.34064
▁found	-7.34259
▁form	-7.34269
▁like	-7.37568
▁usually	-7.40023
▁there	-7.40124
▁get	-7.42353
▁type	-7.4262
▁after	-7.42875
▁common	-7.42963
▁long	-7.43328
▁salary	-7.4384
▁been	-7.44052
▁should	-7.44225
▁10	-7.44735
▁much	-7.44848
▁where	-7.44853
g	-7.45183
C	-7.45327
▁through	-7.45583
▁made	-7.46304
▁B	-7.46465
▁part	-7.48265
i	-7.48646
▁disease	-7.48858
▁different	-7.4904
▁high	-7.49238
▁often	-7.50074
ic	-7.50139
▁need	-7.50686
▁does	-7.50827
▁day	-7.51851
▁around	-7.52876
▁days	-7.5315
▁each	-7.53382
▁these	-7.53585
▁very	-7.54402
▁food	-7.54955
▁were	-7.5553
▁then	-7.55538
▁well	-7.55804
▁take	-7.56365
▁number	-7.56886
▁no	-7.57447
▁...	-7.57724
▁include	-7.57838
▁them	-7.59793
c	-7.60121
▁cell	-7.60182
▁cause	-7.60865
▁There	-7.60962
▁work	-7.6098
▁temperature	-7.61585
▁6	-7.61734
▁E	-7.63001
▁small	-7.63377
▁An	-7.64767
▁new	-7.65242
F	-7.66184
▁F	-7.66566
▁we	-7.66914
▁example	-7.67778
▁pay	-7.68242
▁To	-7.68283
▁because	-7.68363
▁range	-7.68369
▁would	-7.68628
▁his	-7.69098
▁three	-7.69182
▁just	-7.69535
▁person	-7.70226
▁They	-7.71644
▁minutes	-7.71902
▁hours	-7.72805
▁re	-7.73103
▁less	-7.73321
▁same	-7.74257
▁U	-7.74726
k	-7.75185
▁skin	-7.75358
▁costs	-7.7552
▁home	-7.75563
▁heart	-7.75943
▁United	-7.76234
▁area	-7.77236
▁When	-7.78182
▁while	-7.78658
l	-7.79203
an	-7.7985
▁both	-7.80401
▁age	-7.8051
to	-7.80744
p	-7.81019
▁before	-7.81598
▁he	-7.82012
▁States	-7.8221
▁“	-7.82749
A	-7.83447
▁D	-7.83663
▁during	-7.83748
▁P	-7.84059
▁process	-7.84721
us	-7.85124
ers	-7.85255
▁large	-7.85282
▁help	-7.86212
▁under	-7.86315
▁meaning	-7.86323
▁types	-7.8708
▁state	-7.88266
▁including	-7.8838
▁amount	-7.89359
▁energy	-7.89688
▁means	-7.90025
▁square	-7.90099
▁within	-7.90377
h	-7.90513
▁important	-7.90674
▁muscle	-7.90919
ll	-7.91028
▁world	-7.91077
▁our	-7.91183
▁18	-7.91559
▁rate	-7.92502
▁good	-7.92865
▁way	-7.93673
▁These	-7.9451
on	-7.94577
▁information	-7.94614
▁pain	-7.94901
▁see	-7.96468
▁G	-7.96527
▁test	-7.97018
▁percent	-7.97163
▁back	-7.97195
▁20	-7.97376
▁New	-7.97446
▁7	-7.97457
▁–	-7.97494
”	-7.97541
▁term	-7.97586
ation	-7.97603
▁hour	-7.98668
▁group	-7.9871
D	-7.98718
ve	-7.99096
▁down	-7.99275
the	-7.9933
▁8	-7.99392
▁de	-7.99404
2	-7.99513
▁As	-7.99906
▁side	-8.01469
B	-8.01536
▁T	-8.01541
▁had	-8.01862
en	-8.02573
H	-8.03048
b	-8.03283
▁must	-8.03661
▁using	-8.03971
▁being	-8.04146
▁symptoms	-8.0441
▁foot	-8.04635
▁plant	-8.04739
▁12	-8.05348
x	-8.05714
▁total	-8.06141
▁until	-8.06449
▁-	-8.06638
▁DNA	-8.06976
able	-8.0707
▁my	-8.07131
▁life	-8.07268
▁even	-8.07272
▁species	-8.07922
▁price	-8.08168
▁size	-8.08236
▁level	-8.08284
f	-8.08759
▁caused	-8.09612
▁located	-8.09616
▁place	-8.09712
▁'	-8.09773
▁want	-8.10296
▁Re	-8.10627
le	-8.10635
P	-8.10886
▁feet	-8.11045
▁low	-8.11162
ion	-8.11352
▁un	-8.11395
▁normal	-8.11469
▁15	-8.11643
▁best	-8.11678
▁lower	-8.12028
▁right	-8.12361
▁below	-8.12389
▁those	-8.12793
▁American	-8.12817
it	-8.12875
▁Some	-8.12951
▁job	-8.12981
▁health	-8.13116
▁months	-8.13848
um	-8.13935
▁Most	-8.14202
▁period	-8.14336
▁depending	-8.15039
▁degrees	-8.15377
▁s	-8.1539
▁O	-8.15663
▁30	-8.16094
com	-8.16108
▁However	-8.16406
▁oil	-8.16435
▁last	-8.1648
▁four	-8.16506
is	-8.16897
▁based	-8.17134
G	-8.1726
▁H	-8.17783
▁non	-8.17794
▁baby	-8.18497
▁find	-8.18501
▁brain	-8.18537
▁R	-8.18779
▁another	-8.18892
▁infection	-8.19116
!	-8.19206
▁M	-8.19406
▁top	-8.19429
ine	-8.19696
▁English	-8.19915
ia	-8.19917
u	-8.20691
▁human	-8.20789
▁end	-8.21362
▁bacteria	-8.2143
▁every	-8.21858
T	-8.21908
▁plants	-8.21962
▁air	-8.22294
▁go	-8.22543
▁weeks	-8.22624
▁tissue	-8.23057
▁company	-8.24378
▁protein	-8.24895
▁could	-8.25286
▁He	-8.25667
▁sugar	-8.25874
▁typically	-8.25998
▁family	-8.2601
▁few	-8.26117
▁word	-8.26203
▁least	-8.26654
▁know	-8.26993
as	-8.27209
ity	-8.27412
▁red	-8.2777
▁off	-8.27887
▁several	-8.28255
▁experience	-8.28312
L	-8.28477
co	-8.28494
▁white	-8.28565
3	-8.28717
1	-8.28769
ry	-8.28994
▁causes	-8.29068
ra	-8.29097
▁degree	-8.29504
K	-8.29807
▁month	-8.29998
el	-8.30022
4	-8.30877
ur	-8.31262
▁annual	-8.31616
▁acid	-8.31664
E	-8.31826
▁without	-8.32321
▁become	-8.32328
▁light	-8.32494
▁set	-8.32556
▁heat	-8.32569
▁higher	-8.32634
▁above	-8.32886
▁surface	-8.3289
▁her	-8.33086
▁foods	-8.33295
▁main	-8.34139
▁e	-8.34509
?	-8.34542
▁weight	-8.3467
▁car	-8.35186
▁tax	-8.35339
▁data	-8.35379
▁single	-8.35578
▁million	-8.3587
▁We	-8.36225
▁live	-8.36398
▁medical	-8.36871
▁don	-8.37183
▁due	-8.37424
▁order	-8.37683
▁chemical	-8.37702
▁full	-8.37709
M	-8.37932
▁9	-8.38103
ate	-8.38287
▁treatment	-8.38355
▁result	-8.38429
▁On	-8.38594
▁pressure	-8.38651
▁function	-8.38904
N	-8.39413
ar	-8.39437
▁commonly	-8.40051
na	-8.40499
▁specific	-8.40653
▁care	-8.40975
ment	-8.4109
▁start	-8.41194
▁K	-8.41231
▁business	-8.41503
il	-8.41662
▁color	-8.41682
▁generally	-8.41772
▁free	-8.41814
▁So	-8.42316
▁major	-8.42377
ive	-8.42439
▁keep	-8.4251
▁available	-8.42533
▁levels	-8.42857
▁--	-8.43361
▁own	-8.43478
▁second	-8.43493
ta	-8.4356
▁products	-8.43597
▁How	-8.43995
▁either	-8.44059
▁L	-8.44146
▁change	-8.44283
ne	-8.44319
▁according	-8.44586
▁meat	-8.45327
▁condition	-8.45561
V	-8.4558
▁vary	-8.45628
▁now	-8.46163
0	-8.46164
°	-8.46665
▁eggs	-8.46696
▁But	-8.46773
ma	-8.47177
at	-8.47423
O	-8.47661
▁considered	-8.47709
man	-8.47831
▁m	-8.47869
▁given	-8.48035
▁N	-8.48166
▁i	-8.48176
▁contains	-8.48184
ism	-8.48227
▁similar	-8.48387
▁certain	-8.489
tic	-8.49019
▁$1	-8.49171
▁old	-8.49241
▁short	-8.49382
▁largest	-8.49438
W	-8.50166
▁oven	-8.50246
▁All	-8.50384
▁service	-8.50452
▁&	-8.50471
▁fat	-8.50508
▁point	-8.50901
▁Your	-8.51429
6	-8.51641
▁credit	-8.51759
▁still	-8.5177
▁natural	-8.52024
▁sometimes	-8.52468
▁One	-8.52504
age	-8.52651
▁mean	-8.52923
ter	-8.52936
ist	-8.52938
▁1.	-8.53013
▁power	-8.53081
▁might	-8.53236
▁oxygen	-8.53372
▁parts	-8.53636
et	-8.53695
▁100	-8.53716
▁school	-8.53725
▁increase	-8.53738
▁W	-8.53749
▁general	-8.53975
▁children	-8.54214
▁occur	-8.54242
▁muscles	-8.54591
w	-8.54692
▁following	-8.54901
▁gas	-8.54932
▁19	-8.55054
▁little	-8.55128
▁provide	-8.55188
▁popular	-8.55218
up	-8.55509
▁produce	-8.55542
▁conditions	-8.56466
▁early	-8.56652
te	-8.56701
▁week	-8.56877
▁50	-8.56936
▁material	-8.5708
▁miles	-8.57158
▁structure	-8.57216
▁income	-8.57239
▁location	-8.57459
ness	-8.57503
lo	-8.57693
▁At	-8.57753
▁city	-8.57795
▁produced	-8.581
▁too	-8.5819
▁contain	-8.58325
5	-8.58341
▁forms	-8.58546
and	-8.58593
▁—	-8.58768
▁occurs	-8.58839
(	-8.58854
▁co	-8.5905
▁language	-8.59103
la	-8.59222
▁pre	-8.59332
▁[	-8.59512
▁country	-8.597
▁areas	-8.59748
▁variety	-8.6001
▁child	-8.60127
▁since	-8.60267
am	-8.60486
▁takes	-8.6064
ol	-8.60651
▁five	-8.60668
▁come	-8.60719
▁De	-8.60787
▁liver	-8.609
▁salt	-8.60944
st	-8.60968
▁control	-8.61052
▁cancer	-8.61259
▁approximately	-8.61568
ty	-8.61652
id	-8.61748
▁fee	-8.61753
▁nerve	-8.61767
▁government	-8.62085
▁head	-8.62127
▁Earth	-8.62157
▁animals	-8.62173
▁check	-8.62496
▁times	-8.62838
ian	-8.62856
▁along	-8.62899
▁carbon	-8.63071
▁me	-8.63553
de	-8.63859
▁inches	-8.63876
▁together	-8.64115
▁North	-8.64147
est	-8.6466
8	-8.64692
ton	-8.65264
▁women	-8.65298
▁living	-8.65373
▁half	-8.6545
▁list	-8.65536
▁America	-8.65611
ite	-8.65783
▁doctor	-8.66017
ary	-8.66055
▁present	-8.66061
▁land	-8.66085
▁fish	-8.6611
▁mg	-8.66198
z	-8.6636
▁c	-8.66362
▁add	-8.66482
▁South	-8.66639
R	-8.66824
▁left	-8.66948
▁grow	-8.67016
▁treat	-8.67181
▁region	-8.67189
▁associated	-8.67219
▁eat	-8.6735
▁chicken	-8.67351
▁median	-8.67497
▁risk	-8.6767
▁length	-8.67706
▁According	-8.67707
▁project	-8.67836
ch	-8.68032
mo	-8.68036
▁And	-8.68094
▁charge	-8.68153
▁definition	-8.6817
ro	-8.68184
▁comes	-8.68187
▁17	-8.68256
▁base	-8.68714
▁look	-8.68742
▁16	-8.69023
▁source	-8.69045
▁give	-8.69217
▁program	-8.69229
7	-8.69419
▁bone	-8.69665
▁40	-8.69673
me	-8.69785
▁various	-8.70257
▁eye	-8.70634
▁Answer	-8.70642
▁basic	-8.70698
▁value	-8.70893
▁open	-8.70972
ent	-8.70978
▁case	-8.71057
▁p	-8.71117
ting	-8.71394
▁unit	-8.71807
▁makes	-8.71991
▁What	-8.72316
9	-8.72588
▁hair	-8.7266
▁required	-8.72681
▁longer	-8.72796
v	-8.72845
▁con	-8.7294
▁g	-8.73084
▁she	-8.7315
▁cases	-8.73311
▁Definition	-8.73347
▁standard	-8.73513
▁states	-8.73555
▁salaries	-8.73837
▁sub	-8.73838
I	-8.73919
▁run	-8.7401
▁great	-8.74061
▁making	-8.74201
▁related	-8.74391
▁/	-8.74395
▁=	-8.74496
▁local	-8.7506
se	-8.75101
▁earn	-8.75173
line	-8.75175
one	-8.75222
▁product	-8.75279
ies	-8.75329
ul	-8.75358
▁layer	-8.7549
▁especially	-8.75518
▁depends	-8.75608
▁green	-8.75807
▁individual	-8.75908
ant	-8.7595
▁insurance	-8.76221
▁highest	-8.76227
▁includes	-8.76366
▁line	-8.76508
▁however	-8.76527
▁money	-8.76552
▁problems	-8.76651
▁put	-8.77115
▁$2	-8.77409
▁account	-8.77428
▁here	-8.77539
▁complete	-8.77583
▁growth	-8.77586
▁room	-8.77668
▁paid	-8.77677
▁lot	-8.78016
▁dry	-8.78024
▁25	-8.78083
▁b	-8.78146
▁law	-8.78146
ci	-8.78449
▁animal	-8.78514
▁Many	-8.78539
▁sure	-8.78885
be	-8.79084
▁With	-8.79309
▁soil	-8.7931
▁:	-8.7939
▁US	-8.79451
▁pan	-8.79517
▁14	-8.79537
▁Do	-8.79788
▁factors	-8.80248
ri	-8.80263
▁That	-8.80542
▁sea	-8.80657
▁computer	-8.80669
▁dog	-8.80781
▁better	-8.80783
▁cold	-8.81178
▁diet	-8.8152
▁disorder	-8.81782
ie	-8.8203
▁names	-8.82103
▁show	-8.82138
▁population	-8.82159
▁hand	-8.82186
ad	-8.82251
▁production	-8.82292
▁effects	-8.82401
no	-8.82685
ca	-8.82792
ous	-8.82836
▁materials	-8.83587
▁rock	-8.83639
▁24	-8.8365
▁current	-8.83828
li	-8.83877
▁Greek	-8.84158
▁di	-8.84329
▁origin	-8.84332
▁done	-8.84393
▁able	-8.8462
▁hard	-8.84794
▁enough	-8.84796
▁$	-8.84866
di	-8.84903
▁formed	-8.84935
▁services	-8.85026
▁study	-8.85064
▁anywhere	-8.85171
▁house	-8.85186
▁addition	-8.85396
like	-8.85438
▁pro	-8.85471
▁six	-8.85487
▁cook	-8.85627
▁space	-8.85695
pe	-8.85907
ce	-8.85952
▁While	-8.85965
▁damage	-8.86055
▁By	-8.86072
▁wide	-8.86183
▁loss	-8.86366
▁ground	-8.86512
▁V	-8.86637
▁dis	-8.86688
▁patients	-8.86834
▁code	-8.87053
▁simple	-8.87407
▁things	-8.87413
▁daily	-8.87457
▁uses	-8.8749
▁born	-8.8762
▁field	-8.87894
land	-8.88067
▁infections	-8.88079
ling	-8.8814
▁national	-8.88187
▁tree	-8.88297
ized	-8.88341
▁From	-8.88421
▁having	-8.88591
▁history	-8.88677
ge	-8.88741
▁whole	-8.89385
▁move	-8.89398
▁milk	-8.89491
U	-8.89727
▁near	-8.89792
▁against	-8.89837
▁though	-8.90069
▁black	-8.90095
▁After	-8.90102
▁May	-8.90195
▁earned	-8.90396
▁60	-8.90526
▁physical	-8.90607
▁inside	-8.90618
sh	-8.90628
ated	-8.90727
▁always	-8.90754
▁possible	-8.90836
▁Co	-8.91005
▁genetic	-8.91043
▁Other	-8.91047
▁t	-8.91143
▁stomach	-8.91154
▁membrane	-8.91544
▁require	-8.91608
▁defined	-8.91624
▁calories	-8.92157
▁referred	-8.92179
▁vitamin	-8.92225
▁click	-8.9235
▁man	-8.92406
▁urine	-8.92427
▁No	-8.92444
▁benefits	-8.92464
—	-8.92468
▁fact	-8.92612
▁something	-8.927
▁fluid	-8.92737
▁primary	-8.92961
▁date	-8.93014
▁11	-8.93121
▁file	-8.93493
▁typical	-8.93806
per	-8.94035
▁actually	-8.94135
os	-8.94165
▁diseases	-8.94496
▁central	-8.94548
time	-8.94613
▁hot	-8.94626
▁egg	-8.94633
▁minimum	-8.94644
▁changes	-8.94646
▁plan	-8.94715
▁away	-8.94761
▁us	-8.94832
▁prevent	-8.94956
▁molecules	-8.95024
▁hormone	-8.95041
▁countries	-8.9513
▁results	-8.9516
▁cooking	-8.95449
▁See	-8.95565
▁f	-8.95607
▁post	-8.95768
▁cut	-8.95776
▁additional	-8.95787
▁medium	-8.95853
▁healthy	-8.95905
▁War	-8.95944
▁d	-8.96051
▁provides	-8.96133
▁throughout	-8.96215
▁organisms	-8.96384
–	-8.96511
▁refers	-8.96518
▁contact	-8.96542
▁cover	-8.96597
▁movement	-8.9662
ti	-8.96647
▁St	-8.96659
▁working	-8.96675
▁fees	-8.96675
▁rest	-8.96806
ba	-8.9688
▁men	-8.97353
▁upper	-8.97473
ac	-8.97526
▁gland	-8.97574
▁glucose	-8.97675
Y	-8.97683
▁turn	-8.97756
▁once	-8.97808
▁useful	-8.97927
op	-8.98029
▁gene	-8.98211
▁real	-8.98252
▁Con	-8.98433
ance	-8.98499
▁century	-8.98532
▁support	-8.98588
▁+	-8.98626
▁think	-8.98736
▁site	-8.98747
▁next	-8.9883
▁Although	-8.98889
▁n	-8.98938
▁quality	-8.98968
ir	-8.9932
▁Average	-8.9938
▁affect	-8.99451
▁wall	-8.99589
▁report	-8.99652
▁public	-8.99655
▁said	-8.99658
▁effect	-8.9971
▁later	-8.99716
▁role	-8.99785
▁remove	-8.99862
▁proteins	-8.99975
▁virus	-8.99992
▁likely	-9.00122
▁organs	-9.00163
ating	-9.00212
▁French	-9.00226
less	-9.00412
▁center	-9.00438
▁fiber	-9.00537
rs	-9.00705
▁whether	-9.00719
▁receive	-9.00909
▁California	-9.0101
▁leaves	-9.01082
▁o	-9.01095
▁roast	-9.01436
▁among	-9.01565
▁Best	-9.01692
▁km	-9.01826
▁words	-9.02043
▁almost	-9.02065
25	-9.02073
▁etc	-9.02091
▁needs	-9.0214
10	-9.02165
▁building	-9.02167
▁larger	-9.02191
ium	-9.02303
▁$3	-9.02344
▁ago	-9.02354
ha	-9.02444
▁difference	-9.02503
▁Latin	-9.02538
▁did	-9.02558
▁answer	-9.02605
▁going	-9.02821
▁liquid	-9.02851
▁season	-9.029
▁Act	-9.03202
50	-9.03244
▁wage	-9.03281
▁return	-9.03517
ally	-9.03573
▁develop	-9.03576
▁thyroid	-9.03754
▁particular	-9.03872
▁Each	-9.03979
▁consists	-9.04062
▁course	-9.04251
▁market	-9.04253
ish	-9.04316
▁position	-9.0434
▁humans	-9.04346
▁Of	-9.04455
▁create	-9.04495
son	-9.04591
▁13	-9.04655
▁terms	-9.0497
go	-9.05359
▁development	-9.05493
▁needed	-9.05764
▁My	-9.05891
▁internal	-9.05922
▁drug	-9.05955
ot	-9.06006
▁immune	-9.06121
▁severe	-9.06217
▁flow	-9.06292
▁nervous	-9.06365
▁lead	-9.06518
▁J	-9.06563
▁tissues	-9.06612
▁rare	-9.06635
▁special	-9.06654
▁Australia	-9.06688
▁Here	-9.06791
con	-9.06852
▁spread	-9.06927
▁complex	-9.06958
▁helps	-9.07022
▁page	-9.07025
▁ranges	-9.07177
▁Canada	-9.07226
·	-9.07238
▁across	-9.07285
▁death	-9.07293
▁research	-9.07336
▁others	-9.07337
▁vessels	-9.07491
min	-9.07572
▁k	-9.07616
▁joint	-9.0777
▁itself	-9.07825
▁calcium	-9.08155
▁mouth	-9.08155
▁reaction	-9.08307
ted	-9.08473
va	-9.08549
ex	-9.08552
▁Meaning	-9.08599
▁social	-9.08664
un	-9.08679
▁female	-9.08796
▁key	-9.08978
▁class	-9.09449
▁derived	-9.09451
▁call	-9.09484
▁Al	-9.0961
▁National	-9.09956
▁World	-9.10008
▁X	-9.10012
▁inflammation	-9.10082
▁x	-9.10229
▁Place	-9.10359
▁deep	-9.10378
▁York	-9.10383
▁maximum	-9.10407
▁surgery	-9.1043
▁method	-9.10684
▁why	-9.10763
▁Also	-9.10771
▁Pro	-9.1079
▁taken	-9.10821
▁kidney	-9.10842
▁iron	-9.10881
▁contract	-9.10885
▁say	-9.10916
▁travel	-9.11014
▁systems	-9.1144
▁students	-9.11531
ph	-9.11543
▁close	-9.11611
▁property	-9.11673
▁problem	-9.11902
ga	-9.12048
itis	-9.121
em	-9.12255
▁feel	-9.12367
▁kind	-9.12374
▁smaller	-9.12556
▁Europe	-9.12609
▁industry	-9.12711
00	-9.12723
▁education	-9.12793
▁cannot	-9.13089
▁height	-9.13149
▁First	-9.13252
▁La	-9.13337
▁directly	-9.13408
▁determine	-9.13469
▁Le	-9.13678
▁Use	-9.13691
▁far	-9.13946
▁play	-9.14009
▁seeds	-9.14015
▁RNA	-9.14115
▁State	-9.14118
▁tract	-9.14142
▁lungs	-9.14154
▁Be	-9.14275
▁speed	-9.14321
▁reduce	-9.14363
▁sign	-9.14487
ide	-9.14593
side	-9.14764
▁cycle	-9.14802
▁acids	-9.14904
▁metal	-9.14923
▁molecule	-9.14961
▁doesn	-9.15003
▁Africa	-9.15053
▁University	-9.15279
▁outside	-9.15402
▁someone	-9.15518
▁allow	-9.15603
▁grams	-9.15728
▁adults	-9.15795
ke	-9.15914
▁noun	-9.16187
▁training	-9.16243
▁composed	-9.16257
ure	-9.16637
▁$10	-9.16676
▁birth	-9.16895
▁today	-9.17019
▁easy	-9.17071
▁created	-9.17251
▁works	-9.1732
▁card	-9.17342
▁application	-9.17352
▁really	-9.17437
▁stay	-9.17535
▁activity	-9.17587
▁installation	-9.17587
▁21	-9.17665
The	-9.17681
▁added	-9.17765
▁elements	-9.17802
▁estimate	-9.17811
▁Cost	-9.17868
▁expect	-9.17962
ial	-9.17988
bo	-9.1813
▁seen	-9.18244
▁third	-9.18341
▁temperatures	-9.18375
way	-9.18403
do	-9.18587
▁Add	-9.18604
▁male	-9.18709
▁although	-9.18727
▁functions	-9.18763
▁alcohol	-9.18769
ni	-9.18921
▁dose	-9.18986
▁north	-9.19087
of	-9.19202
▁varies	-9.19261
ster	-9.19319
▁glands	-9.19486
▁mass	-9.19592
▁taking	-9.19605
▁appear	-9.19684
▁Salary	-9.19686
▁Mo	-9.1983
ig	-9.1987
40	-9.19954
▁active	-9.1997
▁labor	-9.20028
im	-9.20051
.00	-9.20182
▁view	-9.20339
▁face	-9.20364
ut	-9.20466
▁table	-9.20514
▁response	-9.20571
▁store	-9.20882
▁brown	-9.20963
▁prices	-9.21023
▁rates	-9.21188
▁substance	-9.21291
ization	-9.21529
▁responsible	-9.2153
▁sun	-9.21544
▁fruit	-9.21751
▁serious	-9.21779
▁cat	-9.21917
da	-9.21951
yl	-9.22047
▁middle	-9.22053
▁clear	-9.22069
▁probably	-9.22187
▁south	-9.22298
▁sources	-9.224
▁let	-9.22512
▁simply	-9.22661
▁measure	-9.22678
▁wood	-9.22697
▁phone	-9.22818
▁professional	-9.22902
▁network	-9.23173
,000	-9.23284
▁earth	-9.23288
▁matter	-9.23371
▁easily	-9.23427
▁Click	-9.23487
▁cholesterol	-9.23568
▁medicine	-9.23659
▁blue	-9.23724
▁starting	-9.23838
▁perform	-9.2397
▁environment	-9.24012
▁cooked	-9.24025
▁series	-9.24141
ology	-9.24242
▁groups	-9.24302
▁fresh	-9.2433
▁art	-9.24665
▁direct	-9.24679
▁carry	-9.24736
▁Na	-9.24762
▁original	-9.24777
▁German	-9.24913
▁essential	-9.25093
▁night	-9.25146
oc	-9.25229
▁members	-9.25266
▁anti	-9.25372
▁shape	-9.25676
▁offer	-9.25701
▁Ma	-9.25777
ner	-9.25803
▁named	-9.25837
▁bar	-9.25875
▁(1	-9.25888
tin	-9.25923
ap	-9.26041
▁India	-9.2605
▁choose	-9.26058
▁yellow	-9.26314
po	-9.26318
▁IRA	-9.26401
▁vegetables	-9.26436
year	-9.26479
▁bottom	-9.26492
ase	-9.26577
ron	-9.26597
▁past	-9.26605
nd	-9.26616
ah	-9.2683
▁apply	-9.26844
▁concrete	-9.26912
▁trees	-9.26952
▁pounds	-9.27043
▁Di	-9.27124
▁office	-9.27141
▁increased	-9.27199
ping	-9.2727
▁0	-9.27366
▁design	-9.27431
▁companies	-9.27462
▁safe	-9.27573
▁minerals	-9.27577
▁built	-9.27671
▁bones	-9.27681
▁soft	-9.27702
▁patient	-9.27711
ning	-9.27768
▁fever	-9.27789
▁2015	-9.27793
30	-9.27795
▁allows	-9.2781
▁break	-9.28124
▁Li	-9.2843
▁traditional	-9.28896
▁Bo	-9.28949
▁begin	-9.29198
▁widely	-9.29358
▁device	-9.29418
▁subject	-9.29455
▁adult	-9.29456
▁hourly	-9.29576
▁strong	-9.29595
▁expensive	-9.29596
▁combination	-9.29743
▁Mar	-9.29811
▁portion	-9.29823
▁late	-9.29855
▁element	-9.29866
▁$5	-9.29879
▁ability	-9.29941
▁necessary	-9.30187
ka	-9.30203
▁Ra	-9.3021
▁therapy	-9.30219
▁personal	-9.30235
▁act	-9.30378
▁became	-9.3043
▁taste	-9.30468
J	-9.30488
▁build	-9.30578
75	-9.30729
▁visit	-9.30837
mer	-9.30847
▁pork	-9.30865
▁ten	-9.30909
▁sense	-9.3097
▁solid	-9.30999
▁nutrients	-9.3109
▁bit	-9.3113
▁extra	-9.31335
▁City	-9.31339
▁rather	-9.31343
▁website	-9.31353
▁regular	-9.31398
▁flavor	-9.31458
▁jobs	-9.31588
ab	-9.31638
▁warm	-9.31698
▁Car	-9.31829
▁limit	-9.3186
▁shows	-9.31888
▁developed	-9.31901
▁ways	-9.31908
▁Ca	-9.32058
▁front	-9.32108
ck	-9.32133
he	-9.322
▁Texas	-9.32202
▁st	-9.32221
▁tell	-9.32254
▁$50	-9.3226
ft	-9.3238
▁reach	-9.32515
▁en	-9.32557
▁pregnancy	-9.32656
▁spinal	-9.32717
▁interest	-9.32744
▁film	-9.32809
▁paper	-9.33005
12	-9.33007
▁More	-9.33094
les	-9.33164
▁online	-9.33206
hi	-9.33266
▁cup	-9.33391
▁management	-9.33399
▁reported	-9.33418
▁clean	-9.33458
▁book	-9.33496
▁young	-9.33612
▁Me	-9.33612
▁neck	-9.3365
20	-9.33672
ence	-9.33725
▁$100	-9.33738
▁injury	-9.3374
▁upon	-9.3386
▁fall	-9.34029
▁access	-9.34079
▁separate	-9.34087
▁Ro	-9.34136
▁island	-9.34202
vi	-9.34361
▁root	-9.34408
▁equal	-9.34468
▁expected	-9.34517
▁learn	-9.34536
day	-9.34547
▁normally	-9.34613
▁Go	-9.34625
▁organ	-9.34772
▁People	-9.35018
▁processes	-9.35026
▁double	-9.35089
▁score	-9.35101
▁practice	-9.35105
▁dioxide	-9.3519
▁Since	-9.35233
▁repair	-9.35264
▁drugs	-9.35331
▁unique	-9.35335
▁written	-9.35349
▁syndrome	-9.35401
▁solution	-9.35428
▁organism	-9.35458
▁distance	-9.35543
▁thought	-9.35546
]	-9.35662
▁tests	-9.35715
▁dogs	-9.35726
▁nucleus	-9.35728
▁2012	-9.35769
▁She	-9.35795
▁covered	-9.3581
▁|	-9.3589
▁Because	-9.35942
by	-9.35955
▁hormones	-9.36055
▁brand	-9.36072
,500	-9.36082
▁sold	-9.36289
▁San	-9.36318
▁Ta	-9.36435
▁thing	-9.3667
▁older	-9.3669
ize	-9.36695
ful	-9.36842
▁mineral	-9.36978
▁cord	-9.36992
▁River	-9.37073
▁medication	-9.37116
+	-9.37131
▁big	-9.37225
▁college	-9.37495
out	-9.37586
▁Asia	-9.37644
▁exercise	-9.37757
▁amino	-9.37811
▁Our	-9.37877
▁legal	-9.37902
▁Indian	-9.3794
▁federal	-9.38048
▁modern	-9.3805
▁slightly	-9.38086
▁released	-9.38271
▁recommended	-9.38285
▁action	-9.38396
▁war	-9.38407
▁requires	-9.38457
▁symbol	-9.38482
▁never	-9.38675
▁sound	-9.38715
vo	-9.38772
▁Sea	-9.38782
for	-9.38789
▁China	-9.38809
▁video	-9.38869
▁$4	-9.38923
▁involved	-9.38939
▁Once	-9.3907
▁entire	-9.39104
nt	-9.39202
ina	-9.3923
▁primarily	-9.3931
80	-9.39326
▁content	-9.39371
▁John	-9.39514
▁rich	-9.39535
▁him	-9.3957
▁beans	-9.39664
▁fast	-9.39713
▁mixture	-9.39726
▁beef	-9.39801
▁member	-9.39887
▁reason	-9.40091
▁weather	-9.40111
also	-9.40263
ler	-9.40379
▁organic	-9.40381
ak	-9.40431
▁growing	-9.40502
▁substances	-9.40563
▁read	-9.40674
▁scale	-9.40717
▁financial	-9.40752
▁lowest	-9.40773
ving	-9.40774
▁divided	-9.408
▁multiple	-9.4082
▁minute	-9.40878
▁During	-9.40921
▁1/2	-9.41
▁pound	-9.41002
▁again	-9.41105
▁amounts	-9.4112
▁seed	-9.41132
▁capital	-9.41189
▁section	-9.41228
▁mi	-9.4125
tra	-9.41251
▁supply	-9.41263
▁dark	-9.41285
▁effective	-9.41285
▁leave	-9.41432
▁sweet	-9.41442
▁designed	-9.41509
ator	-9.41578
▁motor	-9.41655
▁Po	-9.41656
▁cheese	-9.41746
▁micro	-9.41794
bi	-9.41816
▁potential	-9.41828
▁search	-9.41864
▁rocks	-9.41887
▁private	-9.41905
▁electrical	-9.41926
▁cool	-9.42098
sa	-9.42166
▁floor	-9.42222
▁requirements	-9.42257
io	-9.42273
▁enter	-9.42281
▁East	-9.42469
▁step	-9.42578
▁transfer	-9.42633
▁compared	-9.42711
▁thin	-9.42765
▁mid	-9.42857
▁song	-9.42896
que	-9.42964
▁West	-9.43037
▁inter	-9.43186
▁intestine	-9.43219
tri	-9.43282
▁President	-9.43351
osis	-9.43354
▁disorders	-9.43415
▁getting	-9.43506
▁bad	-9.43541
pa	-9.43559
▁share	-9.43691
▁System	-9.43778
▁compound	-9.4381
X	-9.43812
▁County	-9.43874
▁try	-9.43955
▁Island	-9.44043
90	-9.4407
▁career	-9.4411
▁highly	-9.44117
▁love	-9.44152
▁Report	-9.44163
▁°	-9.44165
▁diabetes	-9.4418
▁programs	-9.44258
▁ancient	-9.44289
▁units	-9.44302
▁British	-9.44419
▁2014	-9.44508
▁host	-9.44818
▁culture	-9.44819
▁already	-9.4488
▁map	-9.44895
▁refrigerator	-9.4502
der	-9.45107
▁mainly	-9.45125
▁eyes	-9.45163
▁science	-9.45188
▁question	-9.45223
▁properties	-9.45226
▁spend	-9.45234
▁teeth	-9.45304
▁factor	-9.45362
▁90	-9.45369
▁listed	-9.45536
▁model	-9.45662
▁eating	-9.45756
▁July	-9.45774
▁title	-9.45802
▁flat	-9.45845
▁install	-9.45953
▁buy	-9.46137
mp	-9.46143
▁summer	-9.46284
▁balance	-9.46377
▁town	-9.46651
é	-9.46734
▁procedure	-9.46741
▁stop	-9.46753
end	-9.46849
▁records	-9.47091
ities	-9.47146
ley	-9.47171
▁drive	-9.47273
▁gives	-9.47281
▁estimated	-9.47495
▁waste	-9.4753
▁refer	-9.47565
▁vehicle	-9.47565
▁chronic	-9.47602
ative	-9.47612
▁fuel	-9.47822
▁basis	-9.47878
▁quickly	-9.48065
▁included	-9.4813
so	-9.48146
▁hold	-9.48193
▁stone	-9.48217
▁purchase	-9.48232
_	-9.4824
mb	-9.48242
▁45	-9.48271
▁2010	-9.48285
▁article	-9.48291
▁Or	-9.48367
▁smooth	-9.48407
▁mind	-9.48526
▁true	-9.48539
▁fine	-9.48654
▁music	-9.48671
▁am	-9.48714
▁nurse	-9.48738
▁box	-9.48786
▁count	-9.48793
▁game	-9.48915
based	-9.48925
://	-9.49046
▁mother	-9.49145
▁January	-9.49264
▁pepper	-9.493
▁seven	-9.49307
▁version	-9.49326
▁quite	-9.49374
▁butter	-9.49478
▁hydrogen	-9.49499
lic	-9.49504
▁enzyme	-9.49563
ard	-9.49564
▁plus	-9.49671
▁greater	-9.49746
▁thick	-9.49754
▁lymph	-9.49756
▁pool	-9.49761
▁arthritis	-9.49856
▁October	-9.49932
▁worth	-9.49951
▁arteries	-9.50169
den	-9.50212
▁native	-9.503
▁April	-9.50408
▁via	-9.50497
▁Great	-9.50502
▁digestive	-9.50607
▁features	-9.50622
▁organization	-9.50625
▁70	-9.50683
▁volume	-9.50713
▁looking	-9.50739
▁vi	-9.50764
▁ft	-9.50784
▁compounds	-9.50896
mi	-9.50905
▁produces	-9.50963
mon	-9.51145
▁purpose	-9.5123
term	-9.51254
▁record	-9.51315
▁carbohydrates	-9.51351
▁says	-9.51428
▁Y	-9.51433
▁Germany	-9.51505
▁structures	-9.51523
ps	-9.51698
▁won	-9.51737
▁select	-9.51904
▁completely	-9.51939
▁official	-9.52004
▁bond	-9.52017
▁formula	-9.52103
15	-9.52266
▁release	-9.52295
▁stored	-9.52346
▁address	-9.52352
▁Z	-9.52381
red	-9.52409
▁began	-9.52438
lin	-9.52448
▁causing	-9.52506
▁shown	-9.5254
70	-9.5256
▁Old	-9.52564
▁naturally	-9.52575
▁mostly	-9.52628
▁About	-9.52705
▁individuals	-9.52848
ier	-9.52857
▁instead	-9.52875
▁pass	-9.52905
):	-9.52931
▁28	-9.53046
ise	-9.53075
▁slow	-9.53115
▁avoid	-9.53244
▁affects	-9.5327
▁plate	-9.53301
▁force	-9.53314
▁maintain	-9.53344
▁limited	-9.53415
▁object	-9.53468
wa	-9.53489
▁Top	-9.53635
▁international	-9.53653
▁vaccine	-9.53832
▁nature	-9.54051
▁provided	-9.54052
ger	-9.54064
▁protect	-9.54079
▁tend	-9.54203
▁leg	-9.54276
▁ear	-9.54343
ten	-9.54345
▁Pi	-9.5435
▁increases	-9.54424
gi	-9.54532
▁ca	-9.54614
ding	-9.54664
▁sauce	-9.54692
▁sodium	-9.54747
▁climate	-9.54858
▁employee	-9.54905
▁offers	-9.54922
▁$20	-9.54934
▁atoms	-9.55151
▁feed	-9.55311
▁80	-9.55392
▁vitamins	-9.55429
▁significant	-9.55464
▁majority	-9.55501
▁board	-9.55563
▁link	-9.55707
▁option	-9.55723
tion	-9.55731
▁nearly	-9.55817
▁June	-9.55836
ib	-9.55839
▁transport	-9.55926
▁chain	-9.55933
▁depend	-9.55956
▁England	-9.55962
▁containing	-9.55962
▁respiratory	-9.55979
▁Labor	-9.56009
▁cm	-9.56171
▁mild	-9.56191
▁negative	-9.56216
▁Mexico	-9.56241
▁behavior	-9.56291
▁grill	-9.56315
ep	-9.56381
13	-9.56489
▁characterized	-9.56497
▁http	-9.56514
▁bacterial	-9.56534
ach	-9.56783
▁Per	-9.56809
▁image	-9.56869
ical	-9.56891
▁net	-9.56951
▁relatively	-9.57032
▁tuition	-9.57068
▁lack	-9.57327
▁trans	-9.57407
▁w	-9.5741
▁winter	-9.57463
ose	-9.57488
▁sales	-9.57489
om	-9.57589
▁positive	-9.57684
ub	-9.57716
ox	-9.57716
▁powder	-9.57827
▁idea	-9.57848
my	-9.57925
▁further	-9.58097
▁ex	-9.58126
▁came	-9.58141
▁corn	-9.58173
▁reference	-9.58215
▁license	-9.58262
ana	-9.58329
▁$15	-9.58407
▁joints	-9.58434
▁El	-9.58512
▁knee	-9.58543
▁Pre	-9.58698
mm	-9.58827
▁Ha	-9.58934
▁arm	-9.58939
▁meet	-9.5894
▁difficult	-9.58944
▁baking	-9.58955
▁dollars	-9.58965
▁monthly	-9.59091
▁goes	-9.59112
▁court	-9.59117
▁Name	-9.59144
▁France	-9.59159
ile	-9.59211
▁Congress	-9.59225
▁style	-9.59236
▁atmosphere	-9.59331
▁Sa	-9.5935
▁bank	-9.59353
▁software	-9.59427
▁nerves	-9.59462
▁surname	-9.59494
▁35	-9.59604
ole	-9.59605
▁payment	-9.59638
▁$9	-9.59666
▁flowers	-9.59707
▁flu	-9.59786
▁eight	-9.59838
si	-9.59845
▁community	-9.59952
▁stress	-9.59993
▁rise	-9.60032
ny	-9.60066
▁star	-9.60112
▁claim	-9.6028
35	-9.60321
▁Dr	-9.60338
▁viruses	-9.60437
▁drink	-9.60454
▁infected	-9.60456
▁regions	-9.60563
▁self	-9.60641
▁inner	-9.60677
ng	-9.60692
▁throat	-9.60693
▁Can	-9.60706
▁sleep	-9.60715
▁Spanish	-9.60942
▁begins	-9.60975
▁couple	-9.61023
use	-9.6105
▁August	-9.61072
▁Home	-9.61094
▁Florida	-9.61133
▁mo	-9.61181
▁activities	-9.61188
▁loan	-9.61192
dy	-9.61207
▁attack	-9.61235
▁wine	-9.61249
▁Like	-9.61371
▁breast	-9.61371
▁consider	-9.61427
▁kidneys	-9.61533
▁th	-9.61582
▁Cor	-9.61597
▁Not	-9.61616
▁west	-9.61621
▁moving	-9.61638
▁European	-9.6164
▁figure	-9.61678
▁signs	-9.61731
▁bring	-9.61745
▁planet	-9.61769
▁screen	-9.61948
▁200	-9.62114
▁billion	-9.62171
▁describe	-9.62187
▁High	-9.62268
ified	-9.62321
▁fire	-9.62388
▁east	-9.624
▁applied	-9.62501
ə	-9.62575
▁22	-9.62619
▁gain	-9.6263
▁employees	-9.62631
▁woman	-9.62669
j	-9.62675
▁*	-9.62715
▁team	-9.62723
▁genes	-9.62735
tor	-9.62743
form	-9.62875
▁document	-9.62877
▁walls	-9.62918
▁commercial	-9.62929
▁cavity	-9.62967
▁nursing	-9.62967
▁Source	-9.62991
▁crust	-9.63003
60	-9.63042
▁ma	-9.63118
▁Health	-9.63135
▁Ne	-9.63147
▁illness	-9.63212
tal	-9.63215
▁guide	-9.6324
▁construction	-9.63353
fe	-9.63375
▁tall	-9.6342
▁agent	-9.63435
▁$30	-9.63442
▁plastic	-9.63512
▁follow	-9.6356
▁Roman	-9.63771
lu	-9.63863
pro	-9.63942
▁al	-9.6395
*	-9.63973
ran	-9.63976
ru	-9.64149
▁particularly	-9.64166
▁genus	-9.64179
▁ice	-9.64229
ship	-9.64231
▁received	-9.64239
▁currency	-9.64247
▁Ho	-9.64283
▁improve	-9.64318
▁started	-9.64377
▁glass	-9.64417
▁famous	-9.6446
▁enzymes	-9.64494
▁firm	-9.64504
▁500	-9.64605
▁wind	-9.64663
▁actual	-9.64674
▁garden	-9.64686
▁chest	-9.64782
▁recent	-9.6479
if	-9.64832
▁points	-9.64958
kin	-9.64967
▁rice	-9.65002
▁beginning	-9.65098
▁trade	-9.65118
▁tri	-9.65209
▁bill	-9.65281
ER	-9.65349
ee	-9.6541
oma	-9.65416
za	-9.65433
▁ever	-9.65479
▁therefore	-9.65487
▁southern	-9.6553
▁understand	-9.65641
▁presence	-9.65698
11	-9.65881
▁pot	-9.66008
▁involves	-9.66044
▁affected	-9.66274
▁artery	-9.66359
▁window	-9.66766
▁policy	-9.66799
ze	-9.66857
▁roughly	-9.6686
▁fibers	-9.66871
▁horse	-9.66897
▁multi	-9.66996
▁Windows	-9.66998
▁numbers	-9.66999
▁Both	-9.67076
▁wild	-9.6709
▁text	-9.67118
▁outer	-9.67156
▁Gu	-9.67157
▁strength	-9.67287
▁theory	-9.67385
▁stage	-9.67544
▁currently	-9.67592
▁branch	-9.67804
led	-9.67905
▁serving	-9.68035
▁expenses	-9.68083
▁$8	-9.68153
ag	-9.68216
▁Symptoms	-9.68244
▁Find	-9.68281
▁overall	-9.68317
▁cross	-9.68398
ica	-9.68415
▁chart	-9.68417
ber	-9.68449
▁Step	-9.6848
can	-9.68484
▁spring	-9.6857
▁survey	-9.68663
▁Medical	-9.68753
▁Fahrenheit	-9.68782
▁dental	-9.68786
▁Food	-9.68827
▁exchange	-9.68882
see	-9.68889
ip	-9.68924
ever	-9.6895
▁popularity	-9.69
▁northern	-9.69045
▁colors	-9.69079
▁river	-9.69102
act	-9.69152
▁$6	-9.69267
▁Man	-9.69386
▁fl	-9.69419
▁fruits	-9.69449
▁Hi	-9.69477
▁la	-9.6951
▁sequence	-9.69518
▁band	-9.696
▁round	-9.69671
▁installed	-9.69677
▁distribution	-9.69678
▁electricity	-9.69761
▁ingredients	-9.69873
▁Sun	-9.69965
▁component	-9.70014
▁cap	-9.70102
ven	-9.70189
▁bachelor	-9.70219
▁app	-9.7025
▁student	-9.70259
▁options	-9.70273
▁stock	-9.70347
▁sand	-9.70361
ang	-9.70364
▁languages	-9.70527
▁girl	-9.70543
▁described	-9.70645
].	-9.70719
au	-9.7072
▁coast	-9.70738
▁dish	-9.70749
▁mix	-9.70767
ther	-9.70864
sis	-9.70908
▁replacement	-9.7091
▁impact	-9.71011
▁sell	-9.71011
▁$200	-9.71035
▁believe	-9.71045
▁running	-9.71072
▁sex	-9.71267
▁engine	-9.71281
▁2013	-9.71335
▁legs	-9.7142
%	-9.71433
▁House	-9.71545
▁hospital	-9.7158
▁whose	-9.71705
5%	-9.71738
▁bonds	-9.71758
▁Ad	-9.7189
▁got	-9.71913
▁nose	-9.7204
▁lo	-9.72051
▁lines	-9.72074
net	-9.72122
ow	-9.72165
▁reactions	-9.72204
▁characteristics	-9.72229
ver	-9.72236
▁Tri	-9.7224
▁juice	-9.72318
▁(2	-9.72357
▁September	-9.72377
▁percentage	-9.72405
▁$25	-9.72419
▁pet	-9.72438
▁absorb	-9.72489
▁Lo	-9.72566
▁March	-9.72568
▁performed	-9.72684
▁piece	-9.7278
▁Ex	-9.72796
▁International	-9.72849
▁workers	-9.7288
▁bi	-9.72911
▁layers	-9.72942
▁foreign	-9.72952
▁send	-9.72958
▁block	-9.73042
▁technology	-9.73096
▁instance	-9.73097
▁properly	-9.73132
▁equipment	-9.73137
zo	-9.73149
▁parents	-9.7318
Z	-9.7322
▁bread	-9.73231
▁Ba	-9.73251
▁took	-9.73275
cy	-9.73326
▁established	-9.73364
▁Vitamin	-9.73407
▁raw	-9.73578
cle	-9.73581
▁African	-9.73729
▁Ocean	-9.7376
▁Red	-9.73769
ward	-9.73827
▁sp	-9.7383
we	-9.73874
▁mountain	-9.74016
▁behind	-9.74032
▁final	-9.74065
▁held	-9.74065
▁Italian	-9.74068
▁Un	-9.74104
▁Park	-9.74115
od	-9.74127
▁formation	-9.7415
▁UK	-9.74152
▁tea	-9.74222
▁Part	-9.74261
▁prior	-9.74321
▁port	-9.74321
▁$1,000	-9.74351
▁Ar	-9.74384
▁clinical	-9.74391
▁Vi	-9.74514
▁leading	-9.74525
▁bo	-9.74593
▁places	-9.74636
▁Code	-9.74647
ification	-9.74767
▁23	-9.74796
ible	-9.74925
▁storage	-9.74934
▁potatoes	-9.74994
▁character	-9.75039
▁ocean	-9.75048
ice	-9.75103
▁Even	-9.75144
▁Central	-9.75146
▁attached	-9.75223
▁swelling	-9.75286
22	-9.75395
▁$500	-9.75422
▁passed	-9.75438
▁Abuse	-9.75445
SA	-9.75465
▁h	-9.75527
▁super	-9.75538
ja	-9.75543
▁medications	-9.75807
▁Water	-9.75815
▁save	-9.75824
pi	-9.75857
▁roof	-9.75868
ho	-9.75896
▁Bureau	-9.75994
▁Note	-9.76003
▁frequently	-9.76012
▁steps	-9.76033
such	-9.76048
▁Another	-9.76049
eg	-9.7615
RE	-9.76226
▁benefit	-9.76299
▁starts	-9.76304
▁economic	-9.76332
▁Check	-9.76337
chi	-9.7634
tu	-9.76381
▁web	-9.76427
99	-9.76443
men	-9.76458
▁shoulder	-9.76466
▁Depend	-9.76486
▁Washington	-9.76528
▁London	-9.76635
▁se	-9.76728
▁Pe	-9.76858
▁paint	-9.76859
▁tube	-9.7697
ea	-9.7701
▁Air	-9.77041
let	-9.77108
▁girls	-9.7712
car	-9.77165
▁hatch	-9.77225
state	-9.7723
▁components	-9.77371
▁button	-9.77486
hu	-9.77563
ene	-9.77653
▁r	-9.77876
ae	-9.77895
▁ensure	-9.77909
▁tooth	-9.7793
▁status	-9.77975
▁rights	-9.78034
not	-9.78046
▁appearance	-9.78061
▁gold	-9.78166
▁valve	-9.78181
▁relative	-9.78277
ey	-9.78344
▁Sp	-9.78346
ell	-9.78348
▁poly	-9.78373
▁fungi	-9.78415
uff	-9.78525
▁rain	-9.78556
▁tropical	-9.7865
▁measured	-9.78704
▁testing	-9.78741
ability	-9.78759
▁continue	-9.78789
ient	-9.78881
24	-9.78891
▁potassium	-9.78914
▁seat	-9.78917
▁initial	-9.78957
▁·	-9.79003
▁press	-9.79007
ring	-9.7903
▁items	-9.79078
▁solar	-9.79091
▁po	-9.79221
▁Statistics	-9.79242
▁fatty	-9.79242
▁taxes	-9.79251
▁Q	-9.79257
▁Roth	-9.79327
▁values	-9.7936
▁serve	-9.79502
▁performance	-9.79602
▁registered	-9.7969
▁pick	-9.79763
▁neurons	-9.79782
▁Get	-9.79799
▁cash	-9.79833
▁becomes	-9.79937
▁2009	-9.79946
▁broad	-9.80125
▁Pacific	-9.80171
▁Day	-9.8026
▁pa	-9.80279
▁master	-9.80358
▁l	-9.80388
▁electric	-9.80404
▁Ka	-9.80425
▁votes	-9.80427
▁10%	-9.80548
gu	-9.80551
▁rule	-9.80561
▁lung	-9.8064
▁ratio	-9.80671
▁His	-9.80791
▁Jo	-9.80833
our	-9.80834
▁heavy	-9.80862
▁son	-9.80872
cus	-9.80878
▁bag	-9.80919
▁Just	-9.81025
▁inch	-9.81026
▁anything	-9.81044
▁alone	-9.81203
▁future	-9.81221
▁mu	-9.81227
▁event	-9.81279
▁bowl	-9.81288
▁bladder	-9.81355
nic	-9.81363
▁container	-9.81428
▁flower	-9.81521
▁replace	-9.81523
▁surrounding	-9.81551
▁spine	-9.8157
pp	-9.81581
▁65	-9.8159
▁review	-9.81616
▁Irish	-9.81704
her	-9.81721
▁le	-9.81726
▁frequency	-9.81743
ˈ	-9.81762
IC	-9.81828
▁followed	-9.81855
▁Chinese	-9.81873
▁y	-9.81902
▁influence	-9.81938
▁originally	-9.82027
which	-9.82032
....	-9.8205
▁300	-9.82185
▁Common	-9.82261
ear	-9.82311
▁thus	-9.82378
▁Now	-9.82408
▁$7	-9.8248
▁diameter	-9.82486
▁schools	-9.82546
▁View	-9.82638
rd	-9.82664
▁walk	-9.82742
▁classified	-9.82772
▁breed	-9.82825
▁Service	-9.82901
▁fully	-9.82918
▁analysis	-9.82918
▁direction	-9.82924
▁parent	-9.82934
▁cities	-9.82944
▁radiation	-9.83
ai	-9.83062
▁wedding	-9.83124
▁flag	-9.83126
▁removed	-9.83165
▁50%	-9.83166
ble	-9.83299
▁father	-9.83331
▁door	-9.83335
▁custom	-9.83456
▁Se	-9.83457
▁Time	-9.83682
▁Department	-9.83698
▁fit	-9.83719
▁grade	-9.83726
16	-9.83733
▁En	-9.83749
▁roots	-9.83766
▁appears	-9.83837
▁enjoy	-9.83882
▁Italy	-9.83938
▁Learn	-9.83952
▁Social	-9.84028
gon	-9.84087
▁road	-9.84194
▁flour	-9.84211
▁proper	-9.84232
▁veins	-9.84355
▁choice	-9.84388
fa	-9.84403
▁party	-9.84408
old	-9.84455
low	-9.8449
▁December	-9.84507
▁protection	-9.84509
▁target	-9.84577
▁connective	-9.84595
▁semi	-9.84606
▁respiration	-9.84623
▁resulting	-9.84651
▁Ja	-9.84653
▁meal	-9.84663
▁Lu	-9.84841
▁Japan	-9.84972
▁budget	-9.84995
▁26	-9.85088
izing	-9.85109
▁ta	-9.85124
▁drop	-9.85188
▁yourself	-9.85211
▁birds	-9.85287
▁excess	-9.85375
▁College	-9.85415
foot	-9.85422
▁Then	-9.85427
▁King	-9.85433
lan	-9.85442
▁tail	-9.85573
▁God	-9.8558
▁broken	-9.85639
▁correct	-9.85695
tes	-9.8573
5,000	-9.85734
ute	-9.85772
cal	-9.85811
45	-9.85838
▁Mu	-9.85847
▁machine	-9.85877
▁Am	-9.85891
0.	-9.85944
▁details	-9.86002
▁annually	-9.86009
▁Blood	-9.86026
▁grass	-9.86054
mat	-9.86183
▁pump	-9.86184
▁Remove	-9.86238
▁extremely	-9.86281
ec	-9.86335
▁ring	-9.86409
ake	-9.86495
▁existing	-9.86496
▁scan	-9.86515
▁copy	-9.86528
▁contribute	-9.86532
▁sa	-9.86569
▁themselves	-9.86592
▁placed	-9.86595
▁Two	-9.86642
▁estate	-9.86739
▁School	-9.86782
▁Ga	-9.86782
ct	-9.86807
▁recorded	-9.86831
fish	-9.86849
32	-9.86898
tro	-9.86928
ual	-9.87116
▁hit	-9.87227
▁paying	-9.87257
▁political	-9.87258
wood	-9.87285
▁steak	-9.87359
IN	-9.87431
▁examples	-9.87465
▁Sha	-9.87528
▁remain	-9.87533
▁focus	-9.87558
ries	-9.87623
▁story	-9.87635
▁abnormal	-9.87642
▁grown	-9.87646
ions	-9.877
▁Let	-9.877
▁opening	-9.87729
-1	-9.87823
▁grains	-9.8785
17	-9.87895
ino	-9.87903
▁concentration	-9.87926
▁studies	-9.87929
▁ask	-9.87991
ki	-9.8805
▁passport	-9.88055
pt	-9.88068
gen	-9.88102
cul	-9.88276
part	-9.88309
▁Association	-9.88385
▁equivalent	-9.88385
che	-9.88396
▁photo	-9.88439
95	-9.88467
▁Constitution	-9.88483
$	-9.88498
▁ideal	-9.88556
▁hip	-9.88568
bb	-9.88611
▁wave	-9.88708
▁2008	-9.88744
▁turkey	-9.88748
▁$0.	-9.88774
▁division	-9.88801
oid	-9.88806
▁track	-9.88855
▁zone	-9.88933
rate	-9.8897
ren	-9.88987
▁$300	-9.8902
▁Ph	-9.89042
▁employer	-9.89097
▁household	-9.89097
▁Pa	-9.89099
▁bodies	-9.89111
▁soon	-9.89128
▁doing	-9.89322
nce	-9.89338
▁Center	-9.89342
▁Make	-9.89454
▁Edit	-9.89455
▁boil	-9.89471
▁Ch	-9.89522
but	-9.89543
▁White	-9.89596
▁lose	-9.89626
19	-9.89662
▁charges	-9.89667
ped	-9.89711
qui	-9.89746
▁freezer	-9.89782
▁cellular	-9.89788
▁0.	-9.89821
▁ho	-9.89849
▁purposes	-9.89874
▁William	-9.89892
board	-9.89923
▁yeast	-9.89943
▁boys	-9.8999
ax	-9.90054
▁ball	-9.90069
ans	-9.9007
▁verb	-9.90077
▁hepatitis	-9.90112
▁Don	-9.90183
▁combined	-9.90183
ray	-9.90193
▁yet	-9.90211
▁sheet	-9.90305
▁detect	-9.90307
▁wear	-9.90307
▁applications	-9.90388
▁Lake	-9.90447
▁security	-9.90481
▁General	-9.90559
lon	-9.90587
ants	-9.90597
▁Her	-9.90649
shaped	-9.90719
▁Its	-9.90742
▁knowledge	-9.90826
www	-9.90889
▁letter	-9.90924
▁$11	-9.90948
▁gets	-9.91093
▁aid	-9.9113
▁sample	-9.91133
fi	-9.91176
▁urinary	-9.91273
▁Kingdom	-9.91299
▁covers	-9.91315
▁fixed	-9.91391
▁reasons	-9.91421
▁em	-9.9146
▁charged	-9.91509
▁(3	-9.9153
▁fabric	-9.91577
▁lay	-9.91581
▁external	-9.9162
▁served	-9.91631
▁motion	-9.91665
65	-9.9168
▁pieces	-9.91693
▁fats	-9.91718
▁Ke	-9.91753
stone	-9.9176
▁phase	-9.91766
▁Over	-9.91788
ction	-9.91825
▁phrase	-9.91845
▁core	-9.91873
free	-9.91908
qu	-9.92
▁battery	-9.92014
▁Before	-9.92095
▁specifically	-9.9215
▁chemicals	-9.92159
14	-9.92159
▁treated	-9.92181
▁stores	-9.92218
▁vote	-9.92225
ric	-9.92257
▁(19	-9.92264
▁pure	-9.92269
row	-9.92315
▁Mon	-9.92444
▁II	-9.92461
▁depression	-9.92521
top	-9.92577
▁v	-9.92582
▁2011	-9.92605
▁connected	-9.92605
ins	-9.92662
ane	-9.92673
100	-9.92676
▁runs	-9.92688
▁$12	-9.92793
▁disc	-9.92807
▁Cook	-9.92809
▁Cl	-9.92841
bin	-9.92885
▁Security	-9.92924
▁measures	-9.92927
▁writing	-9.92941
▁Su	-9.92965
tter	-9.93026
▁viral	-9.93056
▁steel	-9.93115
▁remains	-9.93223
▁evidence	-9.93227
su	-9.93248
▁Bar	-9.93273
lar	-9.93322
▁sides	-9.93338
▁pe	-9.93348
▁exposure	-9.93405
▁email	-9.93418
▁ch	-9.93434
▁colon	-9.93464
ches	-9.93486
ight	-9.9357
▁perfect	-9.93578
21	-9.93587
▁rules	-9.93616
ory	-9.93631
▁intake	-9.93684
ists	-9.9378
▁indicate	-9.93799
▁pronounced	-9.9383
▁Share	-9.93882
▁scientific	-9.93888
▁November	-9.93894
▁user	-9.94116
▁distinct	-9.94214
▁alternative	-9.94245
▁load	-9.94261
US	-9.94298
▁waves	-9.94417
fer	-9.94426
▁Black	-9.94554
85	-9.94607
▁kept	-9.94612
▁Union	-9.94627
▁pink	-9.9463
▁75	-9.94641
▁determined	-9.94686
work	-9.94706
▁represents	-9.94734
▁beautiful	-9.94861
▁120	-9.94876
▁rent	-9.94996
▁agreement	-9.95167
▁atom	-9.95257
▁reduced	-9.95324
▁2000	-9.95396
▁families	-9.95402
▁Human	-9.95452
▁connect	-9.95522
▁pregnant	-9.95532
water	-9.95536
▁meters	-9.95556
▁skills	-9.95576
▁gl	-9.95607
▁Fi	-9.95692
▁Western	-9.95693
▁stem	-9.95762
▁laws	-9.95783
▁tool	-9.95829
port	-9.95844
▁feature	-9.95906
amine	-9.95937
light	-9.96016
▁exam	-9.96055
▁mental	-9.96096
▁pair	-9.96144
▁kitchen	-9.96156
▁bathroom	-9.96157
▁president	-9.96174
▁islands	-9.96193
▁hands	-9.96219
▁tender	-9.96255
▁display	-9.96257
▁biological	-9.96372
▁chromosome	-9.96415
▁pancreas	-9.96443
ung	-9.96454
ata	-9.96467
▁twice	-9.96495
▁western	-9.96507
rich	-9.96526
til	-9.96566
▁coat	-9.96569
▁particles	-9.96574
▁carries	-9.96653
▁cream	-9.96657
ella	-9.96672
▁£	-9.96677
▁wire	-9.96698
▁discovered	-9.96701
ns	-9.96756
▁diarrhea	-9.96757
▁1000	-9.9677
▁note	-9.96797
▁relationship	-9.96823
▁Gra	-9.96841
▁cr	-9.96856
▁variable	-9.96857
▁signal	-9.96883
▁driving	-9.96941
▁garlic	-9.96943
28	-9.9696
▁abdominal	-9.97076
▁contrast	-9.97083
▁Da	-9.971
-$1	-9.97137
▁stream	-9.97146
don	-9.97161
dia	-9.97186
▁pattern	-9.97257
▁reports	-9.97257
▁rash	-9.97354
▁vision	-9.97406
▁filter	-9.97412
▁peak	-9.97419
▁Full	-9.97643
▁thermometer	-9.9768
▁Th	-9.9768
▁collection	-9.97697
▁acute	-9.97709
▁auto	-9.97718
▁stand	-9.9773
ud	-9.97736
fin	-9.9774
▁changed	-9.97789
▁Internet	-9.97896
AN	-9.97913
▁Any	-9.98019
▁salmon	-9.98022
▁border	-9.98031
▁resources	-9.98032
▁introduced	-9.98047
▁$40	-9.9806
str	-9.98071
▁sit	-9.98097
▁copper	-9.98103
▁February	-9.98217
▁tiny	-9.98217
▁deficiency	-9.98236
▁USA	-9.98243
▁bright	-9.98246
ola	-9.98313
▁appropriate	-9.98369
▁ready	-9.98373
▁media	-9.98412
ular	-9.98436
▁lives	-9.98473
▁150	-9.98479
▁processing	-9.98481
▁files	-9.98502
meter	-9.98517
▁Mac	-9.98538
▁chromosomes	-9.98638
▁connection	-9.98724
▁greatly	-9.98775
▁Generally	-9.9878
▁Hebrew	-9.98794
▁insulin	-9.9889
▁setting	-9.98901
18	-9.98917
▁column	-9.99042
AR	-9.99079
▁convert	-9.99105
AL	-9.99108
▁Bake	-9.99214
▁Cal	-9.9922
▁entry	-9.99311
▁safety	-9.99317
bar	-9.99349
▁bed	-9.99352
▁Their	-9.99405
▁Cha	-9.99422
▁$150	-9.99553
▁heating	-9.99823
▁TV	-9.99856
tation	-9.99865
pre	-9.99914
▁ro	-9.99954
▁isn	-9.9996
▁phosphate	-10.0005
▁request	-10.0005
▁kinds	-10.0009
oo	-10.0018
▁Post	-10.0022
▁Bi	-10.0024
▁magnesium	-10.0028
▁tear	-10.0029
▁investment	-10.0031
pan	-10.0031
▁anxiety	-10.0036
▁worked	-10.0037
▁Japanese	-10.0041
▁nation	-10.0042
▁cleaning	-10.0045
▁burn	-10.0052
▁variant	-10.0055
▁producing	-10.0057
▁Keep	-10.0061
ya	-10.0065
▁ATP	-10.0075
▁minor	-10.0077
▁nuclear	-10.0079
▁previous	-10.0086
▁Under	-10.0086
▁airport	-10.0093
▁Form	-10.0094
▁orange	-10.0095
back	-10.0096
▁Celsius	-10.0102
▁steam	-10.0104
king	-10.0106
▁Middle	-10.0116
▁bio	-10.0116
ological	-10.012
▁promote	-10.0121
▁lining	-10.0122
▁ha	-10.0124
▁customer	-10.0135
▁400	-10.0139
ug	-10.014
▁thousands	-10.014
▁profit	-10.0143
▁faster	-10.0143
▁metabolism	-10.0148
▁failure	-10.0149
cre	-10.0155
▁global	-10.0167
▁acts	-10.0173
▁Sometimes	-10.0179
▁methods	-10.0189
▁quick	-10.019
over	-10.0196
▁mixed	-10.0199
▁heal	-10.0201
▁boy	-10.0204
gg	-10.0205
29	-10.0207
▁plays	-10.0208
▁CO	-10.0218
▁digestion	-10.0228
▁everything	-10.0228
▁independent	-10.0229
▁flight	-10.0235
▁issue	-10.0237
emia	-10.0246
mal	-10.0256
▁Australian	-10.0257
▁mm	-10.0268
▁decrease	-10.0272
▁military	-10.0284
▁notice	-10.0287
▁bird	-10.0293
nch	-10.0296
▁Pay	-10.0297
▁drain	-10.0298
▁wet	-10.03
▁communication	-10.0301
▁immediately	-10.0301
23	-10.0308
▁cortex	-10.0309
▁Ko	-10.031
▁stick	-10.0318
▁identify	-10.0324
▁mortgage	-10.0326
▁u	-10.0331
01	-10.0332
▁whereas	-10.0332
▁looks	-10.0332
▁differences	-10.0345
▁demand	-10.0345
▁nodes	-10.0367
▁27	-10.0367
▁mar	-10.0367
▁station	-10.0372
med	-10.0372
und	-10.0379
ala	-10.0381
98	-10.0383
▁Please	-10.0385
▁author	-10.0399
Q	-10.0404
▁happen	-10.0404
▁Bay	-10.0409
▁eastern	-10.0411
▁varieties	-10.0413
▁James	-10.0416
hour	-10.0416
▁concept	-10.0417
▁player	-10.0418
active	-10.0419
▁issues	-10.0423
▁approved	-10.0427
dic	-10.0438
▁deal	-10.044
▁Wi	-10.0441
sion	-10.0445
▁ranging	-10.0453
-3	-10.0454
▁breathing	-10.0456
▁Virginia	-10.046
ates	-10.0466
▁unless	-10.0467
▁mono	-10.0468
ave	-10.047
▁olive	-10.0471
▁apart	-10.0473
off	-10.0478
▁Information	-10.0479
▁va	-10.0484
▁electrons	-10.0496
▁spoken	-10.0497
ko	-10.0504
▁cast	-10.0508
▁associate	-10.0511
▁providing	-10.0512
▁Mi	-10.0513
▁exactly	-10.0516
▁park	-10.0517
▁coverage	-10.0518
▁duct	-10.052
van	-10.0521
▁lost	-10.0533
ria	-10.0533
lia	-10.0537
▁item	-10.0547
▁breath	-10.0549
▁onto	-10.0553
CO	-10.0558
▁2007	-10.0571
▁Republic	-10.0571
▁touch	-10.0574
▁starch	-10.0578
▁Spain	-10.0582
▁Airport	-10.0584
▁pull	-10.0595
▁sq	-10.0596
LE	-10.0601
▁earnings	-10.0608
▁powerful	-10.0609
05	-10.0612
▁statement	-10.0615
▁hemoglobin	-10.0615
▁Company	-10.0615
▁oral	-10.0619
-2	-10.0624
▁sent	-10.0633
▁Confidence	-10.0644
▁founded	-10.0645
▁conduct	-10.0648
from	-10.0651
▁happens	-10.0657
▁bake	-10.0659
▁Ru	-10.0664
▁shell	-10.0664
sia	-10.0669
▁civil	-10.0669
▁fill	-10.0672
▁recommend	-10.0672
26	-10.0677
▁obtain	-10.0684
▁grows	-10.0687
▁category	-10.0688
▁plasma	-10.0688
cho	-10.069
▁colour	-10.0697
fu	-10.0698
du	-10.0699
▁message	-10.0702
▁occurring	-10.0707
▁events	-10.0708
▁sc	-10.0709
▁contagious	-10.0711
▁radio	-10.0719
▁leaf	-10.0722
▁retirement	-10.0723
▁Origin	-10.0725
▁lies	-10.0732
▁epi	-10.0737
▁tongue	-10.0737
▁package	-10.0746
RA	-10.0747
▁Select	-10.0748
▁31	-10.0756
▁gum	-10.0758
ST	-10.076
▁Sub	-10.0765
▁32	-10.0776
bu	-10.0778
ement	-10.0778
▁stain	-10.078
▁pi	-10.0783
▁calculate	-10.0784
cur	-10.0787
▁supplement	-10.0788
▁Federal	-10.079
▁forest	-10.0799
▁Ni	-10.08
ious	-10.0803
▁grain	-10.0808
▁cats	-10.0809
▁vegetable	-10.0809
▁published	-10.081
▁fight	-10.0817
▁please	-10.0831
▁menu	-10.0832
▁Northern	-10.0838
▁customers	-10.084
▁engineering	-10.0842
ker	-10.0844
▁surgeon	-10.085
▁stands	-10.0854
▁memory	-10.0857
▁premium	-10.0857
sp	-10.0869
qua	-10.0871
▁county	-10.0873
▁except	-10.0873
▁Standard	-10.0875
66	-10.0877
▁Bro	-10.0882
▁smell	-10.0884
nal	-10.0886
▁driveway	-10.0886
tain	-10.089
▁periods	-10.0897
ville	-10.0903
▁adding	-10.0913
▁nitrogen	-10.0915
▁mail	-10.0918
▁Dis	-10.092
▁describes	-10.0923
▁specialized	-10.0925
In	-10.0927
▁Test	-10.0928
▁maintenance	-10.0931
mar	-10.0934
▁bleeding	-10.0939
▁mammals	-10.094
▁handle	-10.0942
▁Ri	-10.0944
▁prescription	-10.0947
ock	-10.0949
ill	-10.0954
▁raise	-10.0956
▁Te	-10.096
▁devices	-10.0962
len	-10.0963
▁foil	-10.0963
▁($	-10.0963
55	-10.0965
▁skeletal	-10.0967
IS	-10.0969
▁believed	-10.0977
▁Inter	-10.098
▁label	-10.0987
log	-10.0998
▁narrow	-10.101
▁frozen	-10.1012
▁expression	-10.1019
▁giving	-10.1021
art	-10.1028
ue	-10.1028
▁extension	-10.1033
▁pH	-10.1037
▁adjective	-10.1039
74	-10.1041
jo	-10.1042
ick	-10.1053
▁executive	-10.1054
AT	-10.1059
▁cytoplasm	-10.1063
▁desert	-10.1064
▁neuron	-10.1065
▁prepared	-10.1075
▁exist	-10.1076
&	-10.1082
▁Civil	-10.1084
▁characteristic	-10.1088
▁fr	-10.1092
▁rose	-10.1094
▁Yes	-10.1095
▁mis	-10.1096
▁cent	-10.1099
▁allowed	-10.1105
▁picture	-10.1107
▁2015.	-10.1111
▁developing	-10.1113
▁IRS	-10.1115
=	-10.1115
▁becoming	-10.1118
▁babies	-10.112
▁exceed	-10.112
▁approach	-10.1121
▁wait	-10.1122
▁$14	-10.1131
▁goods	-10.1132
▁mark	-10.1137
ple	-10.1143
▁owner	-10.1146
▁database	-10.1149
▁domestic	-10.1152
▁Nurse	-10.1154
▁symptom	-10.1155
▁manager	-10.1156
rus	-10.116
▁wages	-10.116
▁Read	-10.1163
▁physician	-10.1163
▁$10,000	-10.1164
ade	-10.1169
▁cartilage	-10.1169
▁Photo	-10.1169
ration	-10.1175
▁represent	-10.1178
▁29	-10.1185
▁Overview	-10.1187
▁Today	-10.1191
▁Los	-10.1194
▁Medicare	-10.12
rn	-10.1203
▁bile	-10.1204
▁survive	-10.1206
▁Green	-10.1209
▁easier	-10.1209
▁removal	-10.1209
inch	-10.1217
▁constant	-10.122
▁calculator	-10.1221
gar	-10.1222
ED	-10.1225
▁48	-10.1225
▁movie	-10.1227
▁operating	-10.123
88	-10.1231
han	-10.1231
▁nest	-10.1232
▁shop	-10.1233
▁quarter	-10.1236
▁bottle	-10.1237
▁cents	-10.1237
ses	-10.1242
ov	-10.1246
▁par	-10.1246
▁Plant	-10.1251
79	-10.1273
▁gases	-10.1276
▁forming	-10.128
ham	-10.1295
▁cough	-10.1297
▁dairy	-10.1298
some	-10.1314
▁straight	-10.1316
▁switch	-10.1321
all	-10.1322
▁calculated	-10.1326
ency	-10.1326
▁Men	-10.1326
▁sale	-10.1328
▁mechanical	-10.133
▁remaining	-10.1334
▁reading	-10.1337
▁texture	-10.1344
▁dead	-10.1345
▁Examples	-10.1347
bit	-10.1348
▁receptors	-10.1348
▁write	-10.1354
ination	-10.1355
▁kids	-10.1361
▁fossil	-10.1366
89	-10.1366
▁pop	-10.1375
late	-10.1377
▁Court	-10.1378
press	-10.138
▁consist	-10.1381
▁Education	-10.1381
▁Office	-10.1382
▁Long	-10.1383
nes	-10.1383
▁purchased	-10.1384
cha	-10.1389
▁opposite	-10.1391
gue	-10.1397
▁finish	-10.1399
▁assistant	-10.1399
▁synthesis	-10.1401
▁density	-10.1408
ware	-10.1409
▁Bank	-10.1409
▁ship	-10.141
cro	-10.1412
▁yearly	-10.1416
▁Therefore	-10.1419
▁trip	-10.1419
▁rib	-10.1423
tric	-10.1423
8%	-10.1424
▁completed	-10.1428
▁hypo	-10.1429
33	-10.1432
▁antibodies	-10.1434
▁plans	-10.1437
▁numerous	-10.1444
▁li	-10.1447
▁reaches	-10.1453
▁ham	-10.146
34	-10.1463
▁driver	-10.1475
▁George	-10.1475
cl	-10.1475
▁ingredient	-10.1476
▁provider	-10.1482
▁questions	-10.1482
▁crack	-10.1483
▁remember	-10.1485
▁painful	-10.1486
▁generation	-10.1489
▁graduate	-10.149
▁para	-10.1493
▁hyper	-10.1498
▁consisting	-10.1505
▁weigh	-10.1508
▁350	-10.1508
000	-10.1509
▁females	-10.151
▁attempt	-10.151
▁seal	-10.151
▁Sc	-10.1513
▁closely	-10.1515
▁exact	-10.1516
▁Take	-10.1527
aw	-10.153
91	-10.1533
well	-10.1535
▁composition	-10.1538
▁strand	-10.1539
27	-10.1544
CA	-10.1546
▁learning	-10.1551
bra	-10.1556
▁Facebook	-10.1557
▁feeling	-10.1558
▁anterior	-10.1563
▁react	-10.1568
▁split	-10.157
▁nine	-10.1573
▁males	-10.1578
▁secondary	-10.1579
▁ribs	-10.158
▁invented	-10.1583
ons	-10.1583
istic	-10.1584
▁attention	-10.1585
▁Alaska	-10.1586
▁sac	-10.1586
phy	-10.1588
lus	-10.1593
type	-10.16
▁tab	-10.1604
▁Open	-10.1606
76	-10.1606
▁ions	-10.161
▁algae	-10.1614
▁Trans	-10.1619
▁diagnosis	-10.1621
▁compare	-10.1622
▁visible	-10.1626
▁functional	-10.1628
▁Set	-10.1629
▁tile	-10.1631
▁shot	-10.1631
▁Inc	-10.1634
▁format	-10.1636
▁36	-10.1638
▁pigment	-10.164
sta	-10.1643
▁path	-10.1646
▁else	-10.1648
ES	-10.1648
▁vital	-10.1651
▁contraction	-10.1652
rin	-10.1662
▁resting	-10.1662
▁spot	-10.1664
vis	-10.1665
▁PC	-10.1665
36	-10.1665
▁Age	-10.1666
▁died	-10.1669
▁List	-10.1671
▁players	-10.1673
▁increasing	-10.1674
▁classes	-10.1676
▁rid	-10.1677
nate	-10.1679
MS	-10.168
▁variation	-10.1681
▁cable	-10.1684
▁silver	-10.1688
ition	-10.1695
▁success	-10.1696
ised	-10.1698
▁linked	-10.1698
tru	-10.1702
paid	-10.1703
▁significantly	-10.1706
▁Ju	-10.1709
▁ra	-10.1713
▁angle	-10.1717
▁goal	-10.1717
08	-10.1717
▁department	-10.1723
▁na	-10.1732
▁oldest	-10.1732
▁gift	-10.1739
▁die	-10.1742
▁chance	-10.1744
▁kg	-10.1746
illa	-10.1756
▁frame	-10.1759
▁chi	-10.1762
▁Du	-10.1765
ena	-10.1775
▁mold	-10.1775
TA	-10.1777
▁enable	-10.1779
▁Zealand	-10.1781
▁refund	-10.1789
▁abdomen	-10.1794
▁wheat	-10.1794
▁comp	-10.1797
▁race	-10.1799
▁society	-10.181
▁moisture	-10.1811
4%	-10.1814
▁Com	-10.1814
,000.	-10.182
▁fridge	-10.1824
▁Business	-10.1826
▁Care	-10.1831
ral	-10.1834
app	-10.1837
▁reflect	-10.184
▁Group	-10.184
▁permanent	-10.1846
ost	-10.1853
▁pin	-10.1857
2.	-10.186
▁dance	-10.1861
▁coffee	-10.1862
▁Har	-10.1865
▁Law	-10.1866
4,000	-10.1868
▁Life	-10.1868
);	-10.1872
▁capacity	-10.1875
▁lamb	-10.1877
▁Americans	-10.1878
▁talk	-10.1882
head	-10.1883
▁transmitted	-10.1886
▁deliver	-10.1889
▁Number	-10.1889
▁toward	-10.1889
Re	-10.1891
▁dominant	-10.1895
▁Hu	-10.1897
▁Ti	-10.1898
▁planning	-10.1898
▁mode	-10.1902
▁played	-10.1912
▁mile	-10.1914
▁excellent	-10.1915
▁toxic	-10.1917
77	-10.1919
ula	-10.1921
04	-10.1921
ens	-10.1924
▁Type	-10.1933
▁controlled	-10.1934
▁went	-10.1934
73	-10.1936
tive	-10.1936
6%	-10.1941
▁Cu	-10.1943
▁Using	-10.1944
▁$5,000	-10.1945
▁Ireland	-10.1951
▁Bu	-10.1951
▁industrial	-10.1954
▁command	-10.1954
▁blend	-10.1956
▁earlier	-10.1957
▁Preheat	-10.1964
▁incubation	-10.1971
ris	-10.1982
▁poor	-10.1987
▁sum	-10.1989
▁beta	-10.199
▁plates	-10.1995
▁Disease	-10.1997
▁kill	-10.1997
lli	-10.1999
▁structural	-10.2004
▁resistance	-10.2004
▁temp	-10.2007
▁delivery	-10.2011
▁psychology	-10.2014
▁Canadian	-10.2017
▁residents	-10.202
▁accounts	-10.2021
▁Ben	-10.2031
▁sensory	-10.2035
97	-10.2043
▁fe	-10.2044
▁visual	-10.2047
▁forward	-10.2056
▁circuit	-10.2057
▁Program	-10.2057
▁Blue	-10.2058
▁Non	-10.206
▁dense	-10.2061
most	-10.2061
64	-10.2064
q	-10.2065
▁dependent	-10.2069
▁flows	-10.2074
▁stones	-10.2075
▁orbit	-10.2077
▁lab	-10.2078
▁output	-10.2082
▁pituitary	-10.2083
▁suggest	-10.2087
▁penalty	-10.2087
▁foundation	-10.2088
name	-10.2092
▁ga	-10.2092
▁creating	-10.2094
▁employment	-10.2094
▁Free	-10.2094
ik	-10.2095
▁lemon	-10.2098
▁critical	-10.21
▁mobile	-10.2101
▁recently	-10.2107
par	-10.2112
69	-10.2112
31	-10.2112
els	-10.2117
▁Southern	-10.2118
37	-10.2119
dL	-10.2127
▁cho	-10.2134
▁weakness	-10.2135
▁led	-10.2138
▁images	-10.2139
long	-10.214
▁measurement	-10.2142
rum	-10.215
ery	-10.216
▁dried	-10.2161
▁Che	-10.2162
7%	-10.2163
48	-10.2164
▁employed	-10.2172
▁comparison	-10.2174
▁friend	-10.2174
▁spray	-10.2179
tr	-10.218
▁ne	-10.2186
▁hydro	-10.2187
ign	-10.2188
▁farm	-10.2192
▁biggest	-10.2195
▁users	-10.2197
▁tank	-10.2199
▁ventricle	-10.2201
ids	-10.2204
▁estimates	-10.2207
▁instructions	-10.2211
▁agents	-10.2213
▁replaced	-10.2215
▁Tax	-10.2225
▁lived	-10.2227
▁antigen	-10.2227
▁moon	-10.2229
▁gu	-10.2234
vol	-10.2236
▁train	-10.2238
▁dietary	-10.2242
▁consume	-10.2245
▁spent	-10.2247
▁imp	-10.2249
▁rod	-10.2251
68	-10.2253
▁supplements	-10.2253
▁2013,	-10.2254
▁History	-10.2259
▁depth	-10.2261
▁electronic	-10.2261
▁supplies	-10.2262
mic	-10.2266
▁patent	-10.227
▁Fe	-10.2272
▁description	-10.2273
,600	-10.2275
▁wound	-10.2276
▁Bio	-10.2276
▁Islands	-10.2277
rt	-10.228
▁Baby	-10.228
▁sexual	-10.2281
▁width	-10.2282
▁homes	-10.2286
▁soluble	-10.2287
▁offered	-10.2289
▁signals	-10.2292
▁tip	-10.2292
39	-10.2297
06	-10.2299
▁branches	-10.23
▁Georgia	-10.2303
▁collected	-10.2309
▁identified	-10.2313
86	-10.2315
▁pulmonary	-10.2316
▁former	-10.2316
▁signed	-10.2317
▁Thus	-10.2322
▁prefer	-10.2324
▁fun	-10.2325
▁push	-10.2325
▁continent	-10.2328
▁te	-10.2328
▁Rh	-10.2328
▁consumption	-10.2337
▁environmental	-10.2342
CH	-10.2345
▁nuts	-10.2345
▁receives	-10.2346
▁da	-10.2349
▁zip	-10.2354
▁desired	-10.2356
▁director	-10.2358
▁Si	-10.2359
07	-10.2361
▁coal	-10.2362
▁follows	-10.2362
▁(4	-10.2363
96	-10.2364
▁contribution	-10.2368
▁seem	-10.237
▁nothing	-10.2372
▁collect	-10.2373
tel	-10.2373
▁Low	-10.2377
▁eventually	-10.2378
▁prepare	-10.2378
▁Art	-10.238
▁exposed	-10.2381
▁transmission	-10.2382
▁Class	-10.2385
▁tumor	-10.239
▁dangerous	-10.2392
uc	-10.2394
har	-10.2395
▁pipe	-10.2402
▁seconds	-10.2405
▁monitor	-10.2411
▁Fa	-10.2416
level	-10.2427
▁certified	-10.2429
▁tips	-10.243
▁BLS	-10.2433
val	-10.2436
▁Britain	-10.2437
▁span	-10.2439
▁forests	-10.2441
▁linear	-10.2443
rr	-10.2448
▁Chi	-10.2456
az	-10.2464
▁extreme	-10.2468
▁pairs	-10.2468
ject	-10.2473
▁insects	-10.2477
,200	-10.2479
▁recognized	-10.248
▁recipe	-10.2482
▁arms	-10.2484
▁Manager	-10.2485
▁Well	-10.2486
ned	-10.2492
▁gross	-10.2492
09	-10.2492
gin	-10.2495
▁roll	-10.2499
▁deposit	-10.2501
▁wish	-10.2507
house	-10.2508
▁drinking	-10.2509
▁aluminum	-10.2509
MA	-10.2511
▁originated	-10.2511
▁debt	-10.2513
ations	-10.2519
▁strain	-10.2521
ath	-10.2525
▁technique	-10.2528
▁damaged	-10.2533
▁Cat	-10.2533
▁Tra	-10.2534
▁speech	-10.2537
iff	-10.2538
▁Out	-10.2539
03	-10.2539
org	-10.2543
▁marketing	-10.2545
▁Microsoft	-10.2548
▁Costs	-10.2551
set	-10.2552
▁moderate	-10.2554
▁extract	-10.2555
▁Ve	-10.2555
▁Total	-10.2557
▁pulse	-10.2557
▁row	-10.2566
▁Carolina	-10.2569
▁objects	-10.2571
amp	-10.2577
▁brought	-10.2583
▁Russia	-10.2586
▁serves	-10.2589
▁usage	-10.259
▁du	-10.2592
PA	-10.2592
BC	-10.2595
cu	-10.2596
▁album	-10.2603
▁moist	-10.2603
pos	-10.2605
▁accounting	-10.2607
▁bowel	-10.2608
called	-10.2609
▁voice	-10.2611
ult	-10.2616
▁allergic	-10.2618
▁figures	-10.2618
▁oxide	-10.262
▁trying	-10.2622
▁garage	-10.2622
hr	-10.2624
▁compensation	-10.2625
▁ages	-10.2627
▁respond	-10.2628
▁certification	-10.2632
rine	-10.2633
▁marine	-10.2642
ack	-10.2643
▁match	-10.2653
▁CA	-10.2656
▁Usually	-10.2657
▁Va	-10.2665
38	-10.267
▁staff	-10.2671
ius	-10.2678
▁$60	-10.268
▁Google	-10.2685
lands	-10.269
,400	-10.2694
▁context	-10.2696
▁Those	-10.2696
ob	-10.2698
▁muscular	-10.2703
▁contractor	-10.2709
RI	-10.2714
▁Typically	-10.2717
▁electron	-10.272
▁letters	-10.2722
▁cur	-10.2726
▁Star	-10.2727
▁eligible	-10.2731
▁university	-10.2731
▁injection	-10.2731
▁metals	-10.2734
teen	-10.2735
▁sore	-10.2737
ada	-10.2744
▁strip	-10.2747
▁destination	-10.2749
44	-10.2749
▁deduction	-10.2753
▁Page	-10.2753
▁Anti	-10.276
unt	-10.2768
▁decide	-10.2769
▁morning	-10.2771
gy	-10.2776
▁ends	-10.2776
▁sort	-10.2781
▁Install	-10.2781
▁biology	-10.2782
▁processed	-10.2784
▁coming	-10.2788
▁controls	-10.2789
▁Enter	-10.279
▁reached	-10.2793
ome	-10.2797
▁$400	-10.2799
▁manufacturing	-10.2799
▁carried	-10.2799
▁Muscle	-10.2803
▁cubic	-10.2803
▁differ	-10.2806
▁Amendment	-10.2806
▁kilometers	-10.2806
▁moves	-10.2806
▁Only	-10.2808
▁tools	-10.2808
▁sites	-10.2811
▁autoimmune	-10.2813
▁situation	-10.2815
more	-10.2827
▁Up	-10.2829
pl	-10.283
▁adrenal	-10.2831
▁pretty	-10.2831
5°	-10.2831
matic	-10.2834
cer	-10.2834
▁bacterium	-10.2835
▁bridge	-10.2837
▁issued	-10.2844
▁limits	-10.2857
▁filing	-10.2861
cent	-10.2862
▁renal	-10.2866
ocytes	-10.2869
▁fracture	-10.2871
▁situated	-10.2878
▁understanding	-10.2879
mes	-10.288
▁$2,000	-10.2883
▁procedures	-10.2885
▁membranes	-10.2886
83	-10.2886
▁vomiting	-10.2892
▁cultural	-10.2894
por	-10.2895
▁Introduction	-10.2896
2%	-10.2897
▁im	-10.2899
▁nationwide	-10.29
▁scar	-10.2901
▁Heat	-10.2903
▁volcano	-10.2903
▁indicates	-10.2908
▁deck	-10.2913
1,	-10.2914
.50	-10.2917
pen	-10.2926
yn	-10.2927
▁beyond	-10.2932
▁cardiac	-10.294
lum	-10.2948
▁humidity	-10.2948
▁slowly	-10.2954
▁decision	-10.2955
▁sh	-10.2957
▁academic	-10.2958
▁harmful	-10.2959
▁lift	-10.2966
cing	-10.2968
▁Credit	-10.2969
▁vent	-10.2975
▁Fo	-10.2989
93	-10.2995
▁mature	-10.2995
▁licensed	-10.2997
▁server	-10.2999
▁carbohydrate	-10.2999
▁Unlike	-10.3001
▁chloride	-10.3005
mus	-10.3011
▁si	-10.3023
▁fan	-10.3032
▁Rate	-10.3034
ore	-10.3037
▁(#	-10.3037
with	-10.3037
▁domain	-10.3041
▁relieve	-10.3042
▁surgical	-10.3047
▁postings	-10.3049
ura	-10.305
▁Ac	-10.3053
92	-10.3056
▁unusual	-10.3057
▁Port	-10.3057
sign	-10.3057
▁eaten	-10.3059
▁bra	-10.3059
▁instrument	-10.3061
▁burning	-10.3068
▁Good	-10.3074
▁facility	-10.3075
▁session	-10.3079
▁%	-10.308
about	-10.3082
ney	-10.3087
▁curve	-10.3088
▁BC	-10.309
cycl	-10.309
▁uterus	-10.3094
▁Prince	-10.3094
▁huge	-10.3094
▁successful	-10.3096
▁gra	-10.3106
▁beats	-10.3106
ld	-10.3108
air	-10.3109
,”	-10.3112
ments	-10.3116
49	-10.3119
▁posterior	-10.3119
▁2006	-10.3131
▁sperm	-10.3135
▁detailed	-10.3137
▁Gar	-10.314
▁el	-10.3142
▁accurate	-10.3143
▁Plan	-10.315
▁favorite	-10.3151
▁Web	-10.3151
morph	-10.316
3%	-10.3161
non	-10.3161
cc	-10.3172
onic	-10.3174
▁ion	-10.3176
▁gram	-10.318
ography	-10.318
▁stroke	-10.3182
▁250	-10.3188
▁eukaryotic	-10.319
▁watch	-10.3191
▁yard	-10.3194
▁circle	-10.3197
uk	-10.3198
▁seems	-10.3199
▁closed	-10.32
▁percentile	-10.3201
known	-10.3204
▁fairly	-10.3208
▁biome	-10.3208
▁trust	-10.3208
related	-10.3208
▁Cre	-10.3212
▁Sh	-10.3214
▁laboratory	-10.3224
▁Cover	-10.3226
▁commission	-10.3227
ks	-10.3228
▁Work	-10.323
▁agencies	-10.3231
▁raised	-10.3231
▁magnetic	-10.3235
▁define	-10.3235
ford	-10.3236
▁anyone	-10.3238
ify	-10.3245
▁roasting	-10.3247
▁valid	-10.3252
▁vs	-10.3253
82	-10.3256
▁infectious	-10.3258
▁bloodstream	-10.3259
▁qua	-10.3261
▁Atlantic	-10.3264
▁bound	-10.3265
▁crime	-10.3265
▁Description	-10.3269
vel	-10.3274
▁converted	-10.328
▁payments	-10.3285
ix	-10.3291
▁vinegar	-10.3291
▁facts	-10.3292
▁retail	-10.3292
▁panel	-10.3293
iz	-10.3295
46	-10.3295
▁$75	-10.3296
hen	-10.3296
▁pu	-10.3301
ero	-10.3301
▁everyone	-10.3312
▁pneumonia	-10.3314
ulation	-10.3314
▁Control	-10.3315
▁(1)	-10.3315
▁lu	-10.3317
▁stool	-10.3325
▁Sch	-10.3325
sive	-10.3329
▁mutation	-10.333
▁obtained	-10.333
▁$35	-10.333
▁Board	-10.3331
▁metabolic	-10.3333
▁Salaries	-10.3333
▁painting	-10.3333
▁principal	-10.3336
▁min	-10.3338
are	-10.3338
▁Rock	-10.3338
▁habitat	-10.3344
▁bulb	-10.3356
br	-10.3356
▁covering	-10.3358
ay	-10.336
▁cha	-10.3372
▁passes	-10.3373
▁excessive	-10.3374
▁trace	-10.3381
tan	-10.3382
rom	-10.3382
▁absorbed	-10.3382
▁speak	-10.3386
▁mountains	-10.339
▁HIV	-10.3397
ew	-10.3398
▁books	-10.3399
including	-10.34
▁menstrual	-10.341
▁preparation	-10.3412
▁permit	-10.3413
▁province	-10.3416
cut	-10.3417
▁Turn	-10.3417
▁accept	-10.3419
▁Project	-10.3429
▁snow	-10.3432
▁stable	-10.3432
▁sports	-10.3436
▁doctors	-10.3439
▁et	-10.3441
▁antibiotics	-10.3442
ET	-10.3449
▁tap	-10.3452
ON	-10.3454
▁receptor	-10.3454
ff	-10.3455
wing	-10.3464
▁sugars	-10.3466
▁(5	-10.3468
▁healing	-10.3469
▁abundant	-10.3477
▁su	-10.3478
ros	-10.348
▁Normal	-10.3484
▁experienced	-10.3487
▁gray	-10.349
▁acre	-10.3491
▁respectively	-10.3492
67	-10.3496
tre	-10.3498
▁married	-10.35
▁trial	-10.3501
zi	-10.3502
▁breakdown	-10.3509
▁withdrawal	-10.351
▁nausea	-10.352
des	-10.3521
▁leads	-10.3526
▁Egypt	-10.3526
▁counter	-10.3527
▁corporation	-10.3529
▁technician	-10.3532
tom	-10.3533
▁towards	-10.3533
▁index	-10.3536
▁bases	-10.3541
▁hearing	-10.3545
▁forces	-10.3545
▁Below	-10.3549
ese	-10.3551
▁tick	-10.3551
▁iPhone	-10.3554
▁honey	-10.3555
cin	-10.3556
▁settings	-10.3568
▁generate	-10.3572
▁#	-10.3574
▁spelling	-10.3577
▁fungus	-10.3577
▁$18	-10.3578
▁regulate	-10.3579
tle	-10.3587
▁Val	-10.3587
field	-10.3598
lation	-10.3598
ging	-10.3598
▁vein	-10.3603
▁axon	-10.3603
▁economy	-10.3608
▁lateral	-10.3609
▁Research	-10.3612
▁agency	-10.3613
,800	-10.3617
▁stuff	-10.3618
▁pack	-10.3618
72	-10.3621
▁explain	-10.3622
▁photos	-10.3623
▁movements	-10.3627
▁gallon	-10.363
iness	-10.363
▁anemia	-10.3633
▁certificate	-10.3636
ara	-10.3636
▁RE	-10.3638
▁Every	-10.3639
▁wheel	-10.364
BS	-10.3642
chin	-10.3643
▁1,000	-10.3644
ano	-10.3645
bl	-10.3646
▁manage	-10.365
▁television	-10.3651
▁polar	-10.3658
▁Where	-10.3659
▁rack	-10.366
▁Rating	-10.3667
▁ba	-10.3668
bro	-10.367
ita	-10.3673
ani	-10.3674
▁giant	-10.3675
▁canal	-10.3675
02	-10.3676
78	-10.3678
▁fatigue	-10.3679
▁superior	-10.3679
56	-10.368
▁Science	-10.3683
uring	-10.3685
▁$250	-10.3689
▁Bra	-10.369
▁moved	-10.3691
▁stretch	-10.3693
▁Wikipedia	-10.3694
▁180	-10.3706
▁join	-10.3707
ING	-10.3708
▁MRI	-10.371
▁cotton	-10.371
berg	-10.3712
▁lava	-10.3713
▁ounces	-10.3715
▁holiday	-10.3718
AC	-10.372
▁Wa	-10.3723
▁sw	-10.3723
▁absorption	-10.3726
vin	-10.3727
▁peripheral	-10.3734
sha	-10.3735
▁loose	-10.3738
▁ve	-10.3739
▁photosynthesis	-10.3742
tis	-10.3743
▁locations	-10.3746
▁sentence	-10.375
▁wax	-10.3757
▁rarely	-10.3759
1.	-10.376
▁volcanic	-10.3761
▁thickness	-10.377
point	-10.3775
▁Mediterranean	-10.3777
▁Census	-10.3777
▁edge	-10.3777
▁digest	-10.3778
▁falls	-10.3778
▁contributions	-10.3784
▁sick	-10.3796
▁enhance	-10.3797
▁$19	-10.3802
▁prominent	-10.3805
pho	-10.3808
▁dishes	-10.3813
▁daughter	-10.3817
▁plain	-10.382
lip	-10.3821
pine	-10.3823
▁capsule	-10.3825
▁$13	-10.3827
era	-10.3829
▁schedule	-10.3832
▁sha	-10.3832
▁underlying	-10.3833
▁meter	-10.3836
▁Sign	-10.3837
▁operation	-10.384
ties	-10.3841
▁carpet	-10.3846
▁Start	-10.3851
1%	-10.3854
ev	-10.3858
▁accepted	-10.386
▁Temperature	-10.3864
▁molecular	-10.3866
▁brush	-10.3869
ably	-10.3872
▁Ge	-10.3875
84	-10.3877
▁rental	-10.3877
▁lock	-10.3879
▁worldwide	-10.3887
▁den	-10.3889
▁relax	-10.3893
▁vessel	-10.3899
▁prescribed	-10.39
ture	-10.39
ez	-10.3901
▁friends	-10.3904
▁doses	-10.3907
▁divide	-10.3915
▁kingdom	-10.3924
▁ranked	-10.3926
▁ph	-10.3929
-19	-10.3936
mine	-10.3941
lig	-10.3943
▁organelles	-10.3945
81	-10.3947
▁segment	-10.3952
▁cheaper	-10.3953
verse	-10.3959
▁finger	-10.3963
▁classification	-10.3963
▁Vo	-10.3969
▁facilities	-10.3977
ologist	-10.398
▁filled	-10.3982
▁string	-10.3983
nia	-10.3986
▁opened	-10.3988
▁Eastern	-10.3989
usually	-10.3992
▁Bill	-10.3992
▁endocrine	-10.3993
▁$16	-10.3996
▁fence	-10.3997
▁teacher	-10.3997
read	-10.3999
din	-10.4
ong	-10.4003
▁cor	-10.4004
▁smallest	-10.4005
AS	-10.4022
▁sunlight	-10.4023
6,000	-10.4033
2,	-10.4038
▁attacks	-10.4039
ender	-10.4041
▁allowing	-10.4045
▁route	-10.4049
ji	-10.4052
▁background	-10.4052
▁Scottish	-10.4054
▁somewhat	-10.4056
▁centre	-10.4057
▁Dutch	-10.4058
▁shall	-10.4062
lie	-10.4067
▁fly	-10.4069
▁Em	-10.4077
94	-10.4079
▁district	-10.4082
▁longest	-10.4084
▁changing	-10.409
fo	-10.4091
71	-10.4092
▁Though	-10.4095
▁bear	-10.4096
edit	-10.4098
▁Mount	-10.4099
ming	-10.4099
▁origins	-10.4107
▁macro	-10.4107
▁actor	-10.4109
ect	-10.4114
▁yield	-10.4115
57	-10.4115
▁rub	-10.4119
tar	-10.4121
▁$3,000	-10.4122
▁collagen	-10.4123
▁finding	-10.4129
▁peel	-10.4134
▁synthetic	-10.4135
▁sounds	-10.4136
▁personality	-10.4136
right	-10.4137
▁bus	-10.4139
▁weak	-10.4139
AD	-10.414
ern	-10.4143
▁cow	-10.4144
▁ceiling	-10.4147
▁meals	-10.4149
cra	-10.4154
▁advanced	-10.4155
▁spending	-10.4163
▁belongs	-10.4166
▁scientists	-10.4171
47	-10.4172
-20	-10.4172
▁wrong	-10.4176
▁officer	-10.4176
▁neuro	-10.4178
▁Heart	-10.4185
▁com	-10.4185
▁Mer	-10.4185
▁intended	-10.4187
▁cloud	-10.4192
63	-10.4192
▁professionals	-10.4194
gra	-10.4196
ou	-10.4197
▁positions	-10.4198
▁operations	-10.42
▁novel	-10.4203
▁lawn	-10.4205
▁Call	-10.4205
pon	-10.4205
▁Doctor	-10.4206
▁Card	-10.4212
▁association	-10.4213
▁suffer	-10.4214
▁polymerase	-10.4214
▁exc	-10.4218
cell	-10.4219
mit	-10.422
▁listing	-10.4221
▁belong	-10.4223
▁Hawaii	-10.4229
▁inherited	-10.423
▁Wall	-10.4232
▁earning	-10.4233
mg	-10.4238
▁headache	-10.4243
TM	-10.4244
rm	-10.426
▁religion	-10.4263
▁Roast	-10.4263
▁conversion	-10.4268
▁generic	-10.4274
▁achieve	-10.4276
▁claims	-10.4279
▁draw	-10.4289
-10	-10.4297
▁paste	-10.4314
▁wash	-10.4315
▁leader	-10.4319
▁wa	-10.4319
▁capable	-10.4319
dra	-10.4328
▁vascular	-10.433
▁lawyer	-10.4334
▁separated	-10.4337
mis	-10.4338
▁earns	-10.4344
▁Massachusetts	-10.4346
book	-10.4347
▁log	-10.4347
▁Bur	-10.4349
▁wrap	-10.4354
▁catch	-10.4354
ette	-10.4361
▁hundred	-10.4365
▁2014,	-10.4366
▁Year	-10.4368
87	-10.4375
▁inflammatory	-10.4376
▁soy	-10.4383
▁specialist	-10.4387
▁otherwise	-10.4388
▁Ver	-10.439
▁55	-10.4391
▁Light	-10.4393
▁Rights	-10.4396
▁closer	-10.44
▁secret	-10.4401
eb	-10.4402
▁tu	-10.4404
▁colleges	-10.4405
▁rapidly	-10.4405
▁ver	-10.4406
▁Causes	-10.4406
▁discount	-10.4407
59	-10.4407
▁Shi	-10.4417
atory	-10.4421
▁asked	-10.4421
▁king	-10.4422
▁statistics	-10.4424
▁Amazon	-10.4426
▁160	-10.4433
▁circulation	-10.4439
▁duck	-10.445
lay	-10.445
,300	-10.4458
lot	-10.4458
▁2005	-10.4459
▁20%	-10.4463
▁lymphatic	-10.4465
▁lobe	-10.4465
▁Power	-10.4469
▁largely	-10.4476
▁lb	-10.4477
4.	-10.4477
▁courses	-10.4477
▁lbs	-10.4479
▁combine	-10.4479
▁tan	-10.448
▁plane	-10.4483
mor	-10.4485
▁Mal	-10.4486
▁qualify	-10.4487
▁attorney	-10.4489
▁leak	-10.4491
▁younger	-10.4492
mate	-10.4492
▁truck	-10.4494
down	-10.4498
▁nutrition	-10.4498
3.	-10.45
▁Government	-10.4502
▁therapist	-10.4504
▁Ce	-10.4506
▁modified	-10.4506
▁treatments	-10.451
ken	-10.4511
ets	-10.4515
▁advance	-10.4516
▁register	-10.4518
▁exists	-10.452
▁capillaries	-10.4523
▁decay	-10.4528
bs	-10.4529
▁express	-10.4535
▁Next	-10.4536
▁Robert	-10.4541
▁shingles	-10.4543
eo	-10.4544
▁cerebral	-10.4545
▁shower	-10.4545
▁rough	-10.4548
▁transmit	-10.4549
▁Greece	-10.4549
wi	-10.455
▁client	-10.4562
▁Show	-10.4563
xi	-10.4566
▁pur	-10.4569
▁boat	-10.4569
▁assist	-10.4572
▁Energy	-10.4575
cap	-10.4577
▁interior	-10.4579
ek	-10.4583
▁granite	-10.4589
▁tin	-10.459
▁Sal	-10.4591
▁carbs	-10.4591
▁fur	-10.4595
▁residential	-10.4597
pu	-10.4598
▁transcription	-10.4598
▁criminal	-10.4609
▁respect	-10.4611
▁(18	-10.4613
▁involve	-10.4616
▁Area	-10.4619
▁projects	-10.4622
vert	-10.4624
▁j	-10.4625
▁RN	-10.4626
body	-10.4631
▁Institute	-10.4635
▁mentioned	-10.4638
▁possibly	-10.4639
▁speaking	-10.4643
▁freeze	-10.4647
▁replication	-10.465
▁plural	-10.4653
▁$17	-10.4654
▁Col	-10.4656
▁occupation	-10.4658
uck	-10.466
▁trigger	-10.466
▁$1,500	-10.4661
LA	-10.4664
▁NOT	-10.4665
▁secretion	-10.4666
▁extent	-10.467
▁holds	-10.4672
▁potato	-10.4674
▁dosage	-10.4675
▁Insurance	-10.4678
▁nu	-10.4679
▁healthcare	-10.468
▁100%	-10.4681
bel	-10.4681
rat	-10.4693
▁centuries	-10.47
MP	-10.47
▁hear	-10.4703
▁boundary	-10.4706
▁secreted	-10.4712
▁village	-10.4713
▁qui	-10.4715
▁Pan	-10.4715
hy	-10.4721
▁Bal	-10.4724
▁transform	-10.4724
▁concern	-10.4733
rol	-10.4738
pri	-10.4741
ste	-10.4741
▁rapid	-10.4744
▁treating	-10.4745
▁coli	-10.4746
▁Mail	-10.4749
lea	-10.4752
▁terminal	-10.4756
▁corner	-10.4758
▁fourth	-10.4759
gan	-10.4767
▁extended	-10.4769
zz	-10.4769
troph	-10.4771
▁categories	-10.4773
▁Coast	-10.4774
▁App	-10.4776
▁Op	-10.4776
▁pathway	-10.4784
▁yogurt	-10.4787
▁Min	-10.4789
▁told	-10.479
▁assets	-10.4792
▁sink	-10.4793
▁formal	-10.4801
▁undergraduate	-10.4805
▁documents	-10.4808
mel	-10.4809
ense	-10.481
ici	-10.4813
▁spa	-10.4815
mark	-10.4817
▁bath	-10.4817
▁manner	-10.4822
▁tradition	-10.4823
▁Ber	-10.4829
▁cal	-10.4838
▁Columbia	-10.4839
BA	-10.484
▁peas	-10.4853
ough	-10.4856
▁Word	-10.4857
▁Dec	-10.4858
▁sensation	-10.4861
bed	-10.4866
▁ob	-10.4867
▁1.5	-10.4867
▁hundreds	-10.4868
▁Images	-10.4871
▁insert	-10.4871
▁meta	-10.4875
og	-10.4883
▁standards	-10.4893
▁tumors	-10.4895
▁col	-10.4899
9%	-10.49
▁suggests	-10.49
▁revenue	-10.4901
bal	-10.4905
cia	-10.4906
▁usual	-10.4908
▁Ed	-10.4908
▁buyer	-10.4913
▁profile	-10.4915
▁links	-10.4917
▁poisoning	-10.4925
▁owners	-10.4927
2,000	-10.4928
▁Making	-10.4929
▁Charles	-10.4937
▁gel	-10.4938
▁oz	-10.4938
▁$80	-10.4939
pot	-10.494
▁digital	-10.4944
▁familiar	-10.4945
▁barrier	-10.495
▁hope	-10.4951
ree	-10.4951
▁Services	-10.4953
▁Mexican	-10.4954
▁nurses	-10.4957
▁Example	-10.4959
tus	-10.4959
▁keeping	-10.4967
SE	-10.4969
▁fo	-10.4973
thro	-10.498
▁print	-10.4981
nu	-10.4986
▁hi	-10.4989
▁Family	-10.499
▁Medicine	-10.499
▁shade	-10.4991
born	-10.4993
▁trend	-10.4995
▁unknown	-10.4998
▁membership	-10.5001
51	-10.5003
▁crown	-10.5007
▁meeting	-10.5008
▁aren	-10.5012
▁Turkey	-10.5012
62	-10.5013
PS	-10.5014
▁herb	-10.5015
▁hotel	-10.5017
ode	-10.5019
▁techniques	-10.5019
▁breeds	-10.502
▁leaving	-10.5021
▁dollar	-10.5022
61	-10.5024
▁bl	-10.5025
▁voltage	-10.503
▁regularly	-10.5033
▁saturated	-10.5034
▁zinc	-10.5034
SP	-10.5038
▁palm	-10.5042
▁ju	-10.5043
▁Carbon	-10.5043
▁Small	-10.5044
▁goat	-10.5049
▁breaks	-10.5051
ef	-10.506
▁shorter	-10.5066
▁mitochondria	-10.5066
▁microwave	-10.507
▁vast	-10.5074
▁cutting	-10.5074
▁recovery	-10.5074
▁representative	-10.5076
▁2011,	-10.5076
▁steaks	-10.5079
▁marrow	-10.5085
▁feeding	-10.5088
▁jump	-10.5089
dri	-10.5089
ttle	-10.5092
IP	-10.5095
high	-10.5099
▁Gene	-10.5101
▁establish	-10.5101
neurotransmitter	-10.5104
▁homeowners	-10.5107
▁liability	-10.5107
rid	-10.5108
atic	-10.5108
▁progress	-10.511
▁beer	-10.5111
▁milligrams	-10.5111
▁cake	-10.5118
via	-10.5118
▁helpful	-10.5119
4,	-10.5119
▁disability	-10.5123
▁boiling	-10.5126
▁Tu	-10.513
8,000	-10.5131
ulated	-10.5135
▁Cy	-10.5148
▁volcanoes	-10.5148
▁comprehensive	-10.5152
▁tendon	-10.5154
▁nor	-10.5157
-12	-10.516
▁extend	-10.5166
▁prostate	-10.5168
▁god	-10.517
▁blocks	-10.5172
▁soup	-10.5174
▁golden	-10.5177
▁didn	-10.518
▁£1	-10.5181
▁aim	-10.5182
▁patterns	-10.5183
rie	-10.5193
ari	-10.5195
vent	-10.5196
▁fields	-10.5198
▁Early	-10.5202
aries	-10.5204
▁download	-10.5205
OT	-10.5205
▁asphalt	-10.5206
▁intestinal	-10.5208
▁multiply	-10.5211
▁creates	-10.5212
▁Administration	-10.5215
▁David	-10.5216
▁tiger	-10.522
▁battle	-10.5225
she	-10.5226
▁stars	-10.523
▁historical	-10.523
▁poll	-10.5231
ID	-10.5234
▁protective	-10.5235
dis	-10.5237
▁Search	-10.5238
▁nutrient	-10.5239
3,	-10.524
▁update	-10.5243
▁Table	-10.5243
▁2,000	-10.5249
IA	-10.5249
▁Mag	-10.5253
▁magma	-10.5255
▁turning	-10.5258
▁Brazil	-10.5261
▁Dictionary	-10.5261
▁metres	-10.5267
▁Map	-10.5268
▁met	-10.5271
▁chops	-10.5275
▁sedimentary	-10.5276
43	-10.5277
▁returns	-10.5277
▁Account	-10.5278
▁z	-10.5281
▁showing	-10.5284
42	-10.5287
lt	-10.5287
▁injuries	-10.5289
▁quantity	-10.5289
uri	-10.5291
▁marked	-10.5292
▁passage	-10.5294
ju	-10.53
▁reduction	-10.5302
▁fa	-10.5306
▁Bre	-10.531
Co	-10.5315
▁Chicago	-10.5316
▁club	-10.5317
ians	-10.5318
▁nasal	-10.5321
▁frequent	-10.5323
serv	-10.5327
▁germ	-10.5328
virus	-10.5329
▁territory	-10.533
lor	-10.5337
▁bull	-10.5342
▁secrete	-10.5347
▁shift	-10.535
UR	-10.535
▁bite	-10.5352
▁fix	-10.5354
▁heard	-10.5359
50,000	-10.5359
▁shallow	-10.5363
▁lease	-10.5365
▁chamber	-10.5367
ature	-10.5368
▁Save	-10.5368
▁undergo	-10.5369
▁precipitation	-10.5372
▁medicines	-10.5379
▁electro	-10.5382
▁fi	-10.5384
▁Mountains	-10.5386
▁rainfall	-10.5386
▁Arabic	-10.5387
▁poultry	-10.539
▁intestines	-10.5392
onym	-10.5392
▁Russian	-10.5395
OR	-10.5397
▁spirit	-10.5404
▁syrup	-10.5404
▁ke	-10.5405
▁liter	-10.5408
▁Apple	-10.541
ball	-10.541
duc	-10.5413
▁examination	-10.5414
▁salad	-10.5415
▁cattle	-10.5415
▁esophagus	-10.5416
▁advantage	-10.5421
▁Par	-10.5422
▁teachers	-10.5424
▁accident	-10.5427
▁mucus	-10.5429
,700	-10.5433
▁Treatment	-10.5438
SD	-10.544
▁sharp	-10.5442
▁chemistry	-10.5445
▁Natural	-10.5446
nit	-10.5447
▁adopted	-10.5448
▁agree	-10.545
▁crystals	-10.5453
▁Gold	-10.546
▁requirement	-10.5461
berry	-10.5461
▁expand	-10.5465
▁crab	-10.5467
▁Ci	-10.547
▁Valley	-10.547
ogen	-10.5483
▁distinguish	-10.5483
▁Super	-10.5491
58	-10.5493
▁overtime	-10.5493
▁1/4	-10.5493
▁tough	-10.5494
▁attend	-10.5497
▁potentially	-10.5506
▁continuous	-10.5508
%)	-10.5511
▁occasionally	-10.5516
▁era	-10.5522
ku	-10.5529
▁Back	-10.5529
▁continental	-10.5529
▁horses	-10.5535
burg	-10.5539
▁equation	-10.554
▁engineer	-10.554
▁technicians	-10.5543
▁assume	-10.5544
▁snake	-10.5548
▁fund	-10.555
▁mph	-10.5552
▁contained	-10.5552
▁HR	-10.5554
▁saw	-10.5554
▁plug	-10.5554
▁scores	-10.5555
▁possess	-10.5555
▁Comp	-10.5556
▁belt	-10.5557
0.00	-10.5558
lb	-10.5559
7,	-10.5563
1,000	-10.557
bus	-10.5571
▁fold	-10.5572
▁moment	-10.5574
ava	-10.5575
▁sensitive	-10.5575
▁Poly	-10.558
▁Often	-10.5581
▁literature	-10.5583
54	-10.5583
▁Foods	-10.5587
▁meant	-10.5588
▁Figure	-10.5595
▁extends	-10.5595
load	-10.5596
▁Assistant	-10.5597
▁pine	-10.5601
duct	-10.5604
▁outdoor	-10.5605
▁Management	-10.5606
▁Children	-10.5611
▁invest	-10.5613
▁shaped	-10.5614
▁selection	-10.5614
▁Range	-10.5616
▁Instead	-10.5617
▁develops	-10.5618
▁Senate	-10.5618
▁practical	-10.562
cular	-10.5621
▁surrounded	-10.5622
▁MA	-10.5623
ption	-10.5626
▁Corn	-10.5627
iv	-10.5633
▁soda	-10.5636
ctor	-10.5638
▁lasts	-10.5641
eat	-10.5641
TH	-10.5642
▁IP	-10.5642
▁profession	-10.5646
▁Second	-10.5647
▁recover	-10.5648
▁businesses	-10.5651
▁nucleotides	-10.5662
ional	-10.5662
▁secure	-10.5663
ancy	-10.5665
00,000	-10.5666
▁Oldest	-10.5668
▁wife	-10.5674
▁arise	-10.568
▁automatically	-10.5683
▁Native	-10.5685
▁predict	-10.5688
ora	-10.5688
▁greatest	-10.5689
▁chief	-10.5689
▁AD	-10.569
▁coating	-10.5698
▁expressed	-10.5708
▁shares	-10.5709
▁mood	-10.5718
▁Gas	-10.572
▁Master	-10.5725
▁lots	-10.5728
▁Put	-10.573
▁owned	-10.5731
town	-10.5732
▁oils	-10.5737
tta	-10.5738
500	-10.5739
▁sizes	-10.5744
▁Angeles	-10.5744
▁Season	-10.5744
▁gallbladder	-10.5745
▁thinking	-10.5746
cess	-10.5748
▁ka	-10.5752
oph	-10.5753
▁Three	-10.5755
▁seek	-10.5763
▁routine	-10.5764
▁Berlin	-10.5765
EM	-10.5766
ace	-10.5766
▁$600	-10.5768
▁37	-10.577
dent	-10.5771
ama	-10.5771
CD	-10.5771
ink	-10.5774
▁sets	-10.5777
-$3	-10.5778
▁boundaries	-10.5779
▁sl	-10.5785
▁games	-10.5787
▁stages	-10.5787
▁purple	-10.5789
▁reflex	-10.579
▁basement	-10.5792
▁reproductive	-10.5793
▁police	-10.5798
▁emotional	-10.5798
▁Ser	-10.58
▁Arizona	-10.5803
nel	-10.5806
▁trauma	-10.5808
▁shock	-10.5808
IT	-10.5809
▁basically	-10.5811
▁rep	-10.5812
▁annum	-10.5817
▁Whether	-10.5817
pin	-10.5817
▁discharge	-10.5818
▁amendment	-10.5822
rous	-10.5823
gram	-10.5826
▁Ty	-10.5826
▁gluten	-10.5827
vid	-10.5827
AP	-10.5831
▁prison	-10.5832
▁Christian	-10.5833
▁exhibit	-10.5837
▁removing	-10.5837
▁fair	-10.585
▁igneous	-10.5851
▁affecting	-10.5855
▁selected	-10.5856
▁Pennsylvania	-10.5856
▁retain	-10.5857
▁spectrum	-10.5861
EN	-10.5862
▁diagnose	-10.5864
▁funds	-10.5865
▁ADVERTISEMENT	-10.5866
▁puppy	-10.5866
▁sediment	-10.5869
▁vapor	-10.5871
una	-10.5871
▁joined	-10.5875
▁Hill	-10.5879
▁elected	-10.588
▁savings	-10.5885
▁measuring	-10.5885
▁blow	-10.5888
▁vet	-10.5894
▁consumer	-10.5897
▁Dog	-10.5904
▁Ohio	-10.5905
square	-10.5918
that	-10.5922
▁Thomas	-10.5924
▁Treaty	-10.5928
▁perhaps	-10.5929
▁Colorado	-10.5929
▁Mor	-10.5931
▁vaccination	-10.5934
▁assess	-10.5934
▁employers	-10.5937
law	-10.5939
▁enters	-10.594
▁Moon	-10.5941
▁flooring	-10.5941
eri	-10.5941
▁atomic	-10.5942
▁1980	-10.5942
5.	-10.5944
▁uncommon	-10.5947
▁Data	-10.5956
Ch	-10.5957
▁meanings	-10.5959
▁identity	-10.5959
▁urethra	-10.5959
▁involving	-10.5959
▁aorta	-10.5961
cot	-10.5961
bil	-10.5964
▁600	-10.5965
▁emergency	-10.5968
acy	-10.5969
▁skillet	-10.597
▁reducing	-10.5973
▁Army	-10.5974
▁coronary	-10.5979
▁trait	-10.5979
AA	-10.5982
pir	-10.5986
▁Ten	-10.5987
▁plenty	-10.5988
▁polymer	-10.5991
die	-10.5992
▁icon	-10.5995
▁Pla	-10.5995
run	-10.5996
▁qualified	-10.5998
▁vertical	-10.5998
▁classic	-10.6
▁2013.	-10.6001
▁grant	-10.6001
▁apple	-10.6007
▁CD	-10.6008
▁beauty	-10.6008
▁quartz	-10.6009
▁dentist	-10.6013
py	-10.6018
ili	-10.6031
put	-10.6033
▁rises	-10.6033
▁Asian	-10.6034
▁Paris	-10.6035
▁Zip	-10.6038
▁gender	-10.6045
af	-10.6046
▁140	-10.6046
life	-10.605
▁cups	-10.6055
▁rating	-10.6058
9.	-10.606
gas	-10.6062
▁1960	-10.6063
cum	-10.6066
▁Mountain	-10.6067
▁Wood	-10.6067
ami	-10.607
Getty	-10.6072
nk	-10.6074
quir	-10.6076
▁2)	-10.6083
▁reproduction	-10.6083
▁ounce	-10.6084
▁hen	-10.6086
▁Land	-10.609
▁pasta	-10.6096
place	-10.6096
▁sky	-10.6098
▁Grand	-10.6101
▁relief	-10.6102
▁zero	-10.6103
ky	-10.6103
▁Egyptian	-10.6108
▁tra	-10.611
▁input	-10.6112
▁slab	-10.6116
▁confused	-10.6117
▁odor	-10.6118
▁33	-10.6123
▁discuss	-10.6124
41	-10.6126
oe	-10.6128
▁allele	-10.6129
▁buying	-10.6131
▁cla	-10.6137
▁regardless	-10.6138
▁manufactured	-10.6144
▁Para	-10.6145
▁Scotland	-10.6147
▁2004	-10.6148
eth	-10.6152
OS	-10.6155
▁manufacturer	-10.6156
▁engineers	-10.6156
▁windows	-10.6162
yr	-10.6164
▁cure	-10.6165
▁latest	-10.6173
▁tendons	-10.6173
carbon	-10.6174
▁receiving	-10.6177
lets	-10.6179
▁gave	-10.6181
▁Ki	-10.6188
▁File	-10.6189
rated	-10.6191
rk	-10.6194
▁destroy	-10.6196
▁authority	-10.6197
▁Book	-10.6203
▁finished	-10.6206
ima	-10.6209
▁turned	-10.622
▁hole	-10.6227
▁habit	-10.6228
▁Gen	-10.6231
▁(6	-10.6232
▁hire	-10.6232
▁exception	-10.6232
▁dec	-10.6233
▁tablets	-10.6236
2)	-10.6236
▁Pet	-10.6241
▁urban	-10.6243
▁selling	-10.6248
▁Public	-10.6248
▁onion	-10.6249
shire	-10.6251
tz	-10.6252
▁cu	-10.6252
▁adjust	-10.6253
▁Empire	-10.6253
▁1990	-10.6254
▁literally	-10.6263
▁ticket	-10.6266
▁assistants	-10.6266
▁Related	-10.6268
▁$45	-10.6273
ye	-10.6276
▁caffeine	-10.6283
ites	-10.6284
ime	-10.6286
cious	-10.6292
ulate	-10.6295
▁football	-10.6297
▁Drug	-10.63
▁fibre	-10.6304
▁nutritional	-10.6304
▁tub	-10.6305
▁ankle	-10.6306
▁registration	-10.6309
▁brief	-10.6309
▁consumed	-10.6309
▁visa	-10.6315
▁Cap	-10.6318
▁alloy	-10.6321
▁harm	-10.6323
ori	-10.6325
ologists	-10.6326
▁2012.	-10.6327
▁functioning	-10.6329
▁Pu	-10.6329
kg	-10.6329
▁cluster	-10.6329
▁mantle	-10.6336
▁nucleotide	-10.6339
▁Summary	-10.6339
▁cuisine	-10.6339
▁Mel	-10.6343
▁deposits	-10.6344
▁brother	-10.6347
▁Hepatitis	-10.635
7,000	-10.6353
green	-10.6356
▁ligament	-10.6362
-6	-10.6363
ME	-10.6365
▁optic	-10.6365
▁Major	-10.637
▁entirely	-10.6375
ched	-10.6376
ote	-10.6376
▁poem	-10.6378
6,	-10.6379
int	-10.6379
▁PA	-10.6381
▁lender	-10.6382
▁pale	-10.6384
grade	-10.6386
▁cre	-10.6387
▁hemisphere	-10.6391
bling	-10.6391
▁transplant	-10.6391
▁Auto	-10.6393
▁Micro	-10.6394
▁senior	-10.6401
▁password	-10.6401
▁nice	-10.6403
▁goals	-10.6408
▁shared	-10.6409
▁arch	-10.641
▁wrist	-10.6412
▁writer	-10.6413
lies	-10.6416
▁Last	-10.6428
▁parties	-10.6429
▁Mark	-10.643
▁administration	-10.6432
▁heater	-10.6432
eno	-10.6434
▁advice	-10.6437
▁Pat	-10.6441
▁chains	-10.6441
▁Francisco	-10.6443
▁previously	-10.6446
▁Guide	-10.6446
▁aspects	-10.6447
ire	-10.6448
cept	-10.6448
▁models	-10.6449
you	-10.6452
▁chocolate	-10.6458
▁religious	-10.6458
ett	-10.6458
▁folder	-10.6458
▁operate	-10.6458
▁interesting	-10.6465
rick	-10.6468
▁substitute	-10.6468
▁partial	-10.6469
▁ultrasound	-10.6473
sized	-10.6475
▁suitable	-10.6475
▁Rome	-10.6478
▁drinks	-10.648
▁Follow	-10.6482
▁fewer	-10.6483
▁dress	-10.6483
▁Certified	-10.6483
▁thousand	-10.6484
▁vehicles	-10.6485
▁soap	-10.6486
duction	-10.6487
hop	-10.649
vic	-10.6496
▁onions	-10.6497
▁organizations	-10.6497
logy	-10.6497
RO	-10.6499
▁Bas	-10.6499
▁baked	-10.65
▁diagnosed	-10.65
▁satellite	-10.6504
▁swollen	-10.6504
pel	-10.6505
▁antibiotic	-10.6506
▁clinic	-10.6506
▁Point	-10.6508
▁filling	-10.6511
▁somewhere	-10.6515
▁Disney	-10.6519
▁efficient	-10.6519
▁Brown	-10.652
▁1970	-10.652
▁tar	-10.6528
▁mine	-10.6533
▁street	-10.6535
▁walking	-10.6537
▁restaurant	-10.6537
▁camera	-10.654
▁evaluate	-10.6541
▁pour	-10.6543
nna	-10.6543
▁gap	-10.6546
▁mon	-10.6547
▁Look	-10.6548
▁characters	-10.6549
▁managers	-10.655
▁bloom	-10.6551
▁fail	-10.6553
▁cars	-10.6554
.]	-10.6554
col	-10.6554
▁lake	-10.6555
▁encyclopedia	-10.6556
▁interval	-10.6557
▁peace	-10.6561
▁holding	-10.6562
▁Oregon	-10.6567
▁District	-10.6567
NA	-10.657
ule	-10.6573
ame	-10.6579
▁brake	-10.658
▁Hol	-10.6582
▁ideas	-10.6582
▁elevation	-10.6582
▁wrote	-10.6582
▁smoke	-10.6584
▁Women	-10.6588
▁gestation	-10.6588
▁sector	-10.659
▁Indonesia	-10.6593
▁pictures	-10.6596
▁apartment	-10.6597
▁topic	-10.6597
▁equator	-10.6598
▁pages	-10.6602
▁Michigan	-10.6603
hand	-10.6605
▁connects	-10.6607
ides	-10.6608
▁meats	-10.6609
PI	-10.661
▁Illinois	-10.6614
▁applies	-10.6614
▁dust	-10.6615
▁Installation	-10.6619
▁announced	-10.6626
▁clay	-10.6631
▁brick	-10.6632
▁dream	-10.6635
▁38	-10.6636
▁protects	-10.6637
▁surfaces	-10.6637
▁$22	-10.6638
▁Rose	-10.6642
gre	-10.6647
biotic	-10.6647
▁2003	-10.6647
ert	-10.6652
▁inspection	-10.6653
▁clothing	-10.6654
▁rivers	-10.6655
▁silicon	-10.6656
▁90%	-10.6656
▁cultures	-10.6661
▁mutations	-10.6661
▁solutions	-10.6662
▁fluids	-10.6666
▁(10	-10.6669
gastrointestinal	-10.6672
▁temperate	-10.6672
ural	-10.6673
▁actions	-10.6673
▁Ab	-10.6674
▁protected	-10.668
▁Jersey	-10.6682
lysis	-10.6683
▁abuse	-10.6687
▁Je	-10.6689
mas	-10.669
▁nail	-10.6693
ache	-10.6695
▁Types	-10.6696
▁bigger	-10.6696
▁interested	-10.67
▁kit	-10.6705
▁fraction	-10.6705
▁specialty	-10.6705
table	-10.671
PD	-10.6713
▁arrangement	-10.6716
▁cooling	-10.6716
▁copies	-10.6719
idae	-10.672
▁duration	-10.672
▁aircraft	-10.6721
▁default	-10.6725
▁perennial	-10.673
win	-10.6734
▁landscape	-10.6736
care	-10.6737
▁challenge	-10.674
▁rat	-10.6744
▁graph	-10.6744
▁hill	-10.6749
DI	-10.6749
▁epithelium	-10.6756
▁spots	-10.676
rio	-10.6761
▁closing	-10.6762
▁expense	-10.6764
list	-10.6765
gate	-10.6765
▁necessarily	-10.6767
CC	-10.6768
lim	-10.6769
OL	-10.677
oli	-10.6772
▁Protein	-10.6772
▁sharing	-10.6773
▁decline	-10.6779
▁mission	-10.6781
▁election	-10.6783
cation	-10.6786
soluble	-10.6787
▁2.5	-10.6788
▁$50,000	-10.6788
HA	-10.6788
▁Lincoln	-10.6788
▁lean	-10.6789
▁Iron	-10.6789
▁closest	-10.6789
sol	-10.6792
IL	-10.6802
▁alpha	-10.6805
▁planets	-10.6807
▁Pass	-10.6808
pers	-10.6809
▁hybrid	-10.681
▁transportation	-10.6815
ved	-10.6821
tile	-10.6823
▁Exp	-10.6825
▁Chemical	-10.6826
bone	-10.6828
▁tubes	-10.6837
▁institution	-10.6841
ich	-10.6842
holder	-10.6845
▁sufficient	-10.6847
▁Syn	-10.6849
▁calculation	-10.6853
▁Mc	-10.6854
▁dye	-10.6854
▁2-3	-10.6855
mail	-10.6857
▁beneath	-10.6858
zy	-10.6865
▁diverse	-10.687
▁Real	-10.6871
SI	-10.6873
▁interpret	-10.6879
▁Gaelic	-10.688
▁Street	-10.688
▁jo	-10.688
ept	-10.688
▁cards	-10.688
Ma	-10.688
pla	-10.6881
▁dissolved	-10.6884
▁League	-10.689
▁infect	-10.6899
phag	-10.69
▁]	-10.6902
pet	-10.6904
▁sausage	-10.6907
pha	-10.6907
▁sheep	-10.6912
arch	-10.6912
ged	-10.6914
7.	-10.6917
▁contracts	-10.6918
▁mechanism	-10.6919
▁Ly	-10.692
tens	-10.6924
3,000	-10.6925
▁distributed	-10.6925
▁offering	-10.6926
▁flexible	-10.6929
dro	-10.6934
▁reverse	-10.6935
▁turns	-10.694
▁shoot	-10.6942
▁needle	-10.6948
▁trunk	-10.695
▁pen	-10.6953
SH	-10.6955
▁bonus	-10.6959
▁delay	-10.696
▁dictionary	-10.6966
▁spin	-10.6967
▁Paul	-10.6968
▁traits	-10.6969
▁Boston	-10.6973
▁ecosystem	-10.6977
▁$100,000	-10.6978
▁Bri	-10.698
▁experiment	-10.6981
▁beneficial	-10.6983
aya	-10.6983
▁sensor	-10.6985
▁bind	-10.699
▁gradually	-10.6992
▁practices	-10.6993
▁elbow	-10.6994
▁antibody	-10.6995
▁recessive	-10.6999
▁rheumatoid	-10.6999
▁85	-10.6999
ash	-10.7003
▁exp	-10.7003
▁consumers	-10.7007
▁technical	-10.701
▁fermentation	-10.7011
▁drivers	-10.7013
▁stems	-10.7018
▁carbonate	-10.7018
▁carrier	-10.7019
ira	-10.7022
tail	-10.7024
-7	-10.7024
omer	-10.7027
▁inhibitor	-10.7027
lly	-10.7031
gio	-10.7035
aceae	-10.7037
phone	-10.7044
▁Change	-10.7047
thy	-10.7047
▁binding	-10.7048
▁ja	-10.7051
mod	-10.7053
▁genome	-10.7054
yan	-10.7055
▁complications	-10.7057
▁thigh	-10.7061
▁worker	-10.7062
▁camp	-10.7063
chy	-10.7064
▁entity	-10.7065
▁geographical	-10.7065
▁ste	-10.7069
▁translation	-10.7071
▁syn	-10.7071
▁Qua	-10.7073
iti	-10.7075
▁extensive	-10.7079
▁dissolve	-10.7082
lla	-10.7083
PC	-10.7083
▁wireless	-10.7084
▁traffic	-10.7087
▁passenger	-10.7092
Cl	-10.7094
ook	-10.7095
▁parallel	-10.7096
lash	-10.71
▁Sam	-10.7105
▁acquired	-10.7107
▁Based	-10.711
▁wanted	-10.7111
▁ill	-10.7115
▁covalent	-10.7115
▁discover	-10.712
graph	-10.7122
▁prey	-10.7124
▁referr	-10.7125
▁applying	-10.7125
▁industries	-10.7125
▁Henry	-10.7125
▁weekly	-10.7127
▁saliva	-10.7129
▁citizens	-10.7132
▁Noun	-10.7135
NS	-10.7136
▁Fire	-10.7139
▁Basic	-10.7142
▁Body	-10.7145
▁72	-10.7145
▁proportion	-10.7146
▁seller	-10.7146
▁officially	-10.7147
▁earthquake	-10.7147
▁Key	-10.7152
▁judge	-10.7153
pm	-10.7155
▁corporate	-10.7158
▁stated	-10.7159
gest	-10.716
▁Epi	-10.7161
▁church	-10.7164
▁Sand	-10.7164
▁IT	-10.7164
▁tight	-10.7166
▁hospitals	-10.7168
gle	-10.7169
▁embryo	-10.7169
▁spider	-10.7169
▁essentially	-10.7171
▁union	-10.7174
cate	-10.7176
▁stra	-10.7177
▁settlement	-10.7177
▁kilometres	-10.7181
elle	-10.7183
made	-10.7183
▁bean	-10.7184
power	-10.7188
▁improvement	-10.7188
▁recipes	-10.7191
▁duties	-10.7192
▁crystal	-10.7198
chan	-10.7202
▁marriage	-10.7203
▁Han	-10.7212
▁effort	-10.7217
ale	-10.7219
▁fundamental	-10.7219
▁2014.	-10.722
used	-10.7224
tur	-10.7225
▁semester	-10.7225
▁recognize	-10.7227
▁stamp	-10.7232
▁mRNA	-10.7239
▁sudden	-10.724
▁artificial	-10.7242
▁cervical	-10.7242
▁housing	-10.7247
▁intense	-10.7248
tors	-10.7248
▁Try	-10.7252
▁clients	-10.7254
▁arc	-10.7264
SS	-10.7268
arian	-10.727
▁pricing	-10.727
▁standing	-10.727
▁Ya	-10.7273
▁regarding	-10.7275
▁messages	-10.7275
▁Victoria	-10.728
▁juices	-10.7281
▁variations	-10.7281
▁neutral	-10.7286
▁codes	-10.7289
▁Indiana	-10.7294
gie	-10.7295
OH	-10.7296
▁Beach	-10.7297
▁Several	-10.7298
▁concerned	-10.7298
▁jaw	-10.7301
▁officers	-10.7302
▁herbs	-10.7302
▁dr	-10.7309
▁Nursing	-10.7309
▁gallons	-10.7309
▁singer	-10.7312
▁$30,000	-10.7315
▁ur	-10.7315
▁Price	-10.7316
vil	-10.7317
▁soak	-10.7317
▁distinctive	-10.7319
EL	-10.7322
▁Pain	-10.7325
▁remodel	-10.7327
▁zones	-10.7328
▁ears	-10.733
dar	-10.733
▁tape	-10.7331
▁specified	-10.7332
▁Fer	-10.7336
▁fingers	-10.7341
▁Associate	-10.7343
range	-10.7344
▁hypothalamus	-10.7349
▁34	-10.7351
▁$20,000	-10.7353
CR	-10.7354
icular	-10.7358
▁Child	-10.736
▁Hard	-10.7362
▁fuels	-10.7365
▁ovulation	-10.7365
▁rh	-10.7366
▁Spring	-10.7367
▁relation	-10.7367
▁regional	-10.7373
bon	-10.7374
▁policies	-10.7377
how	-10.7378
▁Print	-10.7378
▁crops	-10.7382
vy	-10.7383
▁Nu	-10.7385
▁flights	-10.7389
▁0.5	-10.739
▁contaminated	-10.7391
▁(2)	-10.7391
▁cement	-10.7394
▁playing	-10.7401
▁resistant	-10.7402
EA	-10.7403
ching	-10.7404
▁ligaments	-10.7408
lytic	-10.741
▁ˈ	-10.7411
▁conventional	-10.7418
▁cl	-10.7418
▁stir	-10.7421
RP	-10.7424
▁beat	-10.7426
▁earliest	-10.7428
▁inferior	-10.7428
mu	-10.7432
▁thread	-10.7435
▁teaspoon	-10.7437
▁franchise	-10.7439
▁breeding	-10.7441
English	-10.7442
▁teaching	-10.7443
Fi	-10.7443
cm	-10.7444
▁represented	-10.7449
▁resin	-10.7458
▁$24	-10.7466
▁importance	-10.7469
▁attach	-10.747
▁rhythm	-10.7473
DA	-10.7474
pal	-10.7476
53	-10.7479
▁lupus	-10.7479
▁inhibit	-10.748
lam	-10.7483
▁adj	-10.7483
▁Ancient	-10.7485
▁Mix	-10.7485
▁resource	-10.7486
▁pl	-10.7486
▁fear	-10.7487
▁Gi	-10.7487
TR	-10.7491
▁swimming	-10.7491
▁immunity	-10.7496
▁guidelines	-10.7497
▁abbreviation	-10.7502
▁allergies	-10.7502
▁Remember	-10.7503
▁Head	-10.7505
▁sections	-10.7505
ffi	-10.7506
▁Stone	-10.7508
▁constipation	-10.7508
oke	-10.751
▁complexity	-10.751
ution	-10.7511
▁browser	-10.7511
ude	-10.7512
▁regulation	-10.7514
▁thumb	-10.7514
▁protocol	-10.7514
▁explore	-10.7516
▁Luc	-10.752
▁fin	-10.7521
▁cloth	-10.7522
▁dates	-10.7523
rit	-10.7524
▁Fort	-10.7524
▁provision	-10.7526
▁Fish	-10.7531
pic	-10.7532
vir	-10.7535
▁severity	-10.7542
lock	-10.7547
-18	-10.7547
▁spec	-10.7547
▁lime	-10.7548
oxy	-10.755
▁occurred	-10.7555
▁instant	-10.7558
▁amp	-10.756
▁ID	-10.756
▁diamond	-10.756
▁Dan	-10.756
▁van	-10.756
▁Process	-10.7561
▁circulatory	-10.7565
▁coil	-10.7566
▁Fat	-10.7568
ules	-10.7572
-$2	-10.7572
▁sweat	-10.7574
▁Director	-10.7577
▁fashion	-10.7581
▁geographic	-10.7582
bre	-10.7584
avi	-10.7587
front	-10.7589
ean	-10.7591
trophic	-10.7594
▁Pal	-10.7595
▁disk	-10.7597
oral	-10.7602
▁transition	-10.7609
▁Professional	-10.7612
▁drops	-10.7612
▁Gulf	-10.7616
▁Desert	-10.7623
person	-10.7625
ila	-10.7625
▁lifetime	-10.7631
▁Genetic	-10.7633
▁determining	-10.7635
▁matrix	-10.7635
▁toxins	-10.7636
cast	-10.7636
▁epithelial	-10.7641
▁pharmacist	-10.7647
▁bump	-10.7648
PR	-10.7649
hydr	-10.765
▁aged	-10.7651
▁tribe	-10.7657
▁wings	-10.7659
▁Location	-10.7659
▁Sur	-10.7662
CL	-10.7663
wide	-10.7664
▁audit	-10.7665
▁lifestyle	-10.7667
▁2002	-10.7668
American	-10.7668
▁impulses	-10.7672
▁vertebrae	-10.7674
▁Society	-10.7676
▁news	-10.7678
▁pitch	-10.7679
▁42	-10.768
▁reduces	-10.7683
wn	-10.7685
▁win	-10.7687
▁Renaissance	-10.7687
▁tenderloin	-10.7687
▁forensic	-10.7688
▁unlike	-10.7689
▁Line	-10.769
▁Michael	-10.7693
▁Annual	-10.7694
flu	-10.7694
▁Store	-10.7694
▁spices	-10.7696
ander	-10.7696
▁dys	-10.7696
▁Hindu	-10.7697
▁benchmark	-10.7699
▁passing	-10.7701
▁Transfer	-10.7703
▁iodine	-10.7711
ym	-10.7713
dor	-10.7714
▁chair	-10.7714
ram	-10.7714
▁pollen	-10.7715
▁2001	-10.7726
▁appeared	-10.7728
▁Run	-10.7733
▁THE	-10.7733
▁encourage	-10.7734
own	-10.7734
▁Network	-10.7735
rig	-10.774
hal	-10.774
▁calls	-10.7743
▁varying	-10.7747
atch	-10.7747
▁bulk	-10.7752
take	-10.7756
▁MS	-10.7767
gov	-10.7768
▁generated	-10.7768
▁nephron	-10.777
▁Names	-10.777
▁sal	-10.777
▁scene	-10.7771
▁situations	-10.7772
▁lie	-10.7773
rant	-10.7774
▁observed	-10.7775
fat	-10.7775
▁Town	-10.7778
▁ethnic	-10.7779
▁itching	-10.7782
▁Sw	-10.7782
▁detail	-10.7782
▁interface	-10.7782
▁strands	-10.7785
▁Period	-10.7786
▁rear	-10.7786
▁Fu	-10.7787
▁circumstances	-10.7787
▁phylum	-10.7787
▁periodic	-10.7788
▁Community	-10.7793
▁temporary	-10.7799
▁prop	-10.7799
▁colored	-10.7803
▁tension	-10.7803
▁Venus	-10.7803
▁Cho	-10.7808
▁Wales	-10.7808
▁coastal	-10.7808
▁sport	-10.7809
gal	-10.7809
bound	-10.781
▁].	-10.7816
▁reality	-10.7817
▁traditionally	-10.7818
▁throw	-10.7819
under	-10.7825
▁milli	-10.7825
▁bal	-10.7826
▁difficulty	-10.7826
▁pat	-10.7833
▁proposed	-10.7835
▁Flu	-10.7839
▁Vol	-10.7841
3)	-10.7841
▁rabbit	-10.7842
▁Force	-10.7843
▁Much	-10.7845
▁slide	-10.7846
▁acidic	-10.7846
▁defense	-10.7846
▁progressive	-10.7849
An	-10.7866
▁experts	-10.7878
band	-10.7879
bri	-10.7881
▁irregular	-10.7882
▁worse	-10.7884
gh	-10.7886
▁bitter	-10.7892
▁thoracic	-10.7894
▁trouble	-10.7894
▁Adult	-10.7895
▁Church	-10.79
▁ending	-10.7902
▁pr	-10.7902
▁bought	-10.7906
▁continues	-10.7907
▁tur	-10.7908
▁NA	-10.7908
cri	-10.7909
▁Press	-10.7909
trans	-10.791
▁tubule	-10.791
▁tag	-10.7912
▁towel	-10.7916
oh	-10.7922
▁repeated	-10.7925
▁finance	-10.7925
▁export	-10.7926
▁tested	-10.7934
▁tends	-10.7934
kh	-10.7935
▁spouse	-10.7936
▁manufacture	-10.7936
▁artist	-10.7937
▁desire	-10.7939
RS	-10.7944
▁attraction	-10.7947
▁colonies	-10.7952
-5	-10.7953
▁Caribbean	-10.7954
▁vinyl	-10.7954
link	-10.7954
▁eyelid	-10.7955
war	-10.7959
▁Commission	-10.796
CI	-10.7961
▁preferred	-10.7962
▁patio	-10.7962
ston	-10.7963
▁unable	-10.7964
fil	-10.7964
▁discomfort	-10.7966
▁alternate	-10.7966
gene	-10.7967
▁Del	-10.7971
▁Bridge	-10.7975
▁favor	-10.7976
▁Louis	-10.7977
▁loop	-10.7978
▁pad	-10.7978
▁Tuition	-10.7978
▁overnight	-10.7979
▁identical	-10.7984
▁mat	-10.7985
cor	-10.7989
▁organized	-10.7993
▁magnet	-10.7994
▁radi	-10.7994
▁dirt	-10.7995
▁Road	-10.7997
▁Christ	-10.7997
▁basin	-10.7998
▁threat	-10.8
language	-10.8003
igh	-10.8005
▁maintaining	-10.8005
▁tourist	-10.8005
stro	-10.801
▁educational	-10.8013
rough	-10.8015
▁ce	-10.8015
▁ser	-10.8016
▁MD	-10.8019
▁nearby	-10.802
▁asthma	-10.802
▁sulfur	-10.802
▁toilet	-10.8025
▁tells	-10.8028
▁Pri	-10.8029
any	-10.8031
▁Dental	-10.8033
rad	-10.8038
▁Chicken	-10.8038
▁Without	-10.8039
▁flowering	-10.8041
▁sole	-10.8042
▁filed	-10.8044
▁coconut	-10.8044
▁cosmetic	-10.8044
ati	-10.8047
EE	-10.8048
GI	-10.8051
▁opposed	-10.8054
▁pest	-10.8055
tte	-10.8056
▁tomatoes	-10.8058
▁tons	-10.8061
▁veterinarian	-10.8062
▁centers	-10.8063
▁merge	-10.8065
cker	-10.8068
▁endo	-10.8069
▁Ze	-10.8069
dol	-10.8071
▁restaurants	-10.8072
▁lid	-10.8075
.”.	-10.8075
ona	-10.8083
▁task	-10.8083
▁carrying	-10.8084
month	-10.8087
ulf	-10.8088
▁Different	-10.8093
▁Lymph	-10.8093
▁template	-10.8094
▁chosen	-10.8097
200	-10.8097
▁Four	-10.8098
room	-10.8098
▁symbols	-10.8099
▁derivative	-10.8099
▁spleen	-10.8099
▁valley	-10.8099
▁sylls	-10.8101
▁rank	-10.8101
▁dough	-10.8108
▁draft	-10.8108
key	-10.811
ground	-10.811
tone	-10.811
▁directed	-10.8111
▁allowance	-10.8112
ago	-10.8116
▁tro	-10.8118
▁institutions	-10.8119
▁pyramid	-10.8123
yo	-10.8124
▁vaginal	-10.8129
▁$26	-10.8131
▁salts	-10.8133
▁Oil	-10.8133
▁cheap	-10.8134
▁Motor	-10.8135
▁rot	-10.8136
▁kWh	-10.8139
ished	-10.8141
▁frost	-10.8142
ital	-10.815
▁Welcome	-10.8154
▁examine	-10.8154
▁newborn	-10.8154
▁solvent	-10.8154
▁Help	-10.8155
▁Lyme	-10.8162
▁cone	-10.8163
-8	-10.817
▁shark	-10.8173
7.5	-10.8175
ound	-10.8175
Pa	-10.8178
▁buildings	-10.8178
▁releases	-10.8178
pra	-10.8178
▁benign	-10.8185
▁weighs	-10.8186
▁hence	-10.8187
▁banks	-10.8187
nar	-10.8187
▁IN	-10.8192
EP	-10.8194
▁transaction	-10.8196
▁hy	-10.8198
▁Big	-10.8198
▁channel	-10.8198
▁stimulate	-10.8199
▁Golden	-10.8201
box	-10.8204
ened	-10.8206
ivity	-10.8206
▁sister	-10.8208
▁fault	-10.821
media	-10.8212
▁fertilizer	-10.8213
ida	-10.8214
▁$21	-10.8218
▁Rub	-10.822
▁independence	-10.8221
fri	-10.8222
▁chill	-10.8222
get	-10.8233
▁Will	-10.8236
▁5%	-10.8237
▁Stra	-10.8239
▁ducts	-10.8249
▁worms	-10.8257
▁competitive	-10.8259
▁determines	-10.8259
mato	-10.826
▁CH	-10.8264
▁fifth	-10.8265
▁radioactive	-10.8266
▁Flag	-10.8267
8.	-10.8269
cet	-10.8272
▁wealth	-10.8272
etic	-10.8274
position	-10.8276
▁appetite	-10.8277
▁helping	-10.8277
▁Level	-10.8283
▁lifespan	-10.829
ban	-10.829
▁efficiency	-10.829
▁fibrous	-10.8292
▁transferred	-10.8293
▁Directions	-10.8296
rian	-10.83
▁Cell	-10.8301
plant	-10.8302
ket	-10.8302
▁latitude	-10.8302
TC	-10.8304
▁constitute	-10.8308
52	-10.831
TI	-10.8312
▁fungal	-10.8315
east	-10.8318
▁horizontal	-10.8321
▁parasites	-10.8321
▁duty	-10.8324
SM	-10.8325
▁replacing	-10.8327
▁Within	-10.8331
▁Plants	-10.8331
EC	-10.8333
▁boost	-10.8333
pher	-10.8334
▁IV	-10.8338
▁freezing	-10.8339
▁architecture	-10.8346
▁$70	-10.8346
▁proof	-10.8353
mil	-10.8353
▁deer	-10.8354
scribe	-10.8357
▁edible	-10.8359
del	-10.836
▁freedom	-10.836
vision	-10.8365
udi	-10.8366
▁Review	-10.8367
OP	-10.837
▁(7	-10.837
▁wavelength	-10.8371
spec	-10.8372
▁Za	-10.8373
▁Arch	-10.8375
▁trap	-10.8375
than	-10.8376
▁opportunity	-10.8377
ok	-10.8379
,900	-10.8379
▁MO	-10.8381
▁yards	-10.8382
mber	-10.8384
och	-10.8395
▁25%	-10.8395
▁flesh	-10.8396
threatening	-10.8398
▁aware	-10.84
▁Council	-10.8402
▁flood	-10.8402
▁cardiovascular	-10.8402
▁dragon	-10.8406
▁meningitis	-10.8408
▁diploma	-10.8408
ening	-10.8408
▁arranged	-10.841
rack	-10.8411
▁horn	-10.8417
▁$65	-10.8417
▁manual	-10.8419
▁anaerobic	-10.8421
▁Degree	-10.8421
▁rec	-10.8424
▁Game	-10.8426
▁fork	-10.8426
▁License	-10.8427
▁Engineer	-10.8427
▁2010,	-10.8427
▁dip	-10.8428
▁spice	-10.843
▁800	-10.8431
▁clearly	-10.8431
▁Language	-10.8433
▁interact	-10.8435
lk	-10.8436
▁psycho	-10.8438
▁skill	-10.8438
▁Ste	-10.844
▁$28	-10.844
▁Bull	-10.8441
this	-10.8442
▁Mars	-10.8443
osa	-10.8445
▁partner	-10.8446
omb	-10.8446
▁communities	-10.8446
▁calorie	-10.8447
▁Choose	-10.8459
▁Ur	-10.8462
▁Income	-10.8466
▁upload	-10.8467
nn	-10.8468
heat	-10.8471
▁LDL	-10.8471
cat	-10.8476
▁altitude	-10.8478
▁CT	-10.8479
▁Lee	-10.848
▁decided	-10.8482
▁allergy	-10.8484
▁$4,000	-10.8488
▁administrative	-10.849
▁absence	-10.849
▁Eye	-10.8491
▁beach	-10.8492
▁FDA	-10.8492
▁wi	-10.8493
ddle	-10.8503
▁crop	-10.8506
▁lipid	-10.8509
glo	-10.8512
▁presented	-10.8513
▁broker	-10.8514
▁furniture	-10.8515
▁guarantee	-10.852
▁fu	-10.8521
▁Ob	-10.8521
▁Cam	-10.8521
▁Financial	-10.8522
▁indicated	-10.8523
▁nucleic	-10.8526
▁junction	-10.8528
▁reaching	-10.8532
▁Mary	-10.8533
▁Due	-10.8534
▁Ven	-10.8536
▁thermal	-10.8538
▁decades	-10.854
▁tasks	-10.8545
▁plaque	-10.8548
▁Hall	-10.8549
tention	-10.855
▁loans	-10.855
▁coordinate	-10.8554
▁millions	-10.8555
ison	-10.8559
▁digit	-10.8562
rim	-10.8562
▁roles	-10.8562
▁implement	-10.8568
▁stiffness	-10.8568
▁boiled	-10.8572
▁relevant	-10.8573
▁tobacco	-10.8573
mmer	-10.8573
▁Thank	-10.8579
▁ordered	-10.8579
▁nails	-10.858
▁Less	-10.8583
▁adequate	-10.8585
arm	-10.8586
▁decreased	-10.8588
path	-10.8595
LD	-10.8595
▁sitting	-10.8596
▁cuts	-10.8598
▁ride	-10.8602
▁restore	-10.8603
▁Bachelor	-10.8605
▁Direct	-10.8611
rist	-10.8615
▁Corporation	-10.8618
▁Visit	-10.8618
▁reproduce	-10.8619
tax	-10.862
▁screening	-10.8621
▁corresponding	-10.8625
PM	-10.8626
oon	-10.8629
▁creatinine	-10.863
▁killed	-10.8631
▁Party	-10.8636
▁Animal	-10.8638
▁illnesses	-10.8639
▁www	-10.864
▁creation	-10.8642
nor	-10.8648
▁musical	-10.8648
▁1950	-10.8649
▁researchers	-10.865
▁tire	-10.8651
▁limestone	-10.8657
bell	-10.8658
▁shipping	-10.8658
▁trained	-10.8662
▁studied	-10.8663
▁interaction	-10.8665
▁relating	-10.8669
▁Short	-10.867
▁airline	-10.8671
▁systemic	-10.8671
last	-10.8672
▁/ˈ	-10.8674
phi	-10.8674
▁administered	-10.8676
specific	-10.868
▁illegal	-10.8682
▁lipids	-10.8683
▁deduct	-10.8683
▁adapt	-10.8684
inflammatory	-10.8687
▁indicator	-10.8688
▁Main	-10.8695
▁oceanic	-10.8696
▁Solar	-10.8696
▁pilot	-10.8702
▁lists	-10.8704
direct	-10.8705
▁rotation	-10.8707
NC	-10.8709
▁tomato	-10.871
Me	-10.8711
▁shapes	-10.8714
▁Outlook	-10.8714
weight	-10.8718
▁sim	-10.872
rust	-10.8722
▁Product	-10.8722
▁2016	-10.8724
▁Ham	-10.8727
mph	-10.8727
▁Tree	-10.8729
▁edit	-10.873
▁Adam	-10.8733
lect	-10.8734
▁calendar	-10.8734
▁trademark	-10.8735
▁geo	-10.8737
▁aerobic	-10.874
▁houses	-10.8742
tting	-10.8742
▁Queen	-10.8745
FC	-10.8745
tine	-10.875
ific	-10.875
▁Shakespeare	-10.8753
▁Infection	-10.8753
▁invention	-10.8753
▁(0	-10.8756
▁Cut	-10.8757
▁onset	-10.8757
▁irritation	-10.876
▁prime	-10.8763
▁nations	-10.8764
▁repeat	-10.8766
▁axis	-10.8768
▁decisions	-10.8771
▁laptop	-10.8773
▁Dia	-10.8774
▁Bacteria	-10.8775
▁greenhouse	-10.8776
▁effectively	-10.8778
▁Dry	-10.8779
▁snack	-10.8779
erry	-10.8782
▁Color	-10.8782
je	-10.8785
▁skeleton	-10.8786
▁tablespoon	-10.8787
▁30%	-10.879
▁divorce	-10.8792
▁lactose	-10.8792
▁childhood	-10.8794
▁$15,000	-10.88
▁ru	-10.88
▁Weight	-10.8805
▁TO	-10.8805
▁strategy	-10.8805
▁leather	-10.8805
▁holes	-10.881
▁circular	-10.8812
▁powers	-10.8812
▁pension	-10.8812
bol	-10.8813
▁snakes	-10.8814
eu	-10.8815
clo	-10.8816
▁trachea	-10.8818
-4	-10.8822
▁immediate	-10.8825
▁Physical	-10.8825
▁clause	-10.8826
▁acres	-10.8831
ele	-10.8832
▁Why	-10.8834
noun	-10.8836
▁pole	-10.8836
IR	-10.8839
▁Tre	-10.884
▁continued	-10.8841
▁clo	-10.8843
▁39	-10.8844
▁lip	-10.8844
▁composite	-10.8844
▁Survey	-10.8844
▁VA	-10.8845
▁46	-10.8845
▁Pen	-10.885
▁pig	-10.8854
loid	-10.8855
▁USD	-10.8856
▁bundle	-10.8858
▁evolved	-10.8859
cher	-10.886
▁crisp	-10.8864
▁Battle	-10.8865
▁trusted	-10.8865
▁renew	-10.8866
▁comfortable	-10.8867
▁comfort	-10.8868
▁$2,500	-10.8872
▁mini	-10.8873
▁cru	-10.8874
▁carrots	-10.8875
fall	-10.8876
▁eagle	-10.8877
▁$33	-10.8878
alis	-10.8881
▁Singapore	-10.8884
▁skull	-10.8884
▁funeral	-10.8884
DNA	-10.8885
▁(8	-10.8888
dl	-10.8889
▁scratch	-10.8891
wo	-10.8894
gent	-10.8896
▁belief	-10.8901
▁Excel	-10.8902
▁10,000	-10.8906
▁microorganisms	-10.8907
▁principles	-10.8915
▁opinion	-10.8917
HO	-10.8919
▁bark	-10.8924
▁margin	-10.8926
▁Wal	-10.8927
lis	-10.8929
▁stronger	-10.8929
▁Term	-10.8931
rag	-10.8934
▁talking	-10.8937
▁Technician	-10.8937
▁prevents	-10.8937
▁sulfate	-10.8937
▁Among	-10.8938
▁Norman	-10.8939
fit	-10.894
▁everyday	-10.8943
▁Contact	-10.8943
▁grew	-10.8945
▁diagram	-10.895
▁Tom	-10.8951
▁recommends	-10.8952
▁printer	-10.8958
▁Special	-10.8963
MI	-10.8964
▁conditioning	-10.897
▁diagnostic	-10.897
▁Weather	-10.897
night	-10.897
TO	-10.8979
▁peanut	-10.8983
ically	-10.8985
▁Mid	-10.8987
▁bronchi	-10.8989
▁tattoo	-10.899
stream	-10.8995
UN	-10.8995
▁1%	-10.8995
▁adjacent	-10.8997
▁squash	-10.8997
▁1999	-10.8997
▁notes	-10.8998
▁coin	-10.9001
▁drawing	-10.9002
▁$800	-10.9003
third	-10.9005
▁detected	-10.9009
exe	-10.901
▁vagina	-10.901
▁felt	-10.901
▁Hydro	-10.9011
▁$27	-10.9012
▁conducted	-10.9012
quest	-10.9013
▁spiritual	-10.9017
logical	-10.9021
▁Sunday	-10.9026
ising	-10.9026
▁explains	-10.9027
▁GPA	-10.903
uch	-10.9031
▁Ken	-10.9033
▁strains	-10.9035
▁empty	-10.9037
▁prohibit	-10.9037
▁absolute	-10.9037
▁Skin	-10.9037
▁imaging	-10.9044
▁award	-10.9046
▁eruption	-10.9047
▁Located	-10.905
▁interview	-10.9051
▁Section	-10.9051
▁99	-10.9052
▁entered	-10.9054
▁finally	-10.9054
▁dwarf	-10.9057
jun	-10.9057
class	-10.9059
LI	-10.9059
itive	-10.906
▁providers	-10.9062
▁Having	-10.9066
action	-10.9068
ND	-10.9068
▁aspect	-10.9073
▁inventory	-10.9073
▁owe	-10.9074
worth	-10.9078
▁coldest	-10.9078
▁anesthesia	-10.9079
cial	-10.9079
hold	-10.9081
▁conflict	-10.9083
case	-10.9087
km	-10.9088
▁Cancer	-10.9092
▁$55	-10.9094
▁130	-10.9098
ould	-10.91
▁Ku	-10.9103
▁binds	-10.9107
▁decreases	-10.9109
▁Concrete	-10.911
▁Article	-10.911
▁telephone	-10.911
eng	-10.9112
▁installing	-10.9115
▁bu	-10.9115
▁facial	-10.9117
▁bands	-10.9119
▁diem	-10.912
▁TB	-10.9122
▁ni	-10.9125
hol	-10.9133
ado	-10.9134
▁breaking	-10.9134
▁pit	-10.9136
▁acting	-10.9137
hood	-10.9137
▁bears	-10.9137
▁Calcium	-10.9144
▁lymphocytes	-10.9146
▁$34	-10.9146
▁Born	-10.9147
ume	-10.915
PH	-10.9152
▁Size	-10.9153
▁slope	-10.9154
dom	-10.9159
▁phosphorus	-10.916
zu	-10.9162
▁recommendation	-10.9164
▁competition	-10.9164
▁anatomy	-10.9164
▁physicians	-10.9165
▁himself	-10.9165
hor	-10.9166
▁0.0	-10.9171
▁asset	-10.9171
▁valuable	-10.9171
▁parking	-10.9175
▁Jack	-10.9175
lant	-10.9176
▁attract	-10.9176
▁arrive	-10.9177
▁dizziness	-10.9178
▁scheme	-10.9178
▁blade	-10.9179
gri	-10.9183
ail	-10.9184
▁Clean	-10.9186
▁3-4	-10.9187
▁Between	-10.9192
▁occupational	-10.9196
▁elevated	-10.9202
▁Johnson	-10.9204
▁grand	-10.9205
▁resort	-10.9205
▁52	-10.9206
cci	-10.9208
▁Jupiter	-10.9212
▁golf	-10.9215
ssuming	-10.9215
▁Java	-10.9215
▁petroleum	-10.9219
▁breakfast	-10.9219
gro	-10.922
▁steroid	-10.9224
iva	-10.9227
▁OF	-10.9227
opathy	-10.9229
FA	-10.9231
tha	-10.9231
▁fitness	-10.9231
▁alter	-10.9232
▁Such	-10.9233
▁80%	-10.9233
cost	-10.9234
▁bri	-10.9234
▁implant	-10.9236
▁entering	-10.9241
met	-10.9242
▁Van	-10.9242
ii	-10.9247
▁sentences	-10.9247
phosphate	-10.9248
wer	-10.925
▁prim	-10.9252
▁silk	-10.9253
▁noted	-10.9261
▁($1	-10.9267
▁epidermis	-10.9273
▁infants	-10.9285
▁Fla	-10.9286
▁Lord	-10.9289
fla	-10.929
▁serum	-10.9292
▁massive	-10.9299
nol	-10.9301
▁preventing	-10.9302
GA	-10.9304
▁consideration	-10.9307
▁reticulum	-10.9308
▁Application	-10.9308
▁Gro	-10.9308
▁regarded	-10.9309
▁objective	-10.931
▁lump	-10.931
▁gravel	-10.9311
▁breathe	-10.9314
▁carefully	-10.9315
▁pond	-10.9322
▁heated	-10.9328
card	-10.9328
▁prove	-10.9329
cil	-10.933
▁ozone	-10.9331
▁Function	-10.9332
▁Job	-10.9332
▁smoking	-10.9335
lee	-10.9338
▁Lip	-10.9338
def	-10.9338
▁osteo	-10.9339
▁Contract	-10.9343
▁submit	-10.9344
▁infant	-10.9344
▁equals	-10.9346
▁Bible	-10.9349
▁hotels	-10.9349
▁hardware	-10.9352
▁ease	-10.9352
▁principle	-10.9358
fra	-10.9358
▁freshwater	-10.9358
ounce	-10.936
▁marks	-10.9362
▁survival	-10.9363
▁Apply	-10.9363
▁mushrooms	-10.9364
mbo	-10.9365
▁eliminate	-10.937
rib	-10.9371
▁Cold	-10.9372
worm	-10.9374
▁gut	-10.9374
▁Nations	-10.9377
▁Typical	-10.9377
▁gone	-10.9382
▁Benefits	-10.9386
▁que	-10.9394
real	-10.9397
▁cramps	-10.9397
▁Hyper	-10.9399
▁simmer	-10.9399
▁versions	-10.94
▁coral	-10.9401
▁lesson	-10.9403
▁accompanied	-10.9404
▁gently	-10.9404
▁exclusive	-10.9405
▁(2000	-10.9405
▁pronunciation	-10.9411
▁reserve	-10.9411
▁hernia	-10.9415
onia	-10.9416
cup	-10.9416
▁pelvic	-10.9418
▁Mr	-10.9421
▁bearing	-10.9423
▁utility	-10.9425
▁cancers	-10.9427
fully	-10.9428
▁har	-10.9431
▁vertebrates	-10.9436
▁diaphragm	-10.9439
MR	-10.9445
▁extraction	-10.9445
▁deductible	-10.9448
BI	-10.9451
▁furnace	-10.9453
▁journey	-10.9453
taining	-10.9454
▁jewelry	-10.9454
▁Son	-10.9455
▁Median	-10.9457
▁instruments	-10.9458
ille	-10.9459
▁gasoline	-10.9467
▁Mill	-10.9468
▁Large	-10.9472
▁variables	-10.9475
▁USDA	-10.9476
star	-10.9477
▁43	-10.9479
leg	-10.9479
polar	-10.9481
▁reasonable	-10.9482
▁peptide	-10.9482
▁supports	-10.9484
▁honor	-10.9489
▁nuclei	-10.949
Con	-10.949
▁fer	-10.9494
code	-10.9496
▁salivary	-10.9498
▁Soviet	-10.9509
bic	-10.9511
otic	-10.9513
VI	-10.9513
▁widespread	-10.9516
▁ski	-10.9516
▁learners	-10.9516
▁cyst	-10.952
▁Ontario	-10.9523
▁shoes	-10.9523
▁Travel	-10.9524
mun	-10.9525
▁cage	-10.9527
▁mag	-10.9529
bul	-10.953
rium	-10.9531
▁Log	-10.9535
▁rising	-10.9538
▁Celtic	-10.9539
▁cons	-10.954
▁Rob	-10.9544
▁taxable	-10.9544
▁Netherlands	-10.9544
▁hollow	-10.9544
▁vacuum	-10.9544
▁$23	-10.9548
▁Personal	-10.9549
▁extracted	-10.9549
▁cave	-10.9549
▁insulation	-10.9551
▁particle	-10.9551
▁environments	-10.9552
cip	-10.9558
▁appeal	-10.9558
▁offices	-10.9559
▁Arctic	-10.9559
cca	-10.956
▁grey	-10.956
▁Nile	-10.956
▁tightly	-10.9561
▁barley	-10.9562
say	-10.9563
▁planting	-10.9564
▁league	-10.9565
▁ribosomes	-10.9567
▁hired	-10.9567
vit	-10.9571
▁Unit	-10.9571
▁influenza	-10.9571
▁marijuana	-10.9572
▁NFL	-10.9572
▁melt	-10.9572
▁averaged	-10.9573
▁laser	-10.9575
▁Gal	-10.9577
▁error	-10.9588
▁rural	-10.9588
Hz	-10.9592
▁prompt	-10.9593
▁(20	-10.9593
TE	-10.9597
▁Mil	-10.9597
▁concentrated	-10.9598
▁follicle	-10.96
▁Richard	-10.9601
▁alkaline	-10.9602
scale	-10.9603
▁Design	-10.9604
▁safely	-10.9608
▁reveal	-10.9609
▁isolated	-10.9614
tim	-10.9617
▁travels	-10.9621
▁monkey	-10.9622
▁inserted	-10.9622
▁descend	-10.963
▁correctly	-10.9633
▁ended	-10.9637
borne	-10.9641
▁legislation	-10.9643
▁Muslim	-10.9643
inter	-10.9644
▁Tro	-10.9645
▁putting	-10.9645
▁fishing	-10.9649
phen	-10.965
▁genital	-10.965
▁obvious	-10.9651
▁considerably	-10.9651
cover	-10.9652
▁Nor	-10.9653
▁ancestor	-10.9653
une	-10.9655
▁nickname	-10.9657
▁ulcers	-10.9658
▁hat	-10.9659
$4	-10.966
▁partially	-10.9661
▁Pour	-10.9663
▁wolf	-10.9664
▁relationships	-10.9669
▁ultimately	-10.9672
▁[2	-10.9674
▁whom	-10.9674
aka	-10.9685
▁Male	-10.9689
▁practitioner	-10.9689
▁influenced	-10.9694
oids	-10.9699
▁sprout	-10.97
▁Im	-10.9706
volt	-10.9707
▁psychological	-10.9707
▁$29	-10.9709
wise	-10.9711
▁analyst	-10.9714
▁census	-10.9714
try	-10.9715
von	-10.9717
LO	-10.9719
char	-10.9719
▁Royal	-10.9722
▁Return	-10.9723
▁shelf	-10.9723
worms	-10.973
▁bacon	-10.9732
▁145	-10.9733
▁initially	-10.9736
▁Gram	-10.9737
kan	-10.9737
▁NY	-10.9742
ulating	-10.9747
▁seizures	-10.9747
▁mount	-10.9748
▁Club	-10.9752
▁civilization	-10.9753
▁Martin	-10.9753
▁adds	-10.9755
▁Despite	-10.9757
▁platform	-10.9757
▁shelter	-10.9758
▁$39	-10.9763
For	-10.9764
▁twin	-10.9765
▁Iceland	-10.9765
▁teams	-10.9766
yourself	-10.9771
▁airway	-10.9774
▁recording	-10.9775
▁AND	-10.9777
▁artists	-10.9777
▁cremation	-10.9779
▁supporting	-10.9779
▁performing	-10.9781
▁vaccines	-10.9782
▁III	-10.9784
▁intensity	-10.9786
▁2011.	-10.9788
▁updated	-10.979
ico	-10.9793
iest	-10.9793
▁remote	-10.9793
▁Den	-10.9796
▁Prices	-10.98
▁#1	-10.9801
▁pets	-10.9802
▁Normally	-10.9804
▁participate	-10.9808
▁velocity	-10.9815
▁Houston	-10.9815
maker	-10.9817
9,000	-10.9818
▁Sodium	-10.9822
PE	-10.9823
LP	-10.9823
▁whatever	-10.9824
▁myth	-10.9825
▁communicate	-10.9829
▁delicious	-10.983
▁bush	-10.9831
▁machines	-10.9831
▁tablet	-10.984
▁rabbits	-10.9842
▁directions	-10.9843
▁responsibility	-10.9844
▁considering	-10.9849
▁pocket	-10.9849
tron	-10.9852
▁sinus	-10.9857
▁atrium	-10.9857
▁Music	-10.9857
▁resident	-10.9858
▁$125	-10.986
▁suit	-10.9861
▁poison	-10.9861
bid	-10.9864
▁SE	-10.9864
corn	-10.9865
▁happy	-10.9866
▁lion	-10.9867
fect	-10.9868
where	-10.9868
▁withdraw	-10.987
▁strongly	-10.9872
nus	-10.9876
▁laid	-10.9879
ini	-10.9883
Le	-10.9884
▁Seattle	-10.9889
▁internet	-10.9891
▁cognitive	-10.9895
▁wool	-10.9895
▁termed	-10.9896
quality	-10.9903
▁rubber	-10.9903
▁lens	-10.9905
PP	-10.9907
▁messenger	-10.9909
▁dinner	-10.9909
aver	-10.9911
PT	-10.9911
▁44	-10.9912
chemical	-10.9913
▁hal	-10.9915
▁assistance	-10.9919
▁gall	-10.9923
▁false	-10.9924
▁Euro	-10.9924
▁Organization	-10.9925
▁Austria	-10.9928
▁$32	-10.9932
▁wonder	-10.9936
▁genre	-10.9938
▁assessment	-10.9938
SC	-10.9942
▁Fees	-10.9944
▁consistent	-10.9944
▁residency	-10.9946
De	-10.9947
ulator	-10.9949
▁graphic	-10.9949
vor	-10.995
nnie	-10.9952
▁$31	-10.9952
▁pelvis	-10.9953
▁worn	-10.9953
Pro	-10.996
pur	-10.9962
▁ionic	-10.9963
▁USB	-10.9963
▁colony	-10.9963
▁Char	-10.9964
▁saying	-10.997
▁planted	-10.997
▁Plus	-10.9971
stat	-10.9971
▁metric	-10.9973
▁peppers	-10.9975
▁che	-10.9976
▁contents	-10.9976
▁teach	-10.9977
▁pie	-10.9981
▁storm	-10.9983
▁folk	-10.9983
▁bags	-10.9984
emi	-10.9988
▁Meat	-10.9994
▁Smith	-10.9997
▁Peter	-11
▁psychologist	-11.0002
now	-11.0002
▁trick	-11.0004
▁random	-11.0005
▁Maryland	-11.0006
rac	-11.0012
train	-11.0012
▁Nutrition	-11.0012
▁LLC	-11.0012
▁mouse	-11.0015
▁Peninsula	-11.0019
▁quantities	-11.002
▁syll	-11.0023
white	-11.0025
▁ST	-11.0027
struc	-11.0032
ington	-11.0039
▁dedicated	-11.0042
▁opportunities	-11.0042
▁pollution	-11.0042
▁speakers	-11.0043
▁traveling	-11.0043
mission	-11.0047
▁exit	-11.0047
▁redness	-11.0049
▁arrival	-11.0049
▁sheets	-11.005
▁Uber	-11.0054
▁proceed	-11.0056
▁consult	-11.0058
▁definitely	-11.0063
▁microscopic	-11.0064
▁Executive	-11.0071
▁shrimp	-11.0071
▁fatal	-11.0073
lio	-11.0074
▁Consider	-11.0079
flow	-11.0082
▁harvest	-11.0082
▁flash	-11.0082
▁lightly	-11.0086
▁Tor	-11.0088
ifying	-11.0089
ben	-11.009
lit	-11.009
▁compete	-11.0092
▁basal	-11.0093
▁bipolar	-11.0094
▁trim	-11.0095
IM	-11.0097
▁pathogens	-11.0103
▁returned	-11.0107
▁Tweet	-11.0108
▁(/ˈ	-11.0109
▁Jan	-11.0112
▁oxidation	-11.0116
▁parathyroid	-11.0116
rill	-11.0118
▁ownership	-11.0118
▁careful	-11.0122
▁republic	-11.0123
▁readily	-11.0123
▁bonuses	-11.0127
▁Wind	-11.0129
▁shore	-11.013
▁tre	-11.013
▁assigned	-11.0131
▁deals	-11.0132
▁discussion	-11.0133
lav	-11.0133
tub	-11.0134
▁upgrade	-11.0134
▁dam	-11.0135
▁47474	-11.0138
▁mucous	-11.0138
▁fed	-11.014
▁acne	-11.014
▁Base	-11.0141
▁holder	-11.0143
▁leafy	-11.0143
▁yolk	-11.0146
▁stays	-11.0146
mol	-11.0148
▁elephant	-11.0153
▁$36	-11.0159
▁Down	-11.016
▁confirm	-11.0161
style	-11.0162
▁constructed	-11.0162
MO	-11.0167
▁Dallas	-11.0168
▁1920	-11.0173
▁pea	-11.0175
▁ahead	-11.018
▁melting	-11.018
▁AC	-11.0184
nium	-11.0185
▁foam	-11.0186
AM	-11.0188
-15	-11.019
▁guy	-11.0191
▁Chile	-11.0194
ured	-11.0203
▁tech	-11.0204
▁delivered	-11.0207
nc	-11.0207
▁floors	-11.0208
CP	-11.0208
week	-11.0216
▁eukaryotes	-11.022
▁amazing	-11.0221
▁certainly	-11.0221
▁router	-11.0223
▁3.5	-11.0224
▁insect	-11.0228
▁450	-11.0229
▁Far	-11.0233
word	-11.0237
▁limb	-11.0237
▁Additional	-11.0238
▁ridge	-11.0243
▁edges	-11.0243
▁campaign	-11.0243
▁iTunes	-11.0243
▁concentrations	-11.0244
150	-11.0246
▁retina	-11.0247
wan	-11.0247
▁ranks	-11.0248
▁Bell	-11.025
▁osteoarthritis	-11.0251
▁philosophy	-11.0251
▁Walt	-11.0255
▁defines	-11.0256
It	-11.0261
▁£2	-11.0263
▁40%	-11.0263
▁combines	-11.0263
▁sight	-11.0264
▁exterior	-11.0266
NI	-11.0267
▁125	-11.027
▁Ky	-11.0271
TS	-11.0272
▁complicated	-11.0273
▁genetically	-11.0276
raw	-11.0276
MC	-11.0276
lob	-11.0277
▁Plate	-11.0277
▁simplest	-11.0279
▁bor	-11.028
▁mustard	-11.0281
▁backbone	-11.0286
▁Modern	-11.0289
adi	-11.0293
▁articles	-11.0294
▁helped	-11.0295
▁Hospital	-11.0296
▁rev	-11.0296
▁dynamic	-11.0297
▁Provide	-11.0298
▁spay	-11.03
-9	-11.0304
▁consequence	-11.0304
▁eu	-11.0304
stick	-11.0306
▁clot	-11.0308
▁bay	-11.0311
▁cycles	-11.0311
▁expansion	-11.0311
print	-11.0312
4)	-11.0314
This	-11.0317
▁mer	-11.0318
▁suggested	-11.0319
▁pharmacy	-11.0319
▁regulations	-11.032
▁NO	-11.0321
▁Hand	-11.0322
▁estrogen	-11.0324
▁vine	-11.0325
VE	-11.0326
view	-11.0328
To	-11.0331
▁Hy	-11.0333
▁cellulose	-11.0334
▁entitled	-11.0334
formed	-11.0337
▁1-2	-11.034
PO	-11.034
▁49	-11.034
▁Monday	-11.0344
▁towns	-11.0345
▁doors	-11.0346
▁nucleo	-11.0348
▁Officer	-11.0348
▁Continental	-11.0349
▁Facts	-11.0353
▁distinguished	-11.0355
▁convention	-11.0355
▁Prime	-11.0358
▁classical	-11.0358
▁Ger	-11.0359
▁colorless	-11.0359
▁fuse	-11.036
▁Bel	-11.0364
▁tried	-11.0364
aging	-11.0365
eria	-11.0365
▁specialize	-11.0365
▁Camp	-11.0369
▁15%	-11.037
▁comprises	-11.0371
▁sexually	-11.0372
▁Vietnam	-11.0372
▁puppies	-11.0372
▁dorsal	-11.0373
▁spores	-11.0374
▁glue	-11.0375
▁universal	-11.038
▁Ask	-11.0381
▁array	-11.0381
▁sn	-11.0385
▁1998	-11.0385
▁tiles	-11.0387
lf	-11.0387
▁Certain	-11.0388
▁lakes	-11.0389
▁Tour	-11.0397
▁Gri	-11.0399
negative	-11.0399
urg	-11.04
EX	-11.0401
lium	-11.0404
ua	-11.0405
▁seasoning	-11.0407
▁nitr	-11.0408
lid	-11.0408
▁populations	-11.0411
▁minimal	-11.0411
got	-11.0415
▁Neuro	-11.0415
▁poet	-11.0418
▁ceramic	-11.0418
▁mucosa	-11.0418
ogenic	-11.042
▁existence	-11.0421
tral	-11.0422
▁valves	-11.0424
rey	-11.0427
▁Cro	-11.0429
▁shed	-11.0431
▁southwest	-11.0434
zer	-11.0436
▁Sir	-11.0436
▁Jul	-11.0436
▁Peru	-11.0438
▁worry	-11.0441
▁brands	-11.0444
▁serotonin	-11.0449
▁spinach	-11.045
TER	-11.0455
itch	-11.0455
▁ACT	-11.0457
▁metamorphic	-11.0457
▁booster	-11.0458
▁derives	-11.0459
OW	-11.0461
▁correspond	-11.0463
group	-11.0463
▁gravity	-11.0464
▁Sugar	-11.0466
▁defect	-11.0467
,250	-11.0467
▁rug	-11.0469
▁identification	-11.0472
▁math	-11.0473
ATION	-11.0473
static	-11.0475
▁Persian	-11.048
▁encounter	-11.0481
▁pyr	-11.0485
▁Chan	-11.0486
▁nut	-11.0486
▁Cross	-11.0488
▁kilowatt	-11.0488
mount	-11.0491
▁listen	-11.0498
▁AB	-11.0499
lab	-11.051
▁tower	-11.0511
▁pla	-11.0515
▁accredited	-11.0519
▁plum	-11.0521
MD	-11.0523
▁granted	-11.0523
▁Hotel	-11.0525
▁belonging	-11.0526
▁convey	-11.0526
▁fructose	-11.0529
▁constantly	-11.0529
mur	-11.053
▁claimed	-11.0532
vie	-11.0533
▁Online	-11.0534
▁Method	-11.0534
▁truth	-11.0534
▁additive	-11.0536
wall	-11.0538
especially	-11.0539
gger	-11.054
▁$700	-11.054
oper	-11.0544
ela	-11.0545
▁Lan	-11.0546
▁Fra	-11.0546
▁Electric	-11.0548
▁inorganic	-11.055
▁Republican	-11.0552
flo	-11.0553
▁Minnesota	-11.0557
▁ban	-11.0558
▁Young	-11.0558
nan	-11.056
▁gran	-11.0561
▁oceans	-11.0563
▁quote	-11.0564
UM	-11.0566
▁forced	-11.0567
isation	-11.057
▁erupt	-11.057
▁supplier	-11.0573
▁pill	-11.0577
▁1997	-11.0578
▁medial	-11.0579
▁inflamed	-11.0581
▁designated	-11.0581
▁headaches	-11.0582
ogram	-11.0582
thal	-11.0582
▁choices	-11.0583
▁publication	-11.0585
▁Alabama	-11.0589
▁Tea	-11.0589
▁HPV	-11.0591
▁Order	-11.0593
ulin	-11.0594
grain	-11.0594
product	-11.0594
tress	-11.0595
test	-11.0595
▁moss	-11.0596
▁applicable	-11.0596
▁equi	-11.0597
▁massage	-11.0598
▁zoo	-11.0601
▁(9	-11.0602
▁panels	-11.0602
▁metropolitan	-11.0604
oz	-11.0608
▁hetero	-11.061
hoe	-11.061
▁borders	-11.0612
▁Missouri	-11.0612
▁reward	-11.0613
▁uniform	-11.0615
▁capture	-11.0616
▁compact	-11.0617
▁$41	-11.0618
▁Zo	-11.0619
▁phenomenon	-11.062
▁differs	-11.0624
▁packages	-11.0624
▁Play	-11.0625
▁achieved	-11.0628
▁Traditional	-11.063
▁$42	-11.0632
▁lighter	-11.0632
▁Side	-11.0635
▁residence	-11.0636
▁Know	-11.0637
▁surrounds	-11.0637
▁Buy	-11.0639
▁successfully	-11.0641
▁episode	-11.0641
▁electrolyte	-11.0643
▁med	-11.0644
▁SI	-11.0647
▁cornea	-11.0648
▁Salmonella	-11.0652
▁Have	-11.0652
▁swim	-11.0654
gua	-11.0654
▁hum	-11.0655
▁emerge	-11.0655
▁clock	-11.0655
▁$90	-11.0656
▁drainage	-11.0657
▁62	-11.0658
▁producer	-11.0661
▁underground	-11.0664
▁rings	-11.0667
▁varied	-11.0667
▁mining	-11.0671
▁Revolution	-11.0675
▁Thumb	-11.0675
▁sat	-11.0676
2.5	-11.0681
▁winds	-11.0681
▁polish	-11.0683
▁framework	-11.0684
round	-11.0685
▁import	-11.0686
▁gear	-11.0689
▁59	-11.069
▁mor	-11.0699
▁danger	-11.0705
▁designer	-11.0705
▁evaluation	-11.0706
▁tectonic	-11.0706
▁Fee	-11.0707
▁oxygenated	-11.0708
▁Hawaiian	-11.0708
▁debate	-11.0709
▁Registered	-11.071
MB	-11.0712
▁Marine	-11.0713
osphere	-11.0713
▁isotope	-11.0714
▁platelets	-11.0716
▁supposed	-11.0719
–1	-11.072
ski	-11.0723
▁visitors	-11.0724
TV	-11.0724
▁Sky	-11.0724
▁64	-11.0726
▁Bring	-11.073
▁opt	-11.0731
▁info	-11.0732
rel	-11.0736
▁Tap	-11.0736
▁basketball	-11.0738
iform	-11.0745
▁beverages	-11.0746
▁perspective	-11.0746
▁introduction	-11.0746
▁ordinary	-11.0746
▁drawn	-11.0748
▁evenly	-11.075
ux	-11.0751
LL	-11.0754
bacteria	-11.0763
▁fastest	-11.0764
▁climb	-11.0768
▁Net	-11.0768
var	-11.0771
▁Israel	-11.0773
flower	-11.0773
▁DEFINITION	-11.0778
▁Arm	-11.0785
idine	-11.0785
▁keyboard	-11.0789
RNA	-11.0791
after	-11.0795
▁script	-11.0797
▁Salt	-11.08
▁lin	-11.0801
▁truly	-11.0802
▁southeast	-11.0803
▁$37	-11.0804
ui	-11.0805
▁therapists	-11.0806
lite	-11.0807
▁twenty	-11.081
▁constituent	-11.081
▁guitar	-11.081
▁stories	-11.081
▁injured	-11.081
IF	-11.0813
▁NBA	-11.0814
▁stimulates	-11.0815
crypt	-11.0818
▁fibrosis	-11.0818
▁Mis	-11.0823
sexual	-11.0823
rse	-11.0823
▁universities	-11.0826
▁Exchange	-11.0826
▁resist	-11.0829
▁Zone	-11.0831
▁Clinical	-11.0831
▁Students	-11.0831
▁Southeast	-11.0833
▁cranial	-11.0834
▁fertile	-11.0834
organ	-11.0838
▁FL	-11.0839
United	-11.084
▁endoplasmic	-11.0842
▁checking	-11.0843
▁affordable	-11.0844
▁transported	-11.0845
▁hardwood	-11.0847
▁chlorophyll	-11.085
▁Familiarity	-11.085
num	-11.0851
▁readers	-11.0853
force	-11.0853
UL	-11.0854
▁ME	-11.0857
toxic	-11.0857
▁deciduous	-11.0858
▁oak	-11.0864
▁Answered	-11.0864
▁moral	-11.0866
▁Female	-11.0866
▁Norway	-11.0867
▁Mat	-11.087
▁commun	-11.0871
▁ml	-11.0878
▁$350	-11.0879
▁predators	-11.088
▁showed	-11.0881
▁bend	-11.0883
▁char	-11.0888
▁bat	-11.0888
▁despite	-11.089
▁summary	-11.089
▁soybean	-11.089
mid	-11.0891
▁cooler	-11.0894
▁easiest	-11.0898
▁subspecies	-11.0898
▁conditioner	-11.0905
▁apples	-11.0905
▁Does	-11.0906
VA	-11.0906
enz	-11.0908
sky	-11.0909
▁physics	-11.091
▁Region	-11.0911
▁700	-11.0913
▁denote	-11.0915
▁Andrew	-11.0916
▁tablespoons	-11.0921
▁insoluble	-11.0922
▁escape	-11.0923
▁confusion	-11.0924
▁operator	-11.0924
▁Bear	-11.0927
▁rainforest	-11.0927
gna	-11.0928
▁Fri	-11.093
▁facilitate	-11.093
▁$1,200	-11.0932
▁connecting	-11.0935
ml	-11.0935
▁manufacturers	-11.0936
TP	-11.0937
▁falling	-11.094
▁Kel	-11.0946
▁Individual	-11.0946
▁metre	-11.0947
▁Sho	-11.0947
▁Horse	-11.0948
▁delete	-11.0952
illo	-11.0952
▁appointment	-11.0956
▁Jackson	-11.0956
▁Mont	-11.0956
▁atmospheric	-11.0957
▁375	-11.0959
▁shrub	-11.0961
0000	-11.0961
▁carb	-11.0963
▁iPad	-11.0963
▁diversity	-11.0964
▁drill	-11.0965
▁latter	-11.0974
▁1996	-11.0975
▁citizen	-11.0976
▁patches	-11.0979
▁laying	-11.098
PV	-11.098
RC	-11.0986
sometimes	-11.0987
▁Kentucky	-11.0987
▁Oxygen	-11.0987
▁Eu	-11.0988
▁bonded	-11.0994
▁advertising	-11.0995
▁Question	-11.0995
▁prevention	-11.0997
▁maybe	-11.0999
▁rigid	-11.1003
▁prefix	-11.1004
bat	-11.1006
▁relate	-11.1011
▁scrap	-11.1012
▁compression	-11.1012
▁fasting	-11.1019
▁recruit	-11.102
▁lizard	-11.102
▁Louisiana	-11.102
▁ureter	-11.102
▁rust	-11.102
▁synthesized	-11.1023
400	-11.1025
FO	-11.1025
anti	-11.1025
▁mole	-11.1026
▁Computer	-11.1028
pound	-11.1031
▁audio	-11.1035
▁deeper	-11.1036
▁convenient	-11.1036
▁understood	-11.1036
▁PDF	-11.1036
▁pace	-11.1037
▁organelle	-11.1037
▁belly	-11.1039
eus	-11.104
▁germinate	-11.1041
▁ginger	-11.1045
▁seafood	-11.1045
▁factory	-11.1046
order	-11.1046
▁overhead	-11.1046
▁Wil	-11.105
▁operates	-11.1052
▁geography	-11.1052
▁depict	-11.1053
lice	-11.1054
▁Castle	-11.1055
8,	-11.1056
▁Temp	-11.1058
▁Experience	-11.106
▁san	-11.1062
▁Delta	-11.1063
▁95	-11.1064
bert	-11.1066
RN	-11.1067
face	-11.1068
▁criteria	-11.1069
▁almond	-11.1069
▁Expect	-11.1069
▁reside	-11.107
▁Lower	-11.1073
▁legally	-11.1075
▁jurisdiction	-11.1077
▁deviation	-11.1077
▁gelatin	-11.1077
stock	-11.1077
▁enclosed	-11.1077
base	-11.108
rew	-11.1084
▁faith	-11.1085
▁AM	-11.1086
▁Station	-11.1087
nut	-11.1087
▁gather	-11.1093
▁Frank	-11.1093
▁optimal	-11.1093
▁Sar	-11.1095
▁networks	-11.1096
▁waiting	-11.1099
Mo	-11.1109
▁Cells	-11.1109
▁multicellular	-11.111
▁destroyed	-11.1112
▁decade	-11.1113
▁lac	-11.1114
▁Training	-11.1119
▁RA	-11.1121
▁slice	-11.1122
▁evolution	-11.1124
▁ester	-11.1125
ique	-11.1125
quin	-11.1126
▁thaw	-11.1126
▁Right	-11.1128
ika	-11.113
▁DO	-11.1132
600	-11.1132
Ca	-11.1134
▁advantages	-11.1137
▁sores	-11.1138
SL	-11.1141
▁bills	-11.1143
▁stability	-11.1146
click	-11.115
▁Mono	-11.115
clude	-11.115
▁mirror	-11.1151
activ	-11.1152
▁helix	-11.1153
▁$85	-11.1154
▁workout	-11.1155
awn	-11.1155
OD	-11.1157
Al	-11.1158
▁Occupation	-11.1159
▁Alcohol	-11.1159
positive	-11.1161
▁treaty	-11.1167
▁voluntary	-11.1167
▁scalp	-11.1168
▁slight	-11.117
▁Wild	-11.1172
▁medulla	-11.1173
ending	-11.1175
▁calling	-11.1175
▁Supreme	-11.1176
▁methyl	-11.1178
other	-11.1182
▁Reserve	-11.1185
oscopy	-11.1189
ometer	-11.1191
▁sprain	-11.1192
UC	-11.1192
▁admission	-11.1193
▁rays	-11.1197
▁Simply	-11.1201
▁ter	-11.1201
lace	-11.1203
▁$25,000	-11.1204
▁sail	-11.1207
▁Connect	-11.1207
▁strike	-11.1209
▁fetus	-11.121
▁brings	-11.121
▁Originally	-11.1211
▁Pap	-11.1211
▁gun	-11.1215
▁tuna	-11.1217
▁boot	-11.1217
▁veterinary	-11.1217
▁indication	-11.1217
▁hall	-11.1218
▁launched	-11.1219
oni	-11.122
▁malt	-11.122
▁realize	-11.1223
▁Connecticut	-11.1225
▁regard	-11.1226
▁campus	-11.1227
ographic	-11.1229
▁dating	-11.1234
▁reliable	-11.1234
cancerous	-11.1243
rock	-11.1243
▁hiring	-11.1243
▁adjusted	-11.1245
▁Leg	-11.1245
▁Sprinkle	-11.125
▁Thyroid	-11.1251
▁electromagnetic	-11.1251
▁partnership	-11.1251
each	-11.1252
▁mal	-11.1253
▁Colon	-11.1253
-ˈ	-11.1253
▁mill	-11.1253
▁Rain	-11.1254
▁reporting	-11.1256
▁launch	-11.1257
▁bedroom	-11.1257
▁discipline	-11.1259
▁outlet	-11.126
ido	-11.1261
▁poetry	-11.1262
▁discovery	-11.1263
▁chip	-11.1265
▁styles	-11.1268
▁omega	-11.1268
▁bonding	-11.127
ATE	-11.1271
▁Kansas	-11.1276
▁Reported	-11.1278
▁harden	-11.1281
▁Comments	-11.1287
▁sits	-11.129
▁Always	-11.1292
ival	-11.1293
▁legumes	-11.1298
▁jar	-11.13
tract	-11.1303
▁ethanol	-11.1304
▁Symbol	-11.1308
▁highlight	-11.131
amide	-11.1314
▁$40,000	-11.1314
▁Acid	-11.1314
chlor	-11.1314
▁representation	-11.1314
▁ulcer	-11.1324
▁Image	-11.1327
pat	-11.1327
▁husband	-11.1334
▁Yu	-11.1338
#	-11.1339
▁ko	-11.1342
▁nearest	-11.1342
▁Jewish	-11.1343
▁Mississippi	-11.1343
▁weekend	-11.1344
▁Hot	-11.135
vers	-11.1351
▁upwards	-11.1354
NG	-11.1355
gers	-11.1358
▁comprised	-11.1358
▁lumbar	-11.136
▁sandwich	-11.136
▁newly	-11.136
▁northeast	-11.1361
colored	-11.1363
▁mainland	-11.1366
▁balanced	-11.1368
▁$49	-11.1369
▁focuses	-11.1371
▁channels	-11.1375
▁uncovered	-11.1376
▁strep	-11.1376
▁conductor	-11.1378
vation	-11.1379
lyn	-11.1382
▁priced	-11.1382
▁marker	-11.1384
▁attractive	-11.1388
cardi	-11.1388
▁crude	-11.1392
eh	-11.1394
eration	-11.1398
▁worm	-11.1409
▁triple	-11.141
▁dividing	-11.141
▁microscope	-11.141
▁max	-11.1411
▁implies	-11.1411
▁Mol	-11.1414
▁IQ	-11.1415
nee	-11.1415
▁grape	-11.1415
▁bid	-11.1416
▁spasms	-11.1419
▁mythology	-11.142
▁antioxidant	-11.142
▁approval	-11.142
▁Express	-11.1425
RM	-11.1427
▁fried	-11.1428
▁TH	-11.1429
▁expire	-11.1429
cephal	-11.143
▁construct	-11.1431
▁designs	-11.1431
▁Joseph	-11.1437
▁Saint	-11.1437
▁peri	-11.1437
▁candidate	-11.1438
▁literary	-11.1439
zar	-11.144
▁Grant	-11.1441
▁Simple	-11.1442
▁preheated	-11.1446
▁selective	-11.1447
NO	-11.1447
▁WA	-11.1448
rose	-11.1452
▁explanation	-11.1453
▁Floor	-11.1453
▁emission	-11.1456
▁Live	-11.1458
▁chloroplasts	-11.1461
rays	-11.1462
▁northwest	-11.1462
iasis	-11.1464
▁gate	-11.1465
▁Reg	-11.1467
▁hop	-11.147
▁distinction	-11.1473
▁rail	-11.1475
▁processor	-11.1476
ctin	-11.148
rite	-11.148
uli	-11.1485
▁1995	-11.1485
▁cultivated	-11.1487
▁substrate	-11.1487
▁vocal	-11.1487
mann	-11.1489
▁bringing	-11.1492
▁cereals	-11.1493
▁berries	-11.1494
▁checked	-11.1494
▁purchasing	-11.1495
▁disrupt	-11.1496
▁Access	-11.1496
▁je	-11.1499
▁$44	-11.1501
▁offspring	-11.1504
▁royal	-11.1504
▁tickets	-11.1504
▁focused	-11.1506
▁hook	-11.1507
▁Are	-11.1507
chu	-11.1508
iro	-11.1508
▁41	-11.1508
▁ple	-11.1511
▁Miami	-11.1513
mag	-11.1524
meth	-11.1528
▁vegetation	-11.153
vul	-11.153
▁gemstone	-11.153
▁dialect	-11.153
▁coach	-11.1531
ffer	-11.1532
▁325	-11.1533
BO	-11.1533
▁translates	-11.1534
▁contractions	-11.1535
grass	-11.1539
▁comment	-11.1539
▁equity	-11.154
▁Watch	-11.155
dam	-11.1554
▁evening	-11.1555
▁analog	-11.1557
DS	-11.1558
▁Sales	-11.156
▁knot	-11.156
▁arrow	-11.156
▁gutter	-11.1561
▁Tennessee	-11.1564
▁reef	-11.1564
▁Glucose	-11.1564
▁Compare	-11.157
▁(16	-11.157
▁defects	-11.1571
they	-11.1577
bury	-11.1577
▁maintained	-11.1579
▁dimensions	-11.1581
▁56	-11.1583
▁destruction	-11.159
▁pizza	-11.159
▁Candida	-11.159
▁Chief	-11.1591
▁lesions	-11.1597
eye	-11.1598
▁Diet	-11.1601
▁MP	-11.1602
▁controlling	-11.1608
▁Resource	-11.161
▁Whole	-11.1614
▁yes	-11.1614
▁vacation	-11.1617
inated	-11.1617
OC	-11.1618
tage	-11.1619
▁Pra	-11.162
▁integrated	-11.1623
▁End	-11.1623
▁Nevada	-11.1624
▁flavour	-11.1624
▁pancreatic	-11.1624
ectomy	-11.1627
▁Tru	-11.1628
▁clothes	-11.1628
second	-11.1628
300	-11.1632
▁Video	-11.1633
▁70%	-11.1634
▁donor	-11.1637
▁agricultural	-11.1642
▁perfectly	-11.1644
▁marble	-11.1644
▁fragments	-11.1644
▁HDL	-11.1644
▁Sen	-11.1647
EST	-11.1653
▁projection	-11.1655
▁hind	-11.1657
▁acronym	-11.1659
▁psychologists	-11.1663
love	-11.1663
▁(17	-11.1665
▁learned	-11.1668
▁Wisconsin	-11.1668
▁chickenpox	-11.1668
▁taxpayer	-11.1668
▁Ban	-11.1669
▁implants	-11.1669
▁siding	-11.167
▁Democratic	-11.167
▁photograph	-11.1671
▁ran	-11.1675
▁inhabit	-11.1675
▁NE	-11.1682
▁Support	-11.1685
▁incubator	-11.1685
oodle	-11.1685
MT	-11.1686
-14	-11.169
▁enlarged	-11.1693
stan	-11.1694
▁supported	-11.1695
▁Factor	-11.1696
▁Fair	-11.1697
▁mast	-11.1699
▁renewal	-11.17
▁DC	-11.17
aldehyde	-11.1703
▁Market	-11.1703
▁debris	-11.1703
▁evergreen	-11.1704
▁beaches	-11.1707
▁electrician	-11.1708
spore	-11.1708
▁employ	-11.1708
▁Uni	-11.1711
▁blisters	-11.1711
▁exhaust	-11.1711
▁Sweden	-11.1711
▁pumps	-11.1714
▁outcome	-11.1714
▁printing	-11.1714
▁shells	-11.1715
grad	-11.1716
▁bud	-11.172
tech	-11.1725
▁Win	-11.1725
▁proven	-11.1725
▁$38	-11.1726
▁mechanisms	-11.1727
▁Poland	-11.1728
▁cavities	-11.1729
▁underneath	-11.1729
▁Spin	-11.173
▁intermediate	-11.1738
▁slip	-11.1738
▁constitution	-11.1738
▁malaria	-11.1738
▁washing	-11.1738
▁Oct	-11.1738
▁Found	-11.1739
▁expectancy	-11.174
▁fibro	-11.1743
▁athletes	-11.1748
▁lunch	-11.1748
▁$52	-11.1748
▁Local	-11.1749
▁defend	-11.1752
▁observation	-11.1755
▁stalk	-11.1755
▁Leave	-11.1759
pid	-11.1761
▁ovaries	-11.1764
IG	-11.1764
▁aquatic	-11.1764
▁displayed	-11.1766
▁mL	-11.1767
▁Tar	-11.1767
▁subsequent	-11.1768
▁combustion	-11.1773
▁judgment	-11.1773
▁stair	-11.1775
▁pulp	-11.1775
▁patch	-11.1776
izer	-11.1777
Ar	-11.178
▁Yellow	-11.1781
▁conjunction	-11.1782
▁heartbeat	-11.1782
▁nitrate	-11.1782
▁specification	-11.1783
count	-11.1785
▁PM	-11.1786
▁harder	-11.1787
▁soften	-11.1789
▁declared	-11.179
trial	-11.1793
▁sin	-11.1794
▁rap	-11.1794
▁formerly	-11.1795
▁measurements	-11.1795
▁fans	-11.1803
▁climates	-11.1805
1)	-11.1807
AY	-11.1807
▁exclusively	-11.1807
▁departure	-11.1808
▁Atlanta	-11.1808
▁poisonous	-11.181
atomic	-11.1814
ocyte	-11.1815
▁Prior	-11.1815
▁chick	-11.1816
▁courts	-11.1816
▁blocked	-11.1816
▁Supplement	-11.1817
▁Garden	-11.1819
tag	-11.1819
nin	-11.1819
▁hide	-11.1821
▁Tiger	-11.1823
valent	-11.1825
▁french	-11.1826
▁Building	-11.1827
▁(12	-11.1828
▁Med	-11.1831
dio	-11.1831
nge	-11.1833
▁snap	-11.1834
▁suffering	-11.1842
rri	-11.1844
▁trading	-11.1845
▁mechanic	-11.1845
▁ER	-11.1849
▁crucial	-11.1853
▁temporal	-11.1853
▁bike	-11.1854
▁glycogen	-11.1861
ech	-11.1865
▁drum	-11.187
▁habitats	-11.187
▁Edward	-11.1871
▁itchy	-11.1872
▁carriers	-11.1873
Com	-11.1876
▁differentiate	-11.1877
pop	-11.188
date	-11.1884
▁concepts	-11.1884
▁rotate	-11.1889
▁$53	-11.1889
even	-11.1891
oy	-11.1893
esis	-11.1896
▁attachment	-11.1896
▁assembly	-11.1897
▁radical	-11.1898
▁sour	-11.1904
▁turbine	-11.1904
▁pod	-11.1904
▁wonderful	-11.1909
plication	-11.191
▁1880	-11.191
▁predominantly	-11.1911
dle	-11.1913
II	-11.1913
cen	-11.1914
▁Farm	-11.1916
▁applicants	-11.1918
▁discussed	-11.1918
▁$6,000	-11.1919
▁Elizabeth	-11.1923
▁feminine	-11.1923
▁specimen	-11.1923
▁publish	-11.1923
▁jelly	-11.1924
weed	-11.1924
▁Friday	-11.1924
ulo	-11.1925
])	-11.1926
itt	-11.1931
▁promise	-11.1933
▁awarded	-11.1935
▁Being	-11.1935
▁broth	-11.1937
▁tie	-11.1939
▁contra	-11.194
▁cabbage	-11.1941
▁sponge	-11.1941
▁gym	-11.1944
NP	-11.1945
▁missing	-11.1947
▁differently	-11.1948
▁turtles	-11.1948
▁Surgery	-11.195
▁packaging	-11.1951
▁Radio	-11.1954
DR	-11.1956
▁illustrate	-11.1959
▁stimulus	-11.1959
▁magazine	-11.1959
calc	-11.196
▁hurt	-11.196
▁insight	-11.1963
▁erect	-11.1964
▁metallic	-11.1967
eva	-11.1968
▁Chronic	-11.1968
▁obligation	-11.1968
▁twelve	-11.1968
forming	-11.1973
▁3,000	-11.1974
▁accumulation	-11.1977
▁goddess	-11.1977
▁neighborhood	-11.1977
▁Living	-11.1982
▁Jun	-11.1983
▁expert	-11.1984
▁adenine	-11.1986
▁Fiber	-11.1988
▁ranking	-11.199
odo	-11.1991
▁hereditary	-11.1995
▁Global	-11.1995
▁vector	-11.1996
▁51	-11.1996
rup	-11.1996
▁grasslands	-11.1999
▁bell	-11.1999
▁Posted	-11.2003
▁magic	-11.2005
▁Patients	-11.2006
enter	-11.201
▁blog	-11.2013
▁inflation	-11.2013
▁OR	-11.2016
tiv	-11.2017
▁cube	-11.2021
▁Cooking	-11.2021
▁continents	-11.2022
▁heel	-11.2023
▁Too	-11.2024
▁triglycerides	-11.2026
▁configuration	-11.204
▁intra	-11.2044
▁chemically	-11.2046
▁$1000	-11.2046
▁oval	-11.2048
▁parasite	-11.2049
▁bilirubin	-11.2049
▁sap	-11.205
▁Internal	-11.2051
roll	-11.2051
▁pills	-11.2054
▁alleles	-11.2055
vascular	-11.2057
▁vice	-11.2057
▁Hormone	-11.2058
▁versus	-11.2058
▁Ray	-11.2063
▁OK	-11.2065
aca	-11.2069
▁samples	-11.2073
▁damp	-11.2074
making	-11.2074
▁duodenum	-11.2076
▁larynx	-11.2076
▁thymine	-11.2076
▁originates	-11.2077
CT	-11.2077
▁clam	-11.2078
▁$48	-11.2079
▁consuming	-11.2082
▁birthday	-11.2083
▁Space	-11.2084
350	-11.2085
▁aromatic	-11.2087
▁regulates	-11.2087
▁Dar	-11.2089
▁antioxidants	-11.2093
▁passive	-11.2097
▁Cuba	-11.2097
▁cookie	-11.2098
▁neighbor	-11.2103
▁Chapter	-11.2104
▁broccoli	-11.2104
▁dysfunction	-11.2104
▁craft	-11.2109
CM	-11.2109
▁(200	-11.2112
▁Pakistan	-11.2113
▁shopping	-11.2115
▁Dam	-11.2116
▁Gate	-11.2118
▁Academy	-11.2122
▁Download	-11.2122
FI	-11.2123
▁spark	-11.2125
ENT	-11.2125
▁governor	-11.2127
aria	-11.2128
roid	-11.2131
▁Governor	-11.2131
▁superficial	-11.2131
▁Turkish	-11.2131
▁bites	-11.2133
▁Site	-11.2138
▁synonym	-11.2139
▁Imp	-11.2139
▁warranty	-11.214
▁heavily	-11.214
mite	-11.214
▁hypertension	-11.2141
▁herpes	-11.2141
▁leadership	-11.2141
Ba	-11.2143
▁Brand	-11.2144
▁Est	-11.2149
▁asparagus	-11.2149
▁citrus	-11.2149
▁prokaryotic	-11.2149
▁qualities	-11.2149
▁arrest	-11.2149
▁Christmas	-11.2149
▁watt	-11.2157
▁hydroxide	-11.2158
▁staple	-11.2158
▁Mass	-11.2159
LAN	-11.216
▁dealer	-11.216
▁flex	-11.2161
▁(15	-11.2167
▁weapon	-11.2167
▁Silver	-11.2169
▁Ter	-11.2172
elo	-11.2173
ethylene	-11.2174
▁Iran	-11.2175
▁Unfortunately	-11.2176
metry	-11.218
phenol	-11.2182
▁Walk	-11.2182
▁retro	-11.2183
▁CF	-11.2185
▁jet	-11.2186
iki	-11.219
▁Tan	-11.2191
▁boiler	-11.2196
▁adapted	-11.2196
▁segments	-11.2196
▁justice	-11.2197
▁Santa	-11.2198
▁reform	-11.2201
craft	-11.2201
[	-11.2203
▁indoor	-11.2203
hl	-11.2206
▁buildup	-11.2208
▁aging	-11.2214
▁Thailand	-11.2214
lateral	-11.2215
▁signature	-11.2215
fusion	-11.2217
lance	-11.2218
phil	-11.2221
▁grocery	-11.2222
▁drywall	-11.2224
▁adaptation	-11.2227
▁converts	-11.223
▁110	-11.223
▁methane	-11.2234
▁1,500	-11.2235
-60	-11.224
▁completion	-11.2241
▁synapse	-11.2241
▁Estimate	-11.2241
▁virtually	-11.2242
▁Malaysia	-11.2244
▁mud	-11.2245
▁thicken	-11.2246
▁Additionally	-11.2248
▁neutron	-11.225
▁supplied	-11.225
▁thrive	-11.225
▁none	-11.2258
bru	-11.2258
electric	-11.2259
responsibilities	-11.2259
▁CEO	-11.2259
▁refrigerated	-11.226
derm	-11.2265
▁1989	-11.2265
120	-11.2267
▁constitutional	-11.2269
▁raising	-11.2269
▁piano	-11.2269
source	-11.227
▁contractors	-11.2271
▁regulated	-11.2271
▁outline	-11.2272
▁Falls	-11.2272
▁tetra	-11.2272
▁Kar	-11.2272
▁elect	-11.2276
▁candidates	-11.2276
▁Plain	-11.2277
▁knife	-11.2278
▁obesity	-11.2278
▁invade	-11.2279
▁episodes	-11.228
▁pulled	-11.228
▁monomer	-11.2281
▁hunt	-11.2282
▁Server	-11.2286
▁automatic	-11.2287
▁Development	-11.2288
▁cylinder	-11.2296
ifier	-11.2297
lap	-11.2298
▁gained	-11.2299
▁abbreviated	-11.2305
▁Oklahoma	-11.2305
▁Welsh	-11.2305
wick	-11.2314
▁ammonia	-11.2315
hem	-11.2315
mia	-11.2321
▁asking	-11.2322
mouth	-11.2324
▁burns	-11.2331
▁fern	-11.2333
▁stretching	-11.2336
▁aspirin	-11.2336
▁iris	-11.234
▁calf	-11.234
▁wing	-11.2342
▁medicinal	-11.2343
▁Oak	-11.2343
filled	-11.2343
often	-11.2344
▁approximate	-11.2348
▁explained	-11.2351
▁dopamine	-11.2352
▁extending	-11.2353
▁autonomic	-11.2359
▁Model	-11.2362
▁tray	-11.2371
▁aggregate	-11.2371
▁endangered	-11.2371
▁sized	-11.2376
aden	-11.2379
▁Portuguese	-11.238
▁founder	-11.2381
▁emotions	-11.2383
▁practitioners	-11.2384
▁$56	-11.2387
ility	-11.2388
▁chlorine	-11.2389
▁Therapy	-11.2389
▁Material	-11.2389
▁guess	-11.239
2015	-11.2391
ister	-11.2392
▁aortic	-11.2392
▁rye	-11.2392
aj	-11.2393
▁hang	-11.2394
proof	-11.2395
▁LA	-11.2399
vari	-11.2399
▁flying	-11.2399
▁gar	-11.24
▁crystalline	-11.2402
1.5	-11.2402
▁makeup	-11.2403
amma	-11.2404
aff	-11.2405
▁Structure	-11.2408
▁Technology	-11.2408
▁involuntary	-11.2408
tribute	-11.2415
▁Fresh	-11.2417
▁establishment	-11.2419
profit	-11.2425
raz	-11.2427
▁durable	-11.2427
▁hottest	-11.2428
zole	-11.243
▁clots	-11.2432
▁inventor	-11.2432
version	-11.2433
rog	-11.2433
▁lobes	-11.2435
▁numbness	-11.2436
▁Puerto	-11.2436
protein	-11.2436
▁forearm	-11.2436
▁Species	-11.2437
▁Trade	-11.2439
▁radius	-11.2443
correct	-11.2446
▁concerns	-11.2447
▁Hope	-11.245
▁alcoholic	-11.2451
▁thoroughly	-11.2452
▁reptiles	-11.2455
▁Field	-11.2455
▁Again	-11.2455
▁neither	-11.2456
▁graduates	-11.2456
▁barrel	-11.2456
imp	-11.2458
▁ancestors	-11.2461
▁gastric	-11.2461
▁prokaryotes	-11.2463
▁mention	-11.2464
▁Forest	-11.2465
▁wearing	-11.2467
▁grapes	-11.2472
▁Sep	-11.2476
▁guests	-11.248
▁node	-11.2481
▁Cel	-11.2483
▁victim	-11.2483
eck	-11.2488
tant	-11.2488
▁agreed	-11.2488
▁hay	-11.249
▁Boy	-11.2491
▁architect	-11.2491
▁fighting	-11.2496
phe	-11.2498
▁laminate	-11.2499
▁Pin	-11.25
uria	-11.2502
▁testosterone	-11.2502
▁scope	-11.2502
▁encode	-11.2503
▁noise	-11.2504
inus	-11.2505
hydrate	-11.2506
▁flexibility	-11.2512
fr	-11.2512
som	-11.2513
trop	-11.2516
▁60%	-11.2517
▁Harvard	-11.2521
▁Avoid	-11.2521
▁resolve	-11.2523
▁rounded	-11.2525
▁Essential	-11.253
▁terrestrial	-11.253
▁suburb	-11.2531
▁1930	-11.254
▁Catholic	-11.254
▁puberty	-11.254
▁statute	-11.254
▁complementary	-11.2541
LY	-11.2542
▁equally	-11.2543
▁Off	-11.2543
▁warts	-11.2544
▁incorporated	-11.2545
-30	-11.2546
▁guard	-11.2549
▁Hal	-11.2549
ancing	-11.2553
home	-11.2557
▁enterprise	-11.2559
▁shield	-11.2559
▁requiring	-11.2559
▁$46	-11.2559
▁Lay	-11.256
▁monitoring	-11.2563
▁feelings	-11.2565
section	-11.2566
rest	-11.2567
▁whales	-11.2567
▁revolution	-11.2568
▁sponsor	-11.2568
Ex	-11.257
▁placenta	-11.2576
▁Which	-11.2578
▁squirrel	-11.2578
▁universe	-11.2578
▁reddish	-11.2578
▁alphabet	-11.2578
▁norm	-11.2582
▁indirect	-11.2582
mile	-11.2583
▁impossible	-11.2588
mycin	-11.2588
tia	-11.2588
▁urea	-11.2592
▁pap	-11.2597
▁slavery	-11.2599
We	-11.26
▁Ann	-11.26
▁Eating	-11.2602
▁mega	-11.2604
▁stimulation	-11.2607
▁Nerve	-11.2607
▁mixing	-11.2608
▁peninsula	-11.2616
▁susceptible	-11.2616
▁committee	-11.2616
ocytosis	-11.2617
aba	-11.2617
▁strict	-11.2617
▁Legal	-11.2617
▁abnormalities	-11.2619
▁leaders	-11.2622
▁creatures	-11.2624
▁Switzerland	-11.2626
▁tuberculosis	-11.2626
▁Jesus	-11.2626
yne	-11.263
▁1940	-11.2631
▁Cri	-11.2631
itz	-11.2632
▁Night	-11.2634
▁drama	-11.2634
▁hypothyroidism	-11.2635
▁Picture	-11.2635
▁humid	-11.2635
▁clip	-11.2637
▁Insert	-11.2637
▁roofing	-11.2638
▁pear	-11.2639
▁substantial	-11.2642
▁Indo	-11.2643
ər	-11.2644
▁TX	-11.2646
▁wondering	-11.2649
▁neo	-11.265
▁deserts	-11.2652
▁Requirements	-11.2655
▁Navy	-11.2656
▁54	-11.2662
▁avocado	-11.2664
▁parietal	-11.2664
hole	-11.2665
▁harsh	-11.2667
▁wooden	-11.267
▁adjustment	-11.2672
▁dehydration	-11.2674
celled	-11.2675
▁Paint	-11.2676
▁Mineral	-11.2677
▁pup	-11.2678
▁precise	-11.268
▁envelope	-11.2683
▁rinse	-11.2684
▁naming	-11.2684
SU	-11.2685
ife	-11.2687
▁vertebral	-11.2687
”)	-11.2688
thetic	-11.2691
▁vegetarian	-11.2693
▁behavioral	-11.2694
▁Representatives	-11.2695
folia	-11.2696
▁polymers	-11.2697
▁mate	-11.2698
IV	-11.2699
▁opioid	-11.2703
▁erosion	-11.2703
▁lesser	-11.2703
▁Sound	-11.2704
system	-11.2705
▁airlines	-11.2706
▁counselor	-11.2706
eur	-11.2707
▁analyze	-11.2711
▁sunshine	-11.2712
▁Disorder	-11.2713
▁Tim	-11.2714
▁Nico	-11.2717
OU	-11.2717
▁rupture	-11.2722
▁perception	-11.2725
lift	-11.2725
quo	-11.2725
▁baseball	-11.2725
horn	-11.2727
▁strengthen	-11.2731
▁democracy	-11.2732
bur	-11.2732
▁triangle	-11.2732
▁footage	-11.2733
just	-11.2736
pods	-11.2736
anna	-11.2737
▁UV	-11.2738
▁altered	-11.2741
▁cancel	-11.2743
ethyl	-11.2745
▁stove	-11.2746
hin	-11.275
▁Kin	-11.275
nesthesiologist	-11.2751
▁physiological	-11.2752
▁Clear	-11.2754
▁chances	-11.2754
▁rainforests	-11.2754
culture	-11.2756
escent	-11.2757
5.5	-11.276
▁counties	-11.2761
▁Guinea	-11.2761
▁gentle	-11.2762
polis	-11.2762
add	-11.2765
▁cleaner	-11.2769
▁suffix	-11.277
▁Schedule	-11.277
▁actress	-11.2771
▁german	-11.2772
▁Metal	-11.2775
▁marinade	-11.278
▁Complete	-11.278
▁Update	-11.2782
food	-11.2783
▁miss	-11.2783
▁historic	-11.2788
▁marginal	-11.2788
▁squamous	-11.279
▁averaging	-11.279
▁ships	-11.279
▁Denmark	-11.279
▁Staphylococcus	-11.279
▁Engineering	-11.2792
▁PO	-11.2794
▁alive	-11.2795
▁spelled	-11.2795
▁dozen	-11.2797
▁toxin	-11.2798
▁lips	-11.2798
▁complaint	-11.2799
▁charging	-11.28
▁stiff	-11.28
▁Bone	-11.2802
ALT	-11.2802
century	-11.2802
▁managed	-11.2804
iel	-11.2804
▁slices	-11.2807
▁parasitic	-11.2809
▁trail	-11.2811
▁Trust	-11.2812
▁66	-11.2812
▁Bob	-11.2816
aut	-11.282
cycle	-11.2821
▁audience	-11.2829
▁Airlines	-11.2829
elect	-11.2829
▁polio	-11.283
erial	-11.2831
mond	-11.2831
ologic	-11.2835
▁Records	-11.2837
▁eruptions	-11.2838
▁mercury	-11.2839
▁Pluto	-11.2839
▁filaments	-11.284
▁hu	-11.2843
mple	-11.2843
ught	-11.2845
counter	-11.2845
▁shut	-11.2846
▁Anglo	-11.2848
▁intelligence	-11.2848
▁choosing	-11.2848
▁thermo	-11.2849
kill	-11.285
▁Current	-11.2855
phon	-11.2857
▁syllables	-11.2858
Ro	-11.2858
▁Lar	-11.2858
▁mammal	-11.2862
flex	-11.2863
▁Ground	-11.2863
pol	-11.2863
▁Link	-11.2868
▁circulate	-11.2868
▁resemble	-11.287
methyl	-11.287
▁$120	-11.2873
▁cooker	-11.2875
▁homo	-11.2875
▁butterfly	-11.2878
▁Indeed	-11.2879
▁stations	-11.288
▁teaspoons	-11.2882
▁del	-11.2885
▁army	-11.2885
▁hidden	-11.2888
▁owl	-11.289
▁exceptions	-11.2891
▁shake	-11.2897
▁Belgium	-11.2898
▁leukemia	-11.2898
▁professor	-11.2898
▁dispute	-11.2898
▁Cape	-11.29
▁cereal	-11.29
▁Allow	-11.2902
▁protons	-11.2903
hydro	-11.2904
minute	-11.2906
▁physically	-11.2913
▁Parliament	-11.2917
▁Customer	-11.2917
▁Little	-11.2919
done	-11.2922
▁calm	-11.2926
▁Stat	-11.2927
▁steep	-11.2929
oil	-11.293
▁mask	-11.2931
▁plot	-11.2934
▁addresses	-11.2935
cord	-11.2937
▁Commercial	-11.2937
▁cerebrum	-11.2937
▁Polish	-11.2937
▁Fast	-11.2937
▁Roll	-11.2938
▁scientist	-11.294
Saxon	-11.2941
▁Que	-11.2943
▁elastic	-11.2944
▁Professor	-11.2947
▁measles	-11.2947
▁eczema	-11.2947
▁restricted	-11.2948
▁wildlife	-11.2958
▁transactions	-11.2958
▁sur	-11.2959
▁MI	-11.2961
▁centimeters	-11.2965
▁inexpensive	-11.2967
▁Uranus	-11.2967
▁Made	-11.2967
treat	-11.2967
▁Wilson	-11.2968
▁dropped	-11.2969
nation	-11.297
▁hunting	-11.2971
▁flowing	-11.2972
▁representing	-11.2973
cid	-11.2976
▁legislature	-11.2977
▁plumbing	-11.2977
▁radon	-11.2978
-$50	-11.2981
▁maple	-11.2983
▁aneurysm	-11.2986
-16	-11.2989
ark	-11.2991
scopic	-11.2996
dex	-11.2999
▁rely	-11.3008
▁GA	-11.3009
▁warmer	-11.3009
▁$51	-11.3011
▁$60,000	-11.3014
phyl	-11.3015
▁Way	-11.3015
▁rectum	-11.3016
carotene	-11.3016
▁polysaccharide	-11.3017
▁pinch	-11.3017
▁DE	-11.3018
▁Android	-11.3018
▁flame	-11.3019
control	-11.3021
▁thinner	-11.3023
bird	-11.3027
step	-11.3027
idal	-11.3028
tip	-11.3029
▁Independence	-11.3036
▁olfactory	-11.3036
▁separation	-11.3036
▁consent	-11.3039
▁75%	-11.304
▁beliefs	-11.304
▁Stock	-11.3041
▁pediatric	-11.3042
▁cows	-11.3042
ograph	-11.3043
piration	-11.3044
▁Pop	-11.3046
▁Climate	-11.3046
▁phospholipid	-11.3046
▁coarse	-11.3046
ibility	-11.305
▁Portugal	-11.3056
▁bodily	-11.3056
▁borrow	-11.3057
▁pathogen	-11.3061
▁DVD	-11.3066
▁anchor	-11.3069
▁dig	-11.3071
▁Argentina	-11.3076
▁Carbohydrates	-11.3076
▁mistake	-11.3077
▁cilia	-11.3082
▁Sil	-11.3086
▁Abraham	-11.3086
▁stabilize	-11.3086
▁Kay	-11.3086
▁plague	-11.3087
▁managing	-11.3088
vig	-11.3089
play	-11.3089
ethane	-11.309
▁spreading	-11.309
▁protists	-11.3093
▁viewed	-11.3095
▁Ecuador	-11.3096
▁festival	-11.3096
▁Following	-11.3099
▁Milk	-11.3103
circ	-11.3107
▁looked	-11.3111
▁Feed	-11.3111
▁sync	-11.3114
▁Award	-11.3115
▁cinnamon	-11.3116
▁pseudo	-11.3116
▁antidepressant	-11.3117
▁timing	-11.3117
▁printed	-11.3117
▁Who	-11.3119
▁divides	-11.3127
▁neurological	-11.3127
▁Primary	-11.3127
cies	-11.3128
pit	-11.3128
▁gout	-11.313
▁Chart	-11.313
▁sheath	-11.3131
▁1981	-11.3131
▁slot	-11.3133
▁Merc	-11.3134
▁Korea	-11.3134
▁Philadelphia	-11.3136
▁carcinoma	-11.3136
▁desktop	-11.3137
▁bpm	-11.3139
▁programming	-11.3141
▁Mur	-11.3141
install	-11.3142
▁1800	-11.3146
▁activate	-11.3146
▁preserve	-11.3146
▁alveoli	-11.3147
▁Teacher	-11.3147
▁decorative	-11.3147
▁pads	-11.3147
▁chew	-11.3149
▁slaves	-11.3151
Noun	-11.3152
▁banana	-11.3157
▁entrance	-11.3157
▁adverse	-11.3158
▁feathers	-11.3162
anda	-11.3165
▁cuff	-11.3166
▁reputation	-11.3167
▁Angel	-11.3169
▁shrubs	-11.3169
▁efforts	-11.3171
▁gem	-11.3171
▁UN	-11.3172
lex	-11.3175
▁Create	-11.3176
▁mice	-11.3176
▁Agriculture	-11.3177
▁agriculture	-11.3177
▁interfere	-11.3178
rah	-11.3178
▁cava	-11.3181
▁grasses	-11.3181
▁1964	-11.3183
▁Safety	-11.3188
▁countertops	-11.3188
▁Break	-11.3189
▁wider	-11.3195
▁labeled	-11.3196
▁Sanskrit	-11.3197
▁unicellular	-11.3197
▁defeat	-11.3198
aki	-11.3198
▁Sim	-11.3204
▁Reading	-11.3204
open	-11.3205
ensis	-11.3206
▁Committee	-11.3207
▁Parkinson	-11.3207
▁vesicle	-11.3207
xa	-11.3208
▁sensitivity	-11.3209
▁Tips	-11.3213
▁mmol	-11.3217
▁maturity	-11.3217
▁schizophrenia	-11.3217
▁sealed	-11.3218
▁phyto	-11.3219
▁Lab	-11.3221
▁dia	-11.3224
▁esp	-11.3224
▁fermented	-11.3225
▁Fungi	-11.3228
▁castle	-11.323
▁saving	-11.3231
mir	-11.3234
▁monosaccharide	-11.3238
▁operated	-11.3238
▁pronoun	-11.3238
▁Ox	-11.324
▁harmless	-11.324
▁kid	-11.3242
enne	-11.3242
▁opiate	-11.3248
▁render	-11.325
▁Five	-11.325
▁Upper	-11.3252
ushi	-11.3252
activity	-11.3253
▁User	-11.3253
▁beam	-11.3254
▁$57	-11.3256
▁translated	-11.3257
▁packed	-11.3257
▁Brain	-11.3257
▁cytosine	-11.3258
▁chips	-11.3267
▁herbal	-11.3269
▁whale	-11.327
▁friendly	-11.327
▁$43	-11.3271
▁symbolize	-11.3274
▁Past	-11.3275
▁Mercury	-11.3279
▁spiral	-11.3279
▁postage	-11.3279
EG	-11.3281
tropic	-11.3284
genic	-11.3285
▁transformation	-11.3286
▁wisdom	-11.3289
▁reject	-11.3292
SO	-11.3296
ifies	-11.3298
▁immigration	-11.3299
▁indigenous	-11.3299
liter	-11.33
▁3/4	-11.33
mont	-11.33
You	-11.3301
▁turtle	-11.3302
fur	-11.3304
▁theories	-11.3305
▁phenotype	-11.3309
▁privacy	-11.3309
▁sucrose	-11.3309
▁flush	-11.331
▁wrapped	-11.3311
▁Stir	-11.3312
▁gen	-11.3312
file	-11.3314
▁1945	-11.3318
▁licensing	-11.3319
▁Utah	-11.332
▁commercially	-11.332
▁denture	-11.332
▁partners	-11.3322
piece	-11.3327
▁Eli	-11.3328
▁Magnesium	-11.333
▁athletic	-11.333
▁compartment	-11.333
▁Museum	-11.333
▁Settings	-11.333
▁doubt	-11.333
RT	-11.3331
story	-11.3333
▁separately	-11.3334
▁celebrated	-11.3335
▁tunnel	-11.334
-$6	-11.3341
▁noble	-11.3344
▁hydrocarbon	-11.3345
▁united	-11.3345
▁sleeping	-11.3348
▁availability	-11.335
▁malignant	-11.335
▁Calories	-11.335
6.5	-11.3351
▁reader	-11.3352
▁effectiveness	-11.3353
▁accomplish	-11.3354
ended	-11.3356
dict	-11.3358
▁000	-11.3358
witch	-11.336
▁refined	-11.3361
▁delicate	-11.3361
▁acceptance	-11.3364
▁165	-11.3368
▁suppress	-11.3371
▁Title	-11.3372
800	-11.3372
▁1961	-11.3375
▁Fill	-11.3377
▁relations	-11.3378
▁$66	-11.338
▁PayScale	-11.3381
▁Physician	-11.3381
▁fell	-11.3381
▁Division	-11.3383
▁saucepan	-11.3384
▁producers	-11.3386
▁coughing	-11.3387
See	-11.3389
containing	-11.339
▁originate	-11.3392
▁Worker	-11.3394
▁suddenly	-11.3395
▁limbs	-11.3398
▁ranged	-11.3398
CNS	-11.3402
idi	-11.3416
▁vena	-11.3418
▁100,000	-11.342
▁Continue	-11.3423
▁guanine	-11.3423
▁utilize	-11.3423
▁Queensland	-11.3423
▁tired	-11.3425
▁warning	-11.3429
▁packet	-11.343
▁Late	-11.343
▁Diabetes	-11.3433
▁Girl	-11.3433
▁thighs	-11.3434
▁Eggs	-11.3435
NT	-11.3436
▁surprising	-11.3443
▁module	-11.3443
▁Think	-11.3445
▁Yo	-11.3445
▁dial	-11.3446
▁Arab	-11.3448
▁Similar	-11.3451
▁professors	-11.3453
▁Roosevelt	-11.3454
▁Convention	-11.3454
▁recipient	-11.3464
▁Studies	-11.3464
▁smart	-11.3464
▁Gall	-11.3465
▁Currently	-11.3468
▁amongst	-11.3468
▁invasive	-11.347
location	-11.3472
▁potent	-11.3472
▁dermatitis	-11.3475
▁hygienist	-11.3475
▁suspension	-11.3475
▁spoon	-11.3476
▁Electro	-11.3477
▁$47	-11.348
▁Prop	-11.3481
▁Contribution	-11.3485
▁exempt	-11.3488
edema	-11.3489
▁settle	-11.349
▁studio	-11.3491
▁tit	-11.3492
nail	-11.3495
▁Dollar	-11.3495
▁Cambridge	-11.3496
▁vanilla	-11.3496
▁inheritance	-11.3496
▁Rad	-11.3497
-$7	-11.35
▁digested	-11.3504
▁Kidney	-11.3506
▁Lewis	-11.3506
▁placing	-11.3506
▁tenant	-11.3515
▁american	-11.3516
▁elsewhere	-11.3517
▁Rule	-11.3517
▁chili	-11.352
main	-11.352
▁kick	-11.3521
7°	-11.3524
vine	-11.3525
▁Value	-11.3528
gli	-11.3532
▁Dark	-11.3534
▁argument	-11.3537
▁diffusion	-11.3537
▁fertility	-11.3537
▁narcotic	-11.3537
-1/2	-11.3537
▁automobile	-11.3537
▁Operation	-11.3538
▁aureus	-11.3538
▁fixture	-11.3538
▁Summer	-11.3538
▁exert	-11.3544
resistant	-11.3545
page	-11.3546
▁countertop	-11.3548
CK	-11.3548
▁elderly	-11.3548
,750	-11.3549
▁Alpha	-11.355
▁fare	-11.3552
loss	-11.3555
▁Palm	-11.3556
▁Copper	-11.3558
▁interactions	-11.3562
▁Money	-11.3564
▁Quick	-11.3564
tero	-11.3567
▁cysts	-11.3567
cooked	-11.3571
▁bomb	-11.3574
▁1992	-11.3575
▁improved	-11.3578
▁flora	-11.3578
▁Hemisphere	-11.3579
▁batteries	-11.358
▁Reduce	-11.3581
▁gametes	-11.3583
-40	-11.3585
▁overview	-11.359
▁disappear	-11.359
▁Condition	-11.359
▁cucumber	-11.359
▁Birth	-11.359
▁remained	-11.3592
SR	-11.3593
post	-11.3593
▁assisted	-11.3593
temp	-11.3596
▁fillets	-11.3602
▁graft	-11.3603
▁Very	-11.3605
▁coastline	-11.3609
▁argue	-11.3612
▁frontal	-11.3613
zon	-11.3615
▁jail	-11.3615
▁polyps	-11.3617
▁Ash	-11.3624
▁prevalent	-11.3624
▁fasci	-11.3624
hill	-11.3625
▁Starting	-11.3629
▁handling	-11.3629
▁pharynx	-11.363
sperm	-11.3634
▁sec	-11.3634
▁Index	-11.3642
▁savanna	-11.3643
▁doneness	-11.3645
▁collecting	-11.3648
▁1994	-11.3648
▁Germanic	-11.3649
▁dealing	-11.3649
▁skip	-11.3651
▁instruction	-11.3653
▁lentils	-11.3653
▁mutual	-11.3653
▁oats	-11.3654
▁neural	-11.3654
ivo	-11.3655
▁2%	-11.3656
40,000	-11.3656
▁magnitude	-11.3664
▁Organ	-11.3664
▁Agency	-11.3664
▁Overall	-11.3666
▁Content	-11.3668
▁offense	-11.3671
door	-11.3672
ality	-11.3674
▁strategic	-11.3675
ritis	-11.3676
▁shaft	-11.3677
▁dialog	-11.3682
▁solve	-11.3684
cyst	-11.3685
▁thymus	-11.3685
▁crawl	-11.3685
▁Nick	-11.3692
mill	-11.3694
▁administrator	-11.3696
space	-11.3697
▁Jones	-11.3699
▁bony	-11.3699
▁poles	-11.3702
▁fertilized	-11.3702
▁lamp	-11.3704
▁68	-11.3704
▁reserved	-11.3706
▁Dubai	-11.3707
▁fertilization	-11.3707
▁receipt	-11.3707
▁pursue	-11.3707
▁buds	-11.3708
▁lice	-11.371
▁Mini	-11.3713
ential	-11.3714
race	-11.3715
▁AU	-11.3715
▁$450	-11.3717
▁completing	-11.3717
▁LPN	-11.3717
pod	-11.3718
▁1500	-11.3723
▁converter	-11.3728
▁Alexander	-11.3728
▁debut	-11.3732
▁adoption	-11.3733
▁Love	-11.3733
lem	-11.3737
▁library	-11.3739
▁occurrences	-11.3744
▁expanded	-11.3746
▁ongoing	-11.3751
▁transverse	-11.3751
▁advise	-11.3752
▁decor	-11.3752
▁Def	-11.3753
▁comments	-11.3756
▁occasion	-11.3759
▁cystic	-11.3759
▁dessert	-11.376
▁delegate	-11.376
▁newspaper	-11.376
▁missed	-11.376
▁cruise	-11.3765
▁Lac	-11.3765
DE	-11.3769
vitamin	-11.377
▁jack	-11.3772
arily	-11.3775
▁twist	-11.3776
▁1993	-11.3777
▁Neptune	-11.3781
▁Regular	-11.3782
rgic	-11.3783
▁crumb	-11.3783
▁releasing	-11.3786
pril	-11.379
▁bilayer	-11.3793
▁Limited	-11.3793
▁legend	-11.3796
Car	-11.3796
▁technically	-11.3797
oderm	-11.3798
▁Options	-11.3803
ilia	-11.3808
▁TSH	-11.381
aire	-11.381
eon	-11.381
▁Potassium	-11.3814
▁preparing	-11.3814
▁spur	-11.3818
▁Instructions	-11.3825
▁Vegas	-11.3825
▁observe	-11.3826
▁kilograms	-11.3826
ddy	-11.3828
▁proton	-11.3833
▁crest	-11.3834
▁runny	-11.3834
▁cured	-11.3835
▁Colombia	-11.3835
▁prolonged	-11.3835
ssemble	-11.3835
▁thicker	-11.3837
3.5	-11.3837
▁Bond	-11.3838
▁Sol	-11.3839
▁radiologist	-11.3839
hard	-11.384
NH	-11.384
▁1991	-11.3842
▁Jobs	-11.3842
▁flip	-11.3845
▁silica	-11.3851
▁Qui	-11.3853
pay	-11.3853
▁NAD	-11.3854
plan	-11.3854
▁tallest	-11.3856
▁english	-11.3857
▁Philippines	-11.3857
▁inspired	-11.3857
▁Protection	-11.3859
illary	-11.3863
▁outbreak	-11.3863
▁Bru	-11.3864
▁Six	-11.3864
uca	-11.3864
▁watts	-11.3866
▁quart	-11.3867
utter	-11.3868
▁therapeutic	-11.3868
trip	-11.3868
Di	-11.3871
filament	-11.3877
▁indoors	-11.3878
▁precursor	-11.3879
▁seeking	-11.388
zzle	-11.388
▁Kit	-11.3883
bacter	-11.3883
▁deposited	-11.3886
▁aggressive	-11.389
▁DIY	-11.389
▁logo	-11.3891
▁Deep	-11.3892
▁crew	-11.3898
▁Sydney	-11.39
▁collapse	-11.3901
▁mosquito	-11.3903
glu	-11.3906
▁Dur	-11.3906
▁Bacterial	-11.3907
▁panic	-11.3912
▁dividend	-11.3914
▁Tip	-11.3917
-100	-11.392
▁$3,500	-11.3921
▁enforce	-11.3921
▁EU	-11.3921
▁Scientists	-11.3922
▁medieval	-11.3922
▁asbestos	-11.3922
▁Background	-11.3923
▁hemo	-11.3926
▁Carl	-11.3927
gress	-11.3931
▁resembles	-11.3931
▁Grass	-11.3931
▁tibia	-11.3934
▁soul	-11.3936
issa	-11.3936
▁Phil	-11.3936
▁lying	-11.3937
▁emit	-11.3941
▁Harry	-11.3942
unk	-11.3942
▁Increase	-11.3944
▁nodule	-11.3945
▁broadcast	-11.3945
▁adhere	-11.3946
▁twitch	-11.3946
west	-11.395
▁cabinets	-11.3953
▁BMI	-11.3954
▁Swedish	-11.3955
complete	-11.3955
▁arrived	-11.3957
▁Explorer	-11.3958
▁farmers	-11.3958
▁hor	-11.3962
bili	-11.3964
▁notable	-11.3972
▁afford	-11.3973
▁kilogram	-11.3976
rang	-11.3976
▁molten	-11.3977
▁ketone	-11.3977
▁exclude	-11.3978
uro	-11.3979
▁phosphor	-11.3979
▁sch	-11.398
▁counseling	-11.398
▁drying	-11.3983
look	-11.3986
▁settled	-11.3988
▁proximal	-11.3988
▁sustain	-11.3992
▁pharmaceutical	-11.3994
GE	-11.3998
▁hero	-11.4006
▁execution	-11.401
▁bananas	-11.4011
▁obstruction	-11.4011
self	-11.4012
▁Along	-11.4014
▁swing	-11.4014
▁900	-11.4019
▁Mean	-11.4019
▁comparable	-11.4021
▁resolution	-11.4021
▁vendor	-11.4021
▁swallow	-11.4021
▁counterpart	-11.4022
▁adopt	-11.4022
▁Country	-11.4023
▁Antarctica	-11.4025
wind	-11.4028
▁OS	-11.4028
stein	-11.4029
▁upset	-11.4031
opathic	-11.4031
▁bankruptcy	-11.4032
▁Czech	-11.4032
stranded	-11.4033
▁fig	-11.4035
plankton	-11.4037
▁errors	-11.4041
▁Syndrome	-11.4043
▁authentic	-11.4043
▁adverb	-11.4043
▁Almost	-11.4047
▁Agent	-11.4047
▁litter	-11.4047
▁Cooked	-11.405
▁63	-11.4051
▁bubble	-11.4054
▁beverage	-11.4054
meaning	-11.4055
zen	-11.4059
▁minus	-11.406
udge	-11.406
▁till	-11.4062
▁driven	-11.4063
▁addiction	-11.4065
▁biochemical	-11.4066
factor	-11.4066
hel	-11.4066
▁introduce	-11.4066
▁SAT	-11.4066
▁spoke	-11.4068
lick	-11.407
▁78	-11.407
burn	-11.407
▁steady	-11.4076
angle	-11.4076
▁accumulate	-11.4077
typ	-11.4078
▁Multi	-11.4079
UT	-11.408
▁bur	-11.4082
▁somatic	-11.4086
▁Grill	-11.4087
▁Count	-11.4087
▁YouTube	-11.4087
▁psoriasis	-11.4087
▁technologies	-11.4087
▁sixth	-11.4092
▁seasonal	-11.4094
▁(+	-11.4097
▁basket	-11.4098
▁antenna	-11.4098
▁Drink	-11.41
▁informal	-11.4106
▁sen	-11.4107
▁behalf	-11.4108
▁facing	-11.4109
▁technologist	-11.4109
cott	-11.4111
▁tide	-11.4114
▁quotes	-11.4115
▁appointed	-11.4119
▁starter	-11.4119
▁congenital	-11.412
▁awareness	-11.4124
▁comprise	-11.4125
▁58	-11.4126
max	-11.4128
450	-11.4129
▁Pokemon	-11.4131
▁Diego	-11.4131
blood	-11.4133
▁hydrocarbons	-11.4138
dependent	-11.4139
▁Score	-11.414
▁independently	-11.414
▁euro	-11.4142
▁threshold	-11.4143
▁diffuse	-11.4143
▁intolerance	-11.4143
cellular	-11.4144
▁persistent	-11.4144
,000,000	-11.4145
▁homeowner	-11.4152
▁Hold	-11.4153
▁preservative	-11.4154
▁Dragon	-11.4154
▁cigarette	-11.4154
▁Animals	-11.4163
▁Measure	-11.4165
▁Tele	-11.4168
▁Foundation	-11.417
rh	-11.4171
▁Anne	-11.4172
▁optical	-11.4175
▁Saturday	-11.4176
▁debit	-11.4177
▁converting	-11.4177
▁organisation	-11.4177
▁consistency	-11.4177
kel	-11.4185
▁Split	-11.4188
pronounced	-11.4189
nutrient	-11.4189
▁pathogenic	-11.4189
▁classroom	-11.4189
rod	-11.4193
lined	-11.4196
▁continuously	-11.4196
▁Through	-11.4198
▁lobster	-11.4198
▁groin	-11.4199
▁Mod	-11.4201
▁confirmed	-11.4205
▁primer	-11.4207
▁Ski	-11.4207
metal	-11.4207
▁panda	-11.4208
▁empire	-11.421
▁modification	-11.421
▁PL	-11.421
▁screw	-11.421
▁conference	-11.4211
▁Jim	-11.4211
mini	-11.4212
▁kilo	-11.4212
▁Scott	-11.4215
Mar	-11.4218
▁revealed	-11.4218
▁regulatory	-11.422
▁Beta	-11.422
▁alert	-11.422
▁immigrant	-11.4221
▁dramatic	-11.4222
▁Secretary	-11.4222
▁luck	-11.4223
▁feedback	-11.4224
INE	-11.4225
▁Used	-11.4226
▁minority	-11.4231
▁heavier	-11.4232
▁feces	-11.4232
uda	-11.4233
▁ruled	-11.4236
▁Dun	-11.4237
▁intervention	-11.4242
▁coated	-11.4246
▁1984	-11.4249
plex	-11.4252
▁McC	-11.4254
▁immuno	-11.4254
▁bred	-11.4256
▁Scandinavian	-11.4258
▁Spa	-11.4262
▁acceptable	-11.4264
▁chapter	-11.4266
▁sympathetic	-11.4266
UP	-11.4266
▁Person	-11.4268
▁47	-11.4269
▁originating	-11.4271
▁rum	-11.4274
▁demonstrate	-11.4274
▁Career	-11.4276
▁fissure	-11.4277
▁$900	-11.4278
▁committed	-11.4278
▁consultant	-11.4279
▁prescribe	-11.4282
/20	-11.4283
-11	-11.4286
▁virtual	-11.4287
▁Tuesday	-11.4288
▁recognition	-11.4288
▁worst	-11.4288
▁Discover	-11.4289
▁prize	-11.4291
▁Fall	-11.4293
▁Cool	-11.4295
▁darker	-11.4298
▁0.1	-11.4298
30,000	-11.4298
▁spoil	-11.4301
-$5	-11.4301
▁collar	-11.4302
connect	-11.4302
lene	-11.4307
gran	-11.4311
ECT	-11.4311
plasm	-11.4311
▁autosomal	-11.4311
iana	-11.4311
▁symbolic	-11.4311
▁Expert	-11.4312
▁loin	-11.4313
aged	-11.4319
▁Later	-11.4319
byte	-11.4322
▁entertainment	-11.4322
▁felony	-11.4322
▁deoxyribose	-11.4328
▁Finally	-11.4329
mut	-11.4329
Li	-11.4333
▁blockage	-11.4333
▁lap	-11.4336
Latin	-11.4337
▁guaranteed	-11.4337
HI	-11.4338
▁attending	-11.4344
▁paralegal	-11.4345
▁Iraq	-11.4345
▁edition	-11.4345
▁buck	-11.4346
ception	-11.4347
▁odd	-11.4348
▁journal	-11.435
▁Neo	-11.4355
molecule	-11.4359
change	-11.4361
▁preference	-11.4361
▁ranch	-11.4361
ogenesis	-11.4363
▁tenderness	-11.4365
▁generator	-11.437
▁specify	-11.4372
brown	-11.4374
▁Egg	-11.4376
▁clutch	-11.4379
▁answered	-11.4379
▁paralysis	-11.438
rub	-11.4383
▁retailer	-11.4385
▁Kal	-11.4385
▁Close	-11.4386
▁ruler	-11.4389
▁burned	-11.4389
▁participant	-11.4391
producing	-11.4394
▁thereby	-11.4397
ometric	-11.4403
IB	-11.4404
service	-11.4407
▁lien	-11.4407
▁identifying	-11.4409
▁canned	-11.441
▁ribosome	-11.4411
▁wouldn	-11.4413
▁150436	-11.4414
▁Fruit	-11.4414
▁financing	-11.4414
▁temple	-11.4416
▁clotting	-11.4417
▁weighing	-11.4417
▁athlete	-11.4424
build	-11.4424
▁Immigration	-11.4425
▁intellectual	-11.4425
▁Case	-11.4426
▁supervision	-11.4426
▁myelin	-11.4427
▁tendency	-11.4428
▁controller	-11.4428
▁Week	-11.4432
▁PT	-11.4436
▁territories	-11.4437
▁vacuole	-11.4437
▁untreated	-11.4437
▁Twitter	-11.4437
▁Obama	-11.4437
▁manifest	-11.4438
pocket	-11.444
▁antagonist	-11.444
UD	-11.444
▁$68	-11.4442
▁chef	-11.4443
▁5,000	-11.4447
▁celery	-11.4448
▁Quin	-11.4448
▁interpretation	-11.445
▁sending	-11.4452
▁designation	-11.4454
▁buried	-11.446
▁Taking	-11.4463
▁Hor	-11.4468
operative	-11.447
▁Province	-11.4471
▁significance	-11.4471
▁activation	-11.4471
ALL	-11.4472
▁killer	-11.4474
claim	-11.4476
▁Gre	-11.4477
▁killing	-11.4481
▁Burn	-11.4483
▁Flower	-11.4483
▁Diamond	-11.4483
ello	-11.4484
▁stew	-11.4489
▁rotor	-11.4489
▁$54	-11.4497
lau	-11.4499
▁feldspar	-11.4506
▁irritate	-11.4506
▁chopped	-11.4506
▁crushed	-11.4508
▁Granite	-11.4508
▁enrollment	-11.4508
▁scheduled	-11.4508
▁presentation	-11.4509
-$8	-11.451
▁pic	-11.451
▁appraisal	-11.4517
▁accommodation	-11.4517
▁abilities	-11.4517
cele	-11.452
▁authorized	-11.4523
▁considerable	-11.4525
lope	-11.4526
▁accountant	-11.4528
▁possibility	-11.4529
▁reflux	-11.4529
▁parameter	-11.453
▁subtract	-11.4531
ivers	-11.4533
ML	-11.4536
ən	-11.4538
▁Versailles	-11.454
▁experiencing	-11.454
▁fusion	-11.4543
▁Lev	-11.4547
▁acquisition	-11.4552
▁migraine	-11.4552
▁investors	-11.4553
▁dual	-11.4555
▁float	-11.4555
▁53	-11.4561
▁integral	-11.4564
▁failed	-11.4565
growth	-11.4568
▁happened	-11.4568
▁Wage	-11.4571
▁flea	-11.4571
▁fortified	-11.4576
▁topical	-11.4577
wy	-11.4579
▁cabinet	-11.4579
▁suspended	-11.4582
▁Costa	-11.4586
▁Vancouver	-11.4587
▁$69	-11.4587
▁Iowa	-11.4587
▁subunits	-11.4588
Figure	-11.4591
▁backup	-11.4592
▁indeed	-11.4593
BP	-11.4595
rent	-11.4597
TT	-11.4597
▁mom	-11.4597
▁stimuli	-11.4598
▁Gran	-11.4601
/1	-11.4601
▁sprinkle	-11.4603
▁everywhere	-11.4603
▁quiet	-11.4604
national	-11.4606
rthr	-11.4607
safe	-11.4608
ident	-11.4609
quot	-11.4609
▁Combine	-11.4611
lton	-11.4619
▁hurricane	-11.4622
▁Swiss	-11.4622
▁NC	-11.4622
▁Rib	-11.4627
fort	-11.4629
poly	-11.463
ante	-11.4633
▁victory	-11.4634
▁compiled	-11.4634
▁urination	-11.4634
▁menopause	-11.4637
core	-11.4637
▁$110	-11.4638
▁Path	-11.464
nine	-11.4641
▁hazard	-11.4644
▁invasion	-11.4645
▁Thi	-11.4647
Po	-11.4648
▁1/3	-11.465
▁CON	-11.4652
olar	-11.4653
▁apparent	-11.4656
▁swallowing	-11.4657
▁Thursday	-11.4657
▁deciliter	-11.4657
▁lyric	-11.4657
▁bordered	-11.4658
▁surprise	-11.466
▁HE	-11.4663
▁broiler	-11.4666
▁nautical	-11.4669
▁gauge	-11.4669
▁Single	-11.4671
▁totally	-11.4672
▁Gang	-11.4674
▁kittens	-11.4676
oxide	-11.4676
▁frequencies	-11.468
▁$59	-11.4681
▁transparent	-11.4681
▁Bengal	-11.4681
▁Nar	-11.4689
NSAID	-11.4689
▁aroma	-11.469
▁Cast	-11.4692
▁mistaken	-11.4692
▁abscess	-11.4692
▁replicate	-11.4692
▁coined	-11.4692
▁Media	-11.4693
▁Hair	-11.4695
▁instructor	-11.4697
▁SO	-11.4702
▁distal	-11.4703
▁embedded	-11.4704
▁glycolysis	-11.4704
▁negotiate	-11.4704
▁activated	-11.4705
▁ribose	-11.4707
▁bou	-11.4709
▁EX	-11.471
hea	-11.4711
rage	-11.4711
▁toast	-11.4712
▁electrode	-11.4712
gel	-11.4718
▁invertebrates	-11.4718
lux	-11.4723
iya	-11.4724
▁slower	-11.4725
▁complement	-11.4726
▁descendant	-11.4726
▁thanks	-11.4727
▁protecting	-11.4727
▁drift	-11.4728
▁Drain	-11.4728
▁pupil	-11.4731
▁appliances	-11.4731
▁albumin	-11.4732
▁oct	-11.4732
▁beets	-11.4732
atus	-11.4732
walk	-11.4736
▁overlap	-11.4738
▁Approximately	-11.4739
▁cortisol	-11.4739
▁cushion	-11.4739
▁Insulin	-11.474
dging	-11.4752
▁germination	-11.4752
▁tolerate	-11.4755
▁Joint	-11.4756
▁harvested	-11.4758
▁masses	-11.4759
▁Effects	-11.476
▁bugs	-11.4761
wl	-11.4763
▁investigation	-11.4763
▁witness	-11.4763
8°	-11.4763
▁crowd	-11.4763
▁admitted	-11.4764
▁breeder	-11.4765
▁angina	-11.4765
▁warming	-11.4775
▁unwanted	-11.4775
▁Alzheimer	-11.4775
▁Basically	-11.4778
phase	-11.4778
▁roasted	-11.478
formation	-11.4781
scription	-11.4781
▁nitrogenous	-11.4781
Lo	-11.4783
▁Giant	-11.4783
▁wiki	-11.4785
▁improving	-11.4787
▁Sweet	-11.4787
▁Movement	-11.4789
▁$8,000	-11.479
▁$35,000	-11.4792
▁Raw	-11.4793
cine	-11.48
fen	-11.48
▁stack	-11.4802
▁groom	-11.4802
▁bow	-11.481
▁glacier	-11.4811
▁inhabitants	-11.4811
titude	-11.4812
neur	-11.4817
▁tele	-11.482
-$100	-11.4821
▁behaviour	-11.4823
▁fraud	-11.4823
▁Pur	-11.4824
close	-11.4824
▁Loa	-11.4829
▁filtration	-11.4829
▁miscarriage	-11.4834
▁misdemeanor	-11.4834
▁lenses	-11.4836
▁Chlor	-11.4836
blast	-11.4838
220	-11.4838
▁Popular	-11.4844
▁surround	-11.4845
1.3	-11.4846
▁landlord	-11.4846
▁sclerosis	-11.4846
▁Policy	-11.4846
▁Reference	-11.4849
pack	-11.4853
▁renewable	-11.4853
▁forecast	-11.4859
▁Maria	-11.4859
Th	-11.4859
▁acquire	-11.4862
▁possession	-11.4863
▁Members	-11.4865
glyco	-11.4866
▁adhesive	-11.487
▁Electrical	-11.4873
dog	-11.4875
▁Hypo	-11.4876
ACT	-11.4877
▁Broad	-11.4878
Bo	-11.488
▁painted	-11.4881
PL	-11.4882
▁remedy	-11.4882
child	-11.4882
dder	-11.4889
▁(3)	-11.4891
▁Century	-11.4894
▁residue	-11.4894
▁vibration	-11.4894
▁degenerative	-11.4896
▁reactive	-11.4897
▁q	-11.4899
▁conception	-11.49
▁worsen	-11.4904
▁Aboriginal	-11.4906
▁Orlando	-11.4906
▁Speed	-11.4907
psych	-11.4909
▁Talk	-11.4909
▁lactic	-11.4911
▁Kan	-11.4914
▁$61	-11.4914
▁Staff	-11.4915
myo	-11.4919
▁musician	-11.4919
▁stretches	-11.4919
▁Streptococcus	-11.4919
BT	-11.492
▁tied	-11.4921
atum	-11.4923
▁codon	-11.4925
▁Classic	-11.4928
▁trainer	-11.493
▁Custom	-11.493
▁parsley	-11.4931
pathy	-11.4931
living	-11.4931
▁talent	-11.4931
▁concentrate	-11.4934
▁cod	-11.4934
▁diabetic	-11.4943
▁Bird	-11.4946
▁marketed	-11.4949
“	-11.495
▁Bla	-11.4952
▁1919	-11.4952
▁smoked	-11.4954
▁versatile	-11.4955
▁plumber	-11.4956
▁Known	-11.4957
RY	-11.4958
mbi	-11.4959
▁lib	-11.4962
script	-11.4963
▁nano	-11.4965
▁Revenue	-11.4967
▁comprising	-11.4967
▁VI	-11.4967
▁developmental	-11.4967
dale	-11.497
▁Titan	-11.497
▁candy	-11.4971
▁shouldn	-11.4973
▁Jay	-11.4974
▁restrictions	-11.4978
▁reservoir	-11.4979
▁unpleasant	-11.4979
▁dramatically	-11.498
▁forget	-11.4981
▁Stephen	-11.4981
▁persist	-11.4982
▁slang	-11.4984
▁$200,000	-11.499
▁singular	-11.4991
▁tingling	-11.4991
color	-11.4992
▁beetle	-11.4993
▁gal	-11.4994
▁colonial	-11.4996
▁1900	-11.4998
▁1974	-11.4998
dimensional	-11.5001
▁Understanding	-11.5001
▁bamboo	-11.5003
▁osteoporosis	-11.5003
▁Record	-11.5008
▁1983	-11.501
▁1986	-11.501
▁enroll	-11.5012
▁qualifications	-11.5012
▁Southwest	-11.5024
Mi	-11.5025
▁lettuce	-11.5027
▁nickel	-11.5027
▁casual	-11.5028
▁cheek	-11.5028
peri	-11.5028
▁agonist	-11.5029
▁visceral	-11.503
▁rolling	-11.5032
phospho	-11.5033
pain	-11.5033
mous	-11.5034
oriented	-11.5034
▁Rocky	-11.5035
ITE	-11.5038
▁guidance	-11.504
▁rabies	-11.504
▁kernel	-11.504
▁Canyon	-11.504
▁Block	-11.504
ract	-11.504
▁fascia	-11.5042
700	-11.5045
▁locate	-11.5045
▁sticky	-11.505
▁dendrite	-11.5052
▁sciatic	-11.5052
▁tolerance	-11.5052
▁modify	-11.5052
cel	-11.5057
erie	-11.5061
▁citizenship	-11.5065
▁featured	-11.5066
▁HD	-11.5067
▁whisk	-11.507
▁leftover	-11.5072
|	-11.5072
▁Therapist	-11.5076
▁pertussis	-11.5076
▁Golgi	-11.5076
▁accent	-11.5077
fine	-11.5081
effective	-11.5085
▁consistently	-11.5086
▁pylori	-11.5088
▁foliage	-11.5088
▁Daily	-11.5089
▁increasingly	-11.509
IVE	-11.509
▁stopped	-11.5093
rise	-11.5099
▁ADH	-11.51
▁struggle	-11.5101
▁Capital	-11.5101
▁Pure	-11.5102
▁Include	-11.5102
▁Active	-11.5104
▁Minor	-11.5104
▁payroll	-11.5107
HR	-11.5109
▁$750	-11.5109
▁67	-11.511
▁friction	-11.5113
▁Organic	-11.5114
NET	-11.5118
average	-11.5119
▁brisket	-11.5125
▁fulfill	-11.5126
▁extracellular	-11.5126
▁Police	-11.5126
itic	-11.5131
▁sickness	-11.5131
▁Butter	-11.5132
layer	-11.5133
▁convenience	-11.5138
▁strategies	-11.5138
▁uranium	-11.5138
▁violent	-11.5138
▁eBay	-11.5138
▁essay	-11.5138
▁Famous	-11.5138
▁delta	-11.514
two	-11.5143
▁mileage	-11.5145
hip	-11.5145
▁Eat	-11.5145
▁Advanced	-11.5147
Na	-11.5148
▁swell	-11.5149
▁merchant	-11.515
▁Toronto	-11.515
▁modest	-11.5151
▁Acute	-11.5152
▁Var	-11.5152
▁uric	-11.5153
▁Kha	-11.5155
pect	-11.5155
▁penis	-11.5158
▁prone	-11.5159
▁nutritionist	-11.516
▁Environmental	-11.516
▁heritage	-11.5162
▁veneer	-11.5162
▁daycare	-11.5163
▁Pork	-11.5164
▁evolutionary	-11.5165
▁strange	-11.5167
▁Peri	-11.5173
▁Compensation	-11.5175
▁clearance	-11.5175
▁resume	-11.5175
▁fame	-11.5177
▁Beef	-11.5181
FE	-11.5181
▁Urine	-11.5183
normal	-11.5184
▁marking	-11.5185
▁Jr	-11.5187
oF	-11.5188
▁drip	-11.5188
!!!	-11.5189
▁Kra	-11.519
▁losing	-11.5192
▁Box	-11.5194
▁restrict	-11.5198
▁Height	-11.52
▁caught	-11.52
▁reset	-11.52
▁approaches	-11.5207
▁Technical	-11.5212
▁entities	-11.5212
▁clove	-11.5214
▁95%	-11.5217
▁attaches	-11.5217
▁220	-11.5218
▁suck	-11.522
▁wrinkle	-11.5224
▁yarn	-11.5224
▁globe	-11.5224
▁Adding	-11.5225
▁thickest	-11.5225
uh	-11.5228
▁1971	-11.523
▁$67	-11.5232
atio	-11.5235
▁lined	-11.5236
▁alligator	-11.5237
▁cousin	-11.5237
▁overweight	-11.5238
plus	-11.5241
▁loosely	-11.5241
▁bran	-11.5243
▁Jefferson	-11.5249
Do	-11.5253
▁planned	-11.5254
igan	-11.5255
▁impulse	-11.5257
▁Bun	-11.5258
receptor	-11.5258
▁suspect	-11.526
cad	-11.5261
▁dermis	-11.5261
▁troops	-11.5262
▁taught	-11.5262
▁hub	-11.5265
▁setup	-11.5271
new	-11.5274
▁diminutive	-11.5274
▁decompose	-11.5274
▁Boil	-11.5278
▁Yet	-11.5281
▁Date	-11.5284
▁fought	-11.5287
▁Channel	-11.5287
▁Gla	-11.5291
▁Cup	-11.5298
▁burial	-11.53
▁Northwest	-11.5302
fold	-11.5303
▁retention	-11.5307
chon	-11.5309
▁visiting	-11.5309
▁upward	-11.531
▁Inflammation	-11.5311
▁Document	-11.5311
▁bracket	-11.5311
▁descent	-11.5314
fire	-11.5314
▁Lau	-11.5314
oscope	-11.5315
▁weathering	-11.5322
▁Sel	-11.5323
▁Minimum	-11.5324
▁southeastern	-11.5325
only	-11.5332
olite	-11.5333
▁nap	-11.5335
▁Employment	-11.5336
▁homeostasis	-11.5336
▁turmeric	-11.5336
▁ovary	-11.5336
spice	-11.5338
▁Seven	-11.5338
▁Text	-11.534
fast	-11.5347
plural	-11.5347
▁blast	-11.5347
▁collectively	-11.5349
▁striated	-11.5349
▁Band	-11.535
▁detection	-11.5352
▁submitted	-11.5352
▁loved	-11.5355
▁Syria	-11.5355
▁Root	-11.536
▁$62	-11.536
paying	-11.536
▁apparatus	-11.5362
▁beneficiary	-11.5362
▁legislative	-11.5362
▁1.2	-11.5363
▁fetal	-11.5364
blo	-11.5364
▁Driver	-11.5365
▁charter	-11.5367
▁Fox	-11.5371
▁fry	-11.5371
▁lat	-11.5374
▁accuracy	-11.5374
either	-11.5376
▁Ram	-11.5376
▁dressing	-11.5378
▁layout	-11.5379
▁presidential	-11.5379
▁programme	-11.5382
▁blocking	-11.5382
▁ok	-11.5383
family	-11.5384
▁uncertain	-11.5387
▁Square	-11.5387
half	-11.5387
▁Dead	-11.5388
▁builder	-11.5388
atom	-11.5388
▁fox	-11.5395
▁sweating	-11.5395
▁Panel	-11.5396
brain	-11.5403
▁brine	-11.5408
▁Lin	-11.5409
▁melted	-11.541
idium	-11.541
▁UTI	-11.5411
opia	-11.5412
▁Arkansas	-11.5412
▁Surgeon	-11.5412
▁absent	-11.5412
▁whip	-11.5413
▁PRO	-11.5419
▁chrom	-11.5422
▁luxury	-11.5425
▁carotid	-11.5425
▁voting	-11.5425
▁storing	-11.5425
▁fireplace	-11.5426
▁spasm	-11.5427
▁platelet	-11.5429
▁Max	-11.543
lith	-11.5435
▁sunflower	-11.5439
▁approx	-11.5443
▁CostHelper	-11.545
▁Private	-11.545
▁biceps	-11.545
▁ZIP	-11.5452
▁Production	-11.5453
oxid	-11.5456
▁Rest	-11.5457
▁posted	-11.5462
▁banking	-11.5463
▁flies	-11.5463
▁Sports	-11.5464
▁swamp	-11.5464
▁Maine	-11.5465
▁$72	-11.5468
▁Alberta	-11.5472
▁Bon	-11.5472
▁brass	-11.5474
▁keratin	-11.5476
▁Tell	-11.5479
▁CPA	-11.548
▁saved	-11.5486
▁Aid	-11.5487
▁cervix	-11.5488
▁chemotherapy	-11.5488
▁franc	-11.5489
guard	-11.5492
▁trailer	-11.5492
▁Lyn	-11.5494
▁Around	-11.5495
▁Winter	-11.5496
▁Fever	-11.5497
▁Centre	-11.5497
▁cataract	-11.5501
▁compliance	-11.5501
▁promotion	-11.5502
far	-11.5504
ré	-11.5505
▁Author	-11.5507
root	-11.5509
▁Submit	-11.5511
dynamic	-11.5512
tec	-11.5513
▁personnel	-11.5513
▁Hieroglyphic	-11.5514
▁bicarbonate	-11.5514
▁identifies	-11.5514
▁bureau	-11.5514
▁buffer	-11.5514
NF	-11.5515
▁compost	-11.5516
▁paired	-11.5517
▁deadly	-11.5517
nip	-11.5519
▁biopsy	-11.5519
▁Team	-11.5521
therapy	-11.5526
▁Construction	-11.5527
▁timber	-11.5527
▁ratified	-11.5528
▁describing	-11.5528
▁chord	-11.553
▁straw	-11.5532
▁Vice	-11.5538
▁Employer	-11.5539
▁Skeletal	-11.5539
▁Entry	-11.554
▁alkali	-11.5541
▁Justice	-11.5543
derma	-11.5544
▁Marketing	-11.5549
hawk	-11.555
▁acetylcholine	-11.5552
▁discrimination	-11.5552
▁glaze	-11.5553
▁Franklin	-11.5553
▁pouch	-11.5555
wash	-11.5555
generation	-11.5562
enzyme	-11.5564
▁Amsterdam	-11.5565
▁emphasis	-11.5565
▁whenever	-11.5565
▁Conference	-11.5566
▁dining	-11.5567
▁Limit	-11.5568
If	-11.5569
▁attain	-11.5571
▁Cent	-11.5571
▁1982	-11.5572
▁lute	-11.5572
▁Phone	-11.5574
center	-11.5574
▁Mad	-11.5574
8.5	-11.5577
▁Ethiopia	-11.5578
▁arterial	-11.5579
▁colder	-11.5581
▁PV	-11.5581
▁NP	-11.5582
▁Student	-11.5582
stead	-11.5583
▁$12,000	-11.5585
▁1965	-11.5588
▁3%	-11.559
▁1.0	-11.5591
▁populated	-11.5592
▁summit	-11.5592
▁backward	-11.5599
acetyl	-11.56
away	-11.56
▁attitude	-11.5604
▁premier	-11.5604
▁larvae	-11.561
▁browned	-11.5613
▁Rhode	-11.5618
▁Kai	-11.5621
▁burst	-11.5622
▁assumed	-11.5622
▁alarm	-11.5623
▁exemption	-11.5625
▁administer	-11.5629
continent	-11.5629
▁Employee	-11.5629
▁tundra	-11.5629
▁welcome	-11.5629
▁dna	-11.5637
▁Cran	-11.5638
▁Declaration	-11.5642
▁basil	-11.5643
▁hives	-11.5643
▁Philip	-11.5643
owned	-11.5643
▁slave	-11.5644
encies	-11.5645
▁Room	-11.5649
▁abnormally	-11.5649
▁Tower	-11.5652
▁farming	-11.5654
▁Snow	-11.5654
icillin	-11.5655
▁Biblical	-11.5655
▁constellation	-11.5655
▁execute	-11.5655
▁Orange	-11.5662
aro	-11.5662
degree	-11.5663
▁extinct	-11.5664
▁$58	-11.5666
▁Jane	-11.5667
▁ultimate	-11.5668
GB	-11.5668
▁workplace	-11.5668
▁lipoprotein	-11.5668
▁worship	-11.5668
▁spicy	-11.5668
▁monoxide	-11.5669
▁winning	-11.567
▁Similarly	-11.5672
▁limitations	-11.5673
▁accessible	-11.5674
chem	-11.5676
▁Fund	-11.5679
▁Nuclear	-11.5681
▁eligibility	-11.5681
▁equilibrium	-11.5681
▁hardy	-11.5681
▁neuropathy	-11.5682
gard	-11.5682
ipped	-11.5691
▁queen	-11.5694
▁Architect	-11.5694
▁Wednesday	-11.5694
▁occupied	-11.5694
▁finishing	-11.57
▁freely	-11.5704
▁sar	-11.5706
▁Together	-11.5707
▁catalyst	-11.5707
▁detergent	-11.5707
▁stimulant	-11.5707
▁combining	-11.5707
▁brittle	-11.5708
▁disturbance	-11.5708
▁transit	-11.5709
▁Death	-11.5714
▁bore	-11.5714
▁precede	-11.5718
▁blind	-11.5719
Ra	-11.5719
natural	-11.572
▁creative	-11.5722
▁broil	-11.5724
wear	-11.5725
▁$95	-11.5727
▁Tile	-11.573
▁induce	-11.5733
▁Heritage	-11.5733
▁Creek	-11.5734
▁refuse	-11.5734
▁incubate	-11.5738
▁alongside	-11.5741
▁$7,000	-11.5744
▁Hemoglobin	-11.5746
▁tetanus	-11.5746
▁orbital	-11.5747
note	-11.5749
OM	-11.575
▁Twi	-11.5751
pyr	-11.5751
▁categorized	-11.5752
▁crossing	-11.5752
▁Highway	-11.5754
cutaneous	-11.5758
▁inherit	-11.5758
▁ultraviolet	-11.576
▁afternoon	-11.576
GMO	-11.5771
▁abundance	-11.5773
▁bleach	-11.5773
▁stereo	-11.5773
▁solely	-11.5776
▁unlikely	-11.5776
-$200	-11.5777
▁Wash	-11.578
▁Venezuela	-11.5786
▁defrost	-11.5786
▁Characteristics	-11.5786
▁sym	-11.5791
▁Series	-11.5794
▁Kids	-11.5797
▁Pharmacy	-11.5799
▁haploid	-11.5799
▁Bee	-11.5799
▁3-5	-11.5799
▁doctorate	-11.58
▁elementary	-11.5803
lter	-11.5804
▁verify	-11.581
▁Ice	-11.5811
▁gradient	-11.5812
▁gastro	-11.5813
▁Pine	-11.5818
▁Mala	-11.5824
wikipedia	-11.5825
▁stump	-11.5825
▁incorporate	-11.5831
▁Mand	-11.5831
▁Commonwealth	-11.5838
▁uterine	-11.5838
▁dietitian	-11.5838
▁meteor	-11.5839
rare	-11.5839
▁Tur	-11.584
▁unemployment	-11.584
phan	-11.5842
▁Clinic	-11.5843
▁rim	-11.5845
▁wake	-11.5846
▁noticed	-11.5848
760	-11.5848
▁chimney	-11.5852
▁dolphin	-11.5852
▁grease	-11.5852
▁expiration	-11.5853
▁Passport	-11.5853
▁generous	-11.5855
block	-11.5856
▁operational	-11.5856
▁Starch	-11.5859
hang	-11.586
▁True	-11.5865
▁Medicaid	-11.5865
chen	-11.5866
jan	-11.5867
▁deposition	-11.5868
▁Letter	-11.587
▁1963	-11.5871
▁pose	-11.5874
lingual	-11.5874
▁Thor	-11.5876
▁Joe	-11.5878
▁minimize	-11.5878
▁Still	-11.5879
▁Hence	-11.5879
closure	-11.5879
▁ventral	-11.588
health	-11.588
▁wipe	-11.5882
▁connector	-11.5885
▁Drive	-11.5885
▁1969	-11.5886
▁BCE	-11.5886
0.5	-11.5886
▁tune	-11.5887
neu	-11.5889
▁Kennedy	-11.5891
▁corrosion	-11.5891
▁dialysis	-11.5892
▁packaged	-11.5893
▁evil	-11.5897
ridge	-11.5898
▁Estate	-11.5899
▁Guatemala	-11.5905
▁sphere	-11.5905
▁migrate	-11.5905
▁microbes	-11.5905
▁Surname	-11.5906
▁injected	-11.5906
▁contributed	-11.5915
▁scholar	-11.5917
esophageal	-11.5918
fill	-11.5919
▁anatomical	-11.5919
heim	-11.5921
▁sting	-11.5921
▁efficiently	-11.5925
▁chiefly	-11.5928
▁pores	-11.5928
stitu	-11.5929
▁Email	-11.5931
▁circum	-11.5931
▁Pregnancy	-11.5931
excluding	-11.5931
▁solute	-11.5931
▁sweetener	-11.5932
▁Should	-11.5932
cross	-11.5932
▁commitment	-11.5934
prop	-11.594
▁qualifying	-11.594
▁Semi	-11.5942
greg	-11.5943
unit	-11.5943
▁genotype	-11.5945
▁optimum	-11.5945
▁resonance	-11.5945
▁defining	-11.5945
▁Comm	-11.5947
▁arche	-11.5948
▁Wolf	-11.5951
▁shi	-11.5952
▁Song	-11.5953
▁emphasize	-11.5958
▁triphosphate	-11.5959
▁Until	-11.5961
facing	-11.5962
culus	-11.5964
seed	-11.5964
▁Kenya	-11.5964
▁adenosine	-11.5971
▁contemporary	-11.5971
▁laxative	-11.5971
▁collaborat	-11.5971
▁Economic	-11.5971
▁jam	-11.5972
▁Soul	-11.5977
▁sliced	-11.5978
▁sunny	-11.5979
▁shoe	-11.598
although	-11.5981
▁val	-11.5987
▁Nov	-11.5999
mari	-11.6001
sodium	-11.6001
▁basalt	-11.6003
▁Pad	-11.6003
▁Recent	-11.6009
▁Kat	-11.601
▁ventilation	-11.6012
▁freight	-11.6012
▁museum	-11.6012
▁Quebec	-11.6012
▁aquarium	-11.6012
▁donation	-11.6013
▁distant	-11.6014
▁Dys	-11.6016
text	-11.602
▁expenditure	-11.6025
▁Near	-11.6028
▁frog	-11.6028
posed	-11.6028
▁chop	-11.603
verb	-11.6034
▁collective	-11.6034
▁toxicity	-11.6036
will	-11.6038
▁Mitochondria	-11.6038
▁accessories	-11.6038
▁nourish	-11.6039
thorax	-11.6039
!!	-11.604
▁enforcement	-11.6041
Br	-11.6042
MENT	-11.6042
largest	-11.6044
▁jury	-11.6046
break	-11.6048
New	-11.605
▁Roger	-11.6052
▁longitude	-11.6052
▁dementia	-11.6052
▁morphine	-11.6052
▁impression	-11.6052
▁Besides	-11.6052
▁permanently	-11.6053
▁Geography	-11.6053
▁labour	-11.6054
▁creamy	-11.6055
▁Popularity	-11.6055
quartile	-11.6056
zel	-11.6057
▁Norse	-11.6058
▁RO	-11.6059
▁LI	-11.6059
standing	-11.6061
▁Sahara	-11.6061
▁mosquitoes	-11.6062
▁mitochondrial	-11.6064
▁glomerulus	-11.6065
▁imagine	-11.6065
boiled	-11.6068
60,000	-11.6068
▁creature	-11.6069
▁professionally	-11.6076
iosis	-11.6077
▁dryer	-11.6079
pli	-11.6079
▁matches	-11.6084
▁celebrate	-11.6085
tailed	-11.6088
▁statistical	-11.6088
▁Sri	-11.6089
NE	-11.609
▁Fig	-11.609
▁dilute	-11.6093
▁capita	-11.6096
▁PhD	-11.6098
▁detox	-11.6098
store	-11.6101
nick	-11.6102
▁boneless	-11.6102
▁seam	-11.6103
▁Nearly	-11.6106
▁compromise	-11.6106
▁ethics	-11.6106
▁incurred	-11.6106
▁rhyme	-11.6106
▁rocky	-11.6107
▁mitral	-11.6108
four	-11.6108
ACE	-11.611
▁oversee	-11.6112
▁simpler	-11.6113
▁outstanding	-11.6114
▁$63	-11.6114
▁highway	-11.6115
present	-11.6118
▁dinosaur	-11.612
▁Daniel	-11.612
▁Nepal	-11.6121
▁bug	-11.6124
▁theatre	-11.6128
risk	-11.6129
▁Given	-11.6129
▁Enzyme	-11.6133
▁succeed	-11.6133
▁taller	-11.6134
▁Visa	-11.6137
▁pile	-11.6138
▁20,000	-11.6139
▁Jose	-11.614
kle	-11.6141
▁guest	-11.6145
▁Ortho	-11.6145
▁wiring	-11.6148
▁gamma	-11.6149
▁360	-11.6159
▁Jamaica	-11.616
▁continuing	-11.616
▁credential	-11.616
▁Senior	-11.616
▁companion	-11.616
▁iPod	-11.616
▁noodles	-11.616
▁stirring	-11.6162
▁Spread	-11.6162
▁cardio	-11.6162
berries	-11.6166
▁zebra	-11.6174
▁exceptional	-11.6175
resident	-11.6178
▁Difference	-11.6188
▁Practice	-11.6188
▁appreciate	-11.6188
▁pineapple	-11.6188
▁Translation	-11.6189
▁counted	-11.6194
▁occurrence	-11.6194
▁teens	-11.6196
▁localized	-11.6198
cub	-11.6199
▁Psycho	-11.6201
▁glaucoma	-11.6201
▁Resort	-11.6201
▁Denver	-11.6203
▁formally	-11.6209
▁Liver	-11.6214
▁vertigo	-11.6215
▁murder	-11.6215
▁scrub	-11.6216
▁Front	-11.6216
▁spike	-11.6216
human	-11.6217
▁hardness	-11.6218
oxygen	-11.6225
▁Stu	-11.6226
when	-11.6226
▁permission	-11.6228
▁plaster	-11.6231
▁Need	-11.6231
thyroid	-11.6232
flat	-11.6234
2.1	-11.6239
▁absolutely	-11.6242
▁Marie	-11.6243
▁metro	-11.6246
▁Tropical	-11.6249
▁spontaneous	-11.6256
▁Toyota	-11.6256
▁remedies	-11.6256
▁Actually	-11.6256
▁leukocyte	-11.6256
▁veteran	-11.6256
▁polypeptide	-11.6257
bank	-11.626
▁combat	-11.6263
centric	-11.6265
oplasm	-11.6269
bian	-11.627
▁Fan	-11.6273
NY	-11.6278
located	-11.6278
▁penta	-11.6278
▁calculating	-11.6284
smith	-11.6284
keeper	-11.6286
watt	-11.6291
▁Cass	-11.6291
▁barb	-11.6295
▁Jordan	-11.6298
▁Calculate	-11.6298
▁headquarters	-11.6298
thyroxine	-11.6298
glycer	-11.6299
▁Panama	-11.6299
▁glasses	-11.6301
▁RF	-11.6301
▁runner	-11.6302
▁bypass	-11.6303
▁insured	-11.6305
▁Glass	-11.6306
▁regulating	-11.6312
▁$64	-11.6312
chloro	-11.6312
▁angel	-11.6314
▁warrant	-11.6314
▁gang	-11.6317
▁proto	-11.6319
▁Serve	-11.6322
▁Ok	-11.6325
▁Certificate	-11.6325
▁oyster	-11.6325
▁merely	-11.6326
▁primitive	-11.6326
▁reflected	-11.6328
▁Homo	-11.6329
......	-11.6329
steroidal	-11.6331
▁compress	-11.6332
▁Loan	-11.6333
▁1988	-11.6334
▁Write	-11.6334
▁consultation	-11.6335
▁decimal	-11.6339
▁nicotine	-11.6339
▁piercing	-11.6339
▁Spirit	-11.6339
▁Variant	-11.6339
▁rotator	-11.6341
central	-11.6343
▁boxes	-11.6353
very	-11.6353
▁satisfy	-11.6353
▁slate	-11.6354
▁expertise	-11.6354
▁folate	-11.6354
▁quoted	-11.6362
▁fragment	-11.6364
▁Rabbit	-11.6367
▁mandatory	-11.6367
▁autism	-11.6368
▁unsaturated	-11.6369
▁clan	-11.6369
▁ram	-11.637
▁Lean	-11.6372
▁4.5	-11.6372
▁1985	-11.6378
▁subsidiary	-11.6381
▁Cardiac	-11.6381
▁Hindi	-11.6381
▁symmetry	-11.6381
▁impaired	-11.6382
▁enrolled	-11.6384
▁chewing	-11.6385
▁synthesize	-11.6388
▁SIM	-11.639
▁upright	-11.639
▁propel	-11.6394
▁deoxygenated	-11.6395
▁kangaroo	-11.6395
▁Sikh	-11.6396
▁peer	-11.6399
▁alteration	-11.64
▁daytime	-11.6405
▁smoker	-11.6406
▁mushroom	-11.6407
▁systematic	-11.6408
▁Database	-11.6409
▁Mile	-11.641
▁filtered	-11.641
▁losses	-11.6413
▁GM	-11.6414
▁Never	-11.6414
▁juvenile	-11.6423
▁Tokyo	-11.6423
▁Finland	-11.6423
▁Studio	-11.6423
▁shirt	-11.6424
▁Minister	-11.6425
▁lucky	-11.6426
▁dump	-11.6426
permeable	-11.643
▁PSA	-11.6433
ulus	-11.6434
▁Journal	-11.6437
▁Protocol	-11.6437
▁Vegetable	-11.6437
▁congestion	-11.6437
▁subunit	-11.6437
▁Dietary	-11.644
payment	-11.644
▁drag	-11.6441
▁tsp	-11.6446
▁Agreement	-11.6451
▁elaborate	-11.6451
▁neutrophil	-11.6451
html	-11.6451
▁Medi	-11.6451
▁assignment	-11.6451
▁lichen	-11.6451
▁Divide	-11.6451
▁paragraph	-11.6452
ike	-11.6454
wiki	-11.646
vac	-11.6461
boy	-11.6464
6°	-11.6464
▁Madagascar	-11.6465
▁phenomena	-11.6465
▁Study	-11.6466
▁mall	-11.6468
▁bun	-11.6469
▁reign	-11.647
▁bass	-11.647
soft	-11.6474
▁ortho	-11.6476
▁poverty	-11.6479
▁infrared	-11.6479
▁Photosynthesis	-11.6479
▁diesel	-11.6479
▁hydrolysis	-11.648
para	-11.6482
▁lymphoma	-11.6485
▁1975	-11.6485
▁assumption	-11.6493
▁Collagen	-11.6493
▁Regulation	-11.6494
▁meiosis	-11.6495
▁petition	-11.6496
chel	-11.6496
▁directory	-11.6498
▁versa	-11.65
▁emerged	-11.6502
▁watching	-11.6504
▁abstract	-11.6507
▁insomnia	-11.6507
▁attributed	-11.6507
▁historically	-11.6508
lang	-11.6509
marin	-11.651
▁stuck	-11.651
▁Million	-11.6512
▁investigate	-11.6521
▁aqueous	-11.6522
▁pm	-11.6522
▁Cir	-11.6524
ART	-11.653
▁documentation	-11.6533
▁receiver	-11.6535
▁Calculator	-11.6535
▁violence	-11.6535
▁clerk	-11.6536
yard	-11.6536
▁1968	-11.6543
ONE	-11.6544
▁rush	-11.6547
▁existed	-11.6548
▁Pediatric	-11.655
▁Rheumatoid	-11.655
▁shrink	-11.655
▁sovereign	-11.655
▁machinery	-11.6551
▁saint	-11.6551
ffle	-11.6554
flor	-11.6558
▁vest	-11.6559
▁Working	-11.6563
▁borrower	-11.6564
▁hydrochloride	-11.6564
▁charcoal	-11.6564
180	-11.6564
▁Software	-11.6564
▁attributes	-11.6565
▁posture	-11.6565
calorie	-11.6569
▁textile	-11.6569
pac	-11.6576
▁Pole	-11.6578
▁cerebellum	-11.6578
▁bloating	-11.6578
▁violation	-11.6578
▁Present	-11.6579
▁ladder	-11.6579
avo	-11.6583
▁Poll	-11.6585
▁municipal	-11.659
▁cli	-11.6592
▁Library	-11.6592
▁mitosis	-11.6592
▁predator	-11.6598
▁organize	-11.6598
▁fir	-11.6602
bug	-11.6602
▁enormous	-11.6607
▁manganese	-11.6607
▁wolves	-11.6607
▁Abstract	-11.6607
▁dew	-11.6608
▁funding	-11.6608
▁stimulating	-11.6609
chia	-11.661
▁engage	-11.6611
ouch	-11.6614
▁offset	-11.6621
▁arthropod	-11.6621
▁conclusion	-11.6621
▁mumps	-11.6621
▁livestock	-11.6625
▁1987	-11.6627
▁helium	-11.6628
▁liquor	-11.6635
▁notably	-11.6635
▁Oxford	-11.6636
▁Branch	-11.6637
COM	-11.6649
▁Pyramid	-11.6649
▁securities	-11.6649
escence	-11.665
▁radial	-11.6651
▁Risk	-11.6653
eau	-11.6661
▁HVAC	-11.6664
▁cactus	-11.6664
▁Screen	-11.6664
▁preserved	-11.6664
hydroxy	-11.6665
cort	-11.6666
▁Rica	-11.6666
▁heartburn	-11.6669
around	-11.6671
▁Meta	-11.6671
▁insertion	-11.6674
▁Tools	-11.6681
▁Steel	-11.6681
▁grid	-11.6682
▁retainer	-11.6682
2014	-11.6686
nell	-11.6688
▁4-6	-11.669
▁liner	-11.6691
▁Arthritis	-11.6692
▁imbalance	-11.6692
▁slender	-11.6693
▁Honey	-11.6695
▁reception	-11.6698
density	-11.6699
bridge	-11.6703
▁Command	-11.6704
▁Confederate	-11.6707
▁platinum	-11.6707
▁Problem	-11.6707
▁affair	-11.6707
▁classify	-11.6707
▁Initial	-11.6709
-$150	-11.6711
saccharide	-11.6715
▁vulnerable	-11.6721
▁1.1	-11.6724
▁skilled	-11.6725
who	-11.6725
▁shortening	-11.6726
▁Exam	-11.6728
▁biologist	-11.6731
▁Oral	-11.6732
▁protozoa	-11.6732
▁Polar	-11.6732
▁scent	-11.6733
▁fluctuate	-11.6736
▁physiology	-11.6736
▁impairment	-11.6738
▁sacred	-11.6739
▁joining	-11.674
▁pra	-11.674
▁wise	-11.6741
▁touching	-11.6742
season	-11.6742
kWh	-11.6743
▁kitten	-11.6744
▁passion	-11.6747
▁desirable	-11.675
▁varicella	-11.675
▁Hunt	-11.6752
▁Cash	-11.6753
▁pumpkin	-11.6754
▁Rico	-11.6755
▁Rosa	-11.6756
▁Half	-11.6765
▁motorcycle	-11.6766
▁$76	-11.6767
▁attendance	-11.6768
▁correction	-11.677
gla	-11.6772
▁1972	-11.6772
blue	-11.6773
▁grace	-11.6773
▁silicate	-11.6775
▁Kong	-11.6777
▁Delaware	-11.6779
▁copied	-11.6779
▁tubular	-11.678
market	-11.678
▁copyright	-11.6781
▁Mall	-11.6783
PER	-11.6784
▁narrowing	-11.6792
▁mailing	-11.6794
▁tennis	-11.6794
▁corpuscle	-11.6794
▁whi	-11.6795
mediated	-11.6795
▁contest	-11.6797
▁Flat	-11.6804
▁voter	-11.6805
▁Secret	-11.6807
▁Perhaps	-11.6808
▁socket	-11.6808
▁Bad	-11.6809
▁trapped	-11.6809
▁trench	-11.6809
▁settlers	-11.681
▁sustained	-11.6815
▁1973	-11.6817
▁sought	-11.6818
▁differential	-11.6821
▁conversation	-11.6823
▁opaque	-11.6823
▁theoretical	-11.6823
▁colorful	-11.6824
▁thawed	-11.6826
▁strongest	-11.6827
▁Lady	-11.6832
▁mathematics	-11.6837
▁metabolize	-11.6837
▁Tesla	-11.6838
loo	-11.6842
aq	-11.6843
▁CAD	-11.6844
▁Alternatively	-11.6845
▁Round	-11.6848
▁Dip	-11.6849
▁Columbus	-11.6852
▁Hollywood	-11.6852
▁loud	-11.6856
▁encompasses	-11.6859
▁101	-11.6859
▁critic	-11.6864
▁FOR	-11.6866
▁obtaining	-11.687
▁static	-11.6877
▁deficit	-11.6881
▁diuretic	-11.6881
▁railroad	-11.6881
▁disabled	-11.6881
▁licence	-11.6882
▁Electronic	-11.6882
▁Everest	-11.6883
▁formulation	-11.6884
▁shellfish	-11.6884
▁Charge	-11.6885
turn	-11.6886
sugar	-11.6892
▁$99	-11.6893
▁accelerate	-11.6896
▁accompany	-11.6896
▁google	-11.6896
▁buttock	-11.6896
▁synonymous	-11.6898
▁commit	-11.6907
▁Left	-11.6907
▁ruin	-11.6909
▁creatine	-11.691
▁monument	-11.691
▁arbitra	-11.6911
▁ultra	-11.6911
▁Thy	-11.6913
▁Grade	-11.6914
held	-11.6914
▁425	-11.6915
nomic	-11.6917
▁lit	-11.6924
▁Certification	-11.6925
▁influential	-11.6925
▁resembling	-11.6925
▁Antonio	-11.6925
▁Quartz	-11.6925
▁crisis	-11.6925
integr	-11.6925
▁Mayo	-11.6938
▁Vehicle	-11.694
▁Idaho	-11.694
▁incidence	-11.694
▁kinetic	-11.694
▁Arteries	-11.694
▁Football	-11.694
coccus	-11.694
▁recreational	-11.6941
▁flagella	-11.6944
pie	-11.6946
Greek	-11.6948
good	-11.6949
▁shiny	-11.6954
▁Princip	-11.6955
▁pesticide	-11.6955
▁disaster	-11.6955
▁liberal	-11.6955
▁relay	-11.6955
▁dull	-11.6957
Qu	-11.6959
typically	-11.696
▁byproduct	-11.6963
speaking	-11.6964
▁mango	-11.6965
▁implementation	-11.6967
▁appendix	-11.6969
▁benzodiazepine	-11.6969
▁catalyze	-11.6969
▁reservation	-11.6969
▁indicating	-11.6969
rach	-11.697
▁taxi	-11.697
▁railway	-11.6971
▁minister	-11.6973
▁compatible	-11.6973
▁Medium	-11.6975
▁$13,000	-11.6975
▁suited	-11.6982
▁premature	-11.6984
▁sliding	-11.6984
fiber	-11.6985
wich	-11.6986
plica	-11.6986
▁cheapest	-11.6988
▁distribute	-11.6995
▁remodeling	-11.6996
▁Eco	-11.6997
▁culinary	-11.6999
▁ornamental	-11.6999
▁volunteer	-11.6999
▁4.0	-11.6999
▁picked	-11.7
▁congress	-11.7001
hav	-11.7002
▁Lock	-11.7003
▁similarities	-11.7003
▁lady	-11.7004
arrow	-11.7005
▁semiconductor	-11.7014
▁cocoa	-11.7014
▁Adjust	-11.7015
▁embryonic	-11.7015
▁transcript	-11.702
▁goose	-11.7021
▁fillet	-11.7023
▁Mobile	-11.7023
▁afferent	-11.7029
▁cider	-11.7029
▁radiology	-11.7032
▁productivity	-11.7033
▁mimic	-11.7033
spire	-11.7034
▁batch	-11.7035
▁accurately	-11.7037
between	-11.7038
▁initiate	-11.7038
▁Carb	-11.7039
▁ceremony	-11.7044
▁pioneer	-11.7044
▁exciting	-11.7044
▁dome	-11.7044
▁foster	-11.7047
▁mala	-11.7051
▁Lind	-11.7051
▁Ball	-11.7053
▁Arabian	-11.7056
▁sneezing	-11.7058
▁Recommend	-11.7058
▁groove	-11.7058
▁tonsils	-11.7059
▁Solution	-11.7059
əl	-11.7059
▁clue	-11.706
lacto	-11.7064
▁$71	-11.7066
bearing	-11.7068
cultural	-11.7068
▁Andes	-11.7068
▁moderately	-11.707
▁xylem	-11.7073
▁raccoon	-11.7073
▁whey	-11.7073
720	-11.7073
▁climbing	-11.7075
▁Hay	-11.7075
–19	-11.7075
▁conviction	-11.7076
large	-11.7085
▁deli	-11.7085
▁chemist	-11.7086
▁Double	-11.7088
▁Territory	-11.7088
▁equate	-11.7089
izz	-11.709
▁discard	-11.7096
▁Bonus	-11.7101
▁occupy	-11.7103
▁sinuses	-11.7105
▁proportional	-11.7108
wig	-11.7108
▁$130	-11.7109
▁extensively	-11.7109
▁1957	-11.711
▁thickening	-11.7112
▁placement	-11.7115
cken	-11.7115
▁Mode	-11.7116
nova	-11.7117
▁Mechanical	-11.7118
▁oblique	-11.7118
shell	-11.712
iah	-11.7121
▁Soil	-11.7125
▁Jen	-11.7125
gloss	-11.7127
▁#2	-11.7128
▁optional	-11.713
▁2-4	-11.7131
▁Practitioner	-11.7133
▁conservation	-11.7133
▁catheter	-11.7133
▁Player	-11.7134
▁orchid	-11.7135
▁winner	-11.7136
▁stitch	-11.7136
▁Higher	-11.7139
▁Specific	-11.7139
▁Albert	-11.714
▁lend	-11.714
▁downtown	-11.7144
▁Barr	-11.7145
▁Psychology	-11.7149
▁Friend	-11.715
▁Prevention	-11.715
▁Eric	-11.7155
▁sear	-11.7156
▁bare	-11.7156
▁geological	-11.7159
lian	-11.716
found	-11.7162
▁neuromuscular	-11.7163
▁squeeze	-11.7163
▁tutorial	-11.7163
▁niacin	-11.7163
▁essence	-11.7163
▁Furthermore	-11.7164
▁Display	-11.7164
▁Senator	-11.7165
▁accu	-11.7173
writer	-11.7175
▁Bangladesh	-11.7179
▁acetaminophen	-11.7179
▁jaundice	-11.7179
▁Plastic	-11.7179
▁Saturn	-11.7179
▁Duck	-11.7181
▁outermost	-11.7181
▁Payment	-11.7182
▁artistic	-11.7183
▁Rice	-11.7184
▁Expression	-11.7185
▁lesion	-11.7185
▁perceived	-11.7189
▁Train	-11.719
strict	-11.7192
▁rip	-11.7192
▁coding	-11.7192
▁lithosphere	-11.7194
acid	-11.7194
▁southwestern	-11.7195
▁AIDS	-11.7195
what	-11.7197
affe	-11.7198
▁conduction	-11.7199
▁Biology	-11.72
▁seventh	-11.72
▁conscious	-11.7207
RIC	-11.7208
▁Emperor	-11.7209
▁accommodate	-11.7209
▁porcelain	-11.7209
▁psychiatrist	-11.7209
azine	-11.721
▁regulator	-11.721
UI	-11.7212
▁paycheck	-11.7213
▁editor	-11.7216
▁rob	-11.7221
▁Proclamation	-11.7224
▁infrastructure	-11.7224
▁scapula	-11.7224
▁degeneration	-11.7228
▁shin	-11.7228
▁Notice	-11.7231
▁hanging	-11.7232
▁Dakota	-11.7239
▁nutritious	-11.7239
▁kale	-11.7239
▁advisor	-11.7239
▁architectural	-11.7239
▁Third	-11.724
▁Hydrogen	-11.724
tonic	-11.7243
agh	-11.7247
▁Bac	-11.7248
▁husk	-11.7249
▁floating	-11.7251
leaf	-11.7252
▁cyclone	-11.7254
▁snails	-11.7254
▁incision	-11.7254
bab	-11.7255
▁Specialist	-11.7255
3.3	-11.7255
▁bronchitis	-11.7255
▁saute	-11.7258
▁Zoo	-11.7261
▁Holy	-11.7262
▁hexa	-11.7262
▁announce	-11.7264
▁Lou	-11.7266
▁reinforce	-11.7266
▁Pick	-11.7266
▁asteroid	-11.7269
▁Consumer	-11.7269
▁Analysis	-11.727
▁Industrial	-11.727
▁BSN	-11.727
▁concert	-11.727
▁deepest	-11.7279
emic	-11.7279
energy	-11.728
process	-11.7282
start	-11.7284
▁apprentice	-11.7285
▁palsy	-11.7285
▁brood	-11.7285
▁Arthur	-11.7285
▁seaweed	-11.7287
▁Repair	-11.7288
▁10-15	-11.7289
px	-11.7299
oplasty	-11.73
▁Quality	-11.73
▁Croatia	-11.73
▁interrupt	-11.73
check	-11.7303
▁Convert	-11.7305
function	-11.731
pass	-11.7312
▁Bile	-11.7313
▁thyme	-11.7315
▁$80,000	-11.7315
▁capacitor	-11.7315
▁collision	-11.7315
▁URL	-11.7315
▁femur	-11.7316
▁Route	-11.7317
▁definite	-11.7317
▁Lion	-11.7318
▁prune	-11.7319
immun	-11.732
▁colitis	-11.732
[...]
