<unk>	0
<s>	0
</s>	0
.	-2.55845
▁and	-3.22606
,	-3.29328
▁the	-3.29507
▁to	-3.56807
▁a	-3.66374
▁was	-3.86047
▁it	-4.45391
▁"	-4.49644
▁She	-4.57578
▁her	-4.59433
▁He	-4.60661
▁They	-4.63286
'	-4.63899
▁said	-4.82612
▁The	-4.82726
▁he	-4.85408
▁in	-4.95726
▁she	-4.97736
▁with	-4.98582
▁Lily	-5.03962
s	-5.04862
▁his	-5.05922
▁day	-5.11676
▁that	-5.13285
▁of	-5.13717
▁you	-5.22437
▁had	-5.23118
▁they	-5.2368
▁so	-5.25202
▁on	-5.28599
▁for	-5.40904
▁very	-5.4734
!	-5.48157
▁time	-5.50308
▁little	-5.51468
▁there	-5.5251
▁mom	-5.54418
▁happy	-5.55919
▁It	-5.56646
▁is	-5.58561
▁saw	-5.60874
▁big	-5.61067
▁not	-5.61376
."	-5.61876
t	-5.61953
▁I	-5.68944
!"	-5.69929
▁but	-5.70876
▁were	-5.72411
▁play	-5.73211
Once	-5.73876
▁One	-5.75774
▁	-5.85393
▁are	-5.85503
▁wanted	-5.8566
▁girl	-5.86432
▁upon	-5.86573
▁him	-5.88146
▁them	-5.90657
▁their	-5.91467
▁have	-5.96992
▁be	-5.97671
▁up	-5.97906
▁Ben	-6.04065
▁went	-6.04399
▁Tom	-6.05036
▁go	-6.05724
?"	-6.08608
▁can	-6.09474
▁But	-6.09819
▁at	-6.09944
▁friends	-6.11005
▁all	-6.13944
▁back	-6.20629
▁Timmy	-6.22149
▁smiled	-6.22644
▁named	-6.22955
▁too	-6.23569
▁loved	-6.25283
▁asked	-6.26787
▁like	-6.2747
▁felt	-6.29034
▁could	-6.29105
▁fun	-6.29428
▁looked	-6.29739
▁around	-6.30416
▁out	-6.33574
▁boy	-6.37069
€	-6.38548
▁help	-6.41009
▁would	-6.43067
▁see	-6.43079
▁did	-6.43356
▁what	-6.43742
▁some	-6.44046
▁make	-6.44215
,"	-6.45117
▁away	-6.46561
▁started	-6.48055
▁says	-6.48128
▁ran	-6.48513
▁You	-6.48863
▁want	-6.50468
▁made	-6.51013
▁something	-6.51435
▁together	-6.51501
▁park	-6.53158
▁do	-6.56047
▁from	-6.56712
▁sad	-6.5786
I	-6.57936
▁put	-6.58284
▁new	-6.58605
▁home	-6.59936
▁again	-6.62673
▁found	-6.62769
▁then	-6.6319
▁bird	-6.63473
▁Tim	-6.65296
▁when	-6.65677
▁playing	-6.66954
▁other	-6.68084
▁who	-6.68566
▁things	-6.70541
▁liked	-6.71933
▁we	-6.73685
▁got	-6.73941
▁excited	-6.74312
▁friend	-6.75295
▁decided	-6.75381
▁came	-6.76085
▁one	-6.78087
▁scared	-6.78436
▁man	-6.78718
▁Mom	-6.79477
▁down	-6.80218
▁an	-6.82014
▁dog	-6.84215
▁find	-6.85147
▁get	-6.86393
▁your	-6.86431
▁will	-6.86486
â	-6.86855
▁didn	-6.87708
▁Sam	-6.8781
▁Max	-6.879
▁me	-6.87968
▁always	-6.88592
▁took	-6.8871
▁about	-6.88744
▁mommy	-6.89668
▁toys	-6.90774
▁good	-6.91084
▁outside	-6.91637
▁tree	-6.9178
▁as	-6.93131
▁more	-6.9322
▁my	-6.94627
▁Anna	-6.95218
▁thought	-6.96256
▁take	-6.98189
▁old	-6.98221
▁special	-6.98953
▁knew	-7.00138
▁When	-7.00152
▁dad	-7.02014
▁Her	-7.02611
▁car	-7.02618
▁toy	-7.03374
▁how	-7.05669
▁sorry	-7.08082
▁know	-7.08169
▁much	-7.08498
▁So	-7.09126
▁house	-7.10356
▁Jack	-7.11865
▁look	-7.13795
▁into	-7.1398
▁tried	-7.14078
▁inside	-7.14427
▁told	-7.15133
▁this	-7.15558
m	-7.15688
▁if	-7.1585
▁couldn	-7.16361
▁gave	-7.16595
▁heard	-7.16755
▁never	-7.17429
▁ball	-7.17511
▁each	-7.17892
▁water	-7.18629
▁Suddenly	-7.19156
▁We	-7.1955
▁over	-7.19889
▁room	-7.20515
▁played	-7.20984
▁proud	-7.21537
▁Then	-7.22007
▁just	-7.22169
▁hugged	-7.2235
▁Mia	-7.24462
▁From	-7.24707
▁no	-7.24718
▁because	-7.25288
▁His	-7.25756
▁many	-7.2681
▁nice	-7.3059
▁box	-7.30654
▁bear	-7.31289
▁And	-7.32861
▁until	-7.33741
▁small	-7.34592
▁learned	-7.35137
▁Sara	-7.35161
▁better	-7.36187
▁â	-7.36259
▁best	-7.38585
▁don	-7.38907
▁eat	-7.4208
▁careful	-7.42524
▁off	-7.42738
▁garden	-7.42873
▁thanked	-7.43622
▁laughed	-7.44045
▁sky	-7.44231
Yes	-7.45965
▁cat	-7.46224
▁by	-7.46633
▁say	-7.46747
▁come	-7.47216
▁even	-7.4743
▁end	-7.48327
▁beautiful	-7.48592
▁long	-7.48961
▁love	-7.48986
▁lots	-7.49279
▁still	-7.49853
▁animals	-7.50147
▁kind	-7.51438
?	-7.53323
▁way	-7.53881
▁both	-7.53945
▁safe	-7.55425
▁let	-7.55935
▁two	-7.56686
▁feel	-7.56855
▁lived	-7.57936
▁As	-7.58426
▁walked	-7.59298
▁Lucy	-7.60142
You	-7.6032
▁hard	-7.60757
▁angry	-7.61105
▁family	-7.61139
It	-7.61702
▁people	-7.6173
▁flew	-7.61792
▁sun	-7.6194
▁called	-7.62048
▁loud	-7.62346
▁red	-7.62357
▁hurt	-7.627
▁try	-7.62761
▁every	-7.63121
▁soon	-7.63319
▁brave	-7.63401
▁kept	-7.64012
▁After	-7.64328
▁share	-7.64861
▁bad	-7.65457
▁going	-7.6669
▁or	-7.67461
▁pretty	-7.68195
▁Mommy	-7.68512
▁noise	-7.69351
▁opened	-7.7017
▁shiny	-7.70285
▁before	-7.70957
▁should	-7.71475
Let	-7.72173
▁door	-7.72762
▁explore	-7.73009
▁run	-7.7308
▁ground	-7.73183
▁also	-7.73251
▁fast	-7.7418
▁idea	-7.74337
▁lot	-7.74476
▁hug	-7.74813
▁now	-7.75082
▁nodded	-7.75971
▁its	-7.76182
▁feeling	-7.76269
No	-7.76332
▁picked	-7.77361
▁walking	-7.77782
▁keep	-7.77822
▁next	-7.77829
▁John	-7.78836
▁has	-7.79228
▁Every	-7.79298
▁while	-7.79455
What	-7.80807
▁smile	-7.81033
▁need	-7.81663
▁being	-7.82681
▁give	-7.83319
▁show	-7.8333
▁looking	-7.85115
▁food	-7.85271
▁eyes	-7.85988
▁stopped	-7.86254
▁Spot	-7.88477
That	-7.88902
▁great	-7.88942
▁hand	-7.89463
▁ever	-7.89633
▁Sue	-7.89894
▁forest	-7.89962
▁clean	-7.89968
▁noticed	-7.89978
Thank	-7.90048
▁flowers	-7.90197
▁hands	-7.90613
-	-7.90783
▁Bob	-7.91968
▁important	-7.92208
▁slide	-7.92444
▁fish	-7.93005
▁replied	-7.9326
▁showed	-7.94117
▁okay	-7.94555
Lily	-7.94812
▁listen	-7.95581
▁Sarah	-7.95809
▁right	-7.96374
▁watched	-7.96494
▁after	-7.96495
▁truck	-7.96626
▁everyone	-7.97356
▁voice	-7.97571
▁been	-7.97952
▁stay	-7.98083
▁quickly	-7.98628
▁rabbit	-7.98798
▁blue	-7.98954
▁where	-7.99075
▁goodbye	-8.00223
▁bed	-8.00581
▁different	-8.00625
▁face	-8.00823
▁place	-8.01009
▁became	-8.01274
We	-8.01295
▁walk	-8.01353
▁Jane	-8.01377
▁sure	-8.0144
re	-8.01719
▁work	-8.02193
▁high	-8.02378
▁closer	-8.02572
▁head	-8.04465
▁fly	-8.04991
▁store	-8.05115
Look	-8.05438
▁our	-8.0575
▁curious	-8.05824
▁three	-8.05935
▁cake	-8.06781
▁anymore	-8.07681
▁first	-8.08035
▁mean	-8.08256
▁here	-8.08931
▁Dad	-8.09513
▁use	-8.09874
▁grabbed	-8.10246
▁doll	-8.10278
▁strong	-8.1029
▁only	-8.11338
▁boat	-8.11686
▁fell	-8.11717
▁wait	-8.11813
▁us	-8.12025
One	-8.12073
▁night	-8.12189
▁Everyone	-8.12565
▁adventure	-8.12711
▁jumped	-8.12788
▁warm	-8.13124
▁kitchen	-8.13354
▁glad	-8.13619
▁helped	-8.14187
▁That	-8.14208
Can	-8.14427
▁does	-8.14893
▁birds	-8.15694
▁happened	-8.16074
▁cry	-8.16916
▁bunny	-8.17015
▁shouted	-8.17103
▁Joe	-8.17235
▁dress	-8.17476
▁book	-8.17681
▁story	-8.17686
▁Let	-8.17751
▁reached	-8.18417
▁realized	-8.18559
▁yummy	-8.18595
▁grass	-8.19598
▁having	-8.19711
▁mum	-8.1989
▁bright	-8.20077
▁favorite	-8.20481
▁rock	-8.20497
▁game	-8.20543
▁sees	-8.20811
▁Lila	-8.20817
▁bit	-8.20986
▁ate	-8.21262
▁open	-8.21621
▁thing	-8.2173
▁am	-8.22325
▁really	-8.22379
▁through	-8.22744
▁ready	-8.2279
▁began	-8.23069
▁world	-8.23518
▁learn	-8.23554
▁lady	-8.23712
▁Can	-8.23891
▁watch	-8.23938
▁himself	-8.24163
▁done	-8.24758
▁making	-8.25151
▁coming	-8.25421
▁pond	-8.25694
▁kids	-8.26048
▁looks	-8.2607
▁waved	-8.26127
▁stop	-8.26176
▁why	-8.26309
▁tired	-8.26851
▁near	-8.27067
▁mouse	-8.27178
▁name	-8.27281
▁than	-8.27387
▁flower	-8.27724
▁Tommy	-8.28114
▁Do	-8.28301
▁worry	-8.28491
▁funny	-8.2908
▁used	-8.29425
▁seen	-8.29582
▁cars	-8.30016
▁parents	-8.30234
▁top	-8.30246
▁under	-8.30319
▁another	-8.30337
Wow	-8.30417
▁Sally	-8.30503
▁hopped	-8.30648
▁cried	-8.3074
▁doing	-8.31107
▁surprise	-8.31169
▁blocks	-8.31294
▁care	-8.32662
▁green	-8.32667
▁touch	-8.32751
▁think	-8.32801
▁soft	-8.33228
▁catch	-8.33871
▁lesson	-8.34216
▁brother	-8.34219
▁floor	-8.34477
".	-8.34704
▁running	-8.34804
▁worked	-8.3483
▁full	-8.34832
▁years	-8.35306
▁behind	-8.35578
▁paper	-8.35604
▁pick	-8.35699
▁wished	-8.3581
▁A	-8.35824
▁yellow	-8.36189
▁-	-8.36383
▁happily	-8.36618
▁trees	-8.37445
▁Daisy	-8.37759
▁surprised	-8.37813
▁butterfly	-8.38298
▁carefully	-8.38666
TMs	-8.38932
▁Benny	-8.38997
Don	-8.39026
▁remembered	-8.39051
▁hole	-8.39093
▁lost	-8.39107
▁held	-8.39182
▁ice	-8.39807
▁needed	-8.40493
▁At	-8.40902
▁tell	-8.40976
▁likes	-8.41053
▁cold	-8.41404
▁left	-8.42249
▁cool	-8.42286
▁dark	-8.42467
▁hear	-8.42754
▁picture	-8.42891
▁sat	-8.4291
▁anything	-8.43081
▁enjoyed	-8.43178
▁wrong	-8.43278
Hello	-8.43372
▁buy	-8.43655
▁move	-8.43877
▁Now	-8.43932
▁followed	-8.44166
▁Finally	-8.44171
▁sound	-8.44342
▁children	-8.4476
▁delicious	-8.45314
Tom	-8.45415
▁finished	-8.45667
▁hat	-8.45942
▁friendly	-8.45985
▁herself	-8.46458
▁close	-8.46743
▁please	-8.47479
▁Billy	-8.47796
ll	-8.47799
▁frog	-8.48375
▁arrived	-8.48489
▁window	-8.48832
▁table	-8.48994
▁own	-8.49032
▁else	-8.49035
▁wonderful	-8.49085
▁Amy	-8.49429
▁wind	-8.49671
▁rain	-8.49923
▁baby	-8.49987
▁swing	-8.49991
▁colors	-8.50729
▁broken	-8.51038
▁read	-8.51304
▁able	-8.51315
▁gone	-8.51441
▁climb	-8.52289
▁sweet	-8.52655
▁filled	-8.5271
▁agreed	-8.53133
▁someone	-8.5336
▁stick	-8.53578
▁continued	-8.53884
▁bag	-8.54271
▁tall	-8.54344
▁hill	-8.54403
▁books	-8.54643
▁pink	-8.55313
▁yes	-8.55547
▁There	-8.55585
▁leaves	-8.55955
▁enough	-8.56129
▁This	-8.56148
▁Molly	-8.56164
▁lion	-8.56284
▁any	-8.5668
▁jump	-8.5668
▁morning	-8.5721
▁understand	-8.57364
▁ask	-8.57937
▁finally	-8.58267
▁getting	-8.58479
▁far	-8.58931
▁stayed	-8.59051
▁cookies	-8.59399
▁hot	-8.59427
▁wants	-8.60106
▁laugh	-8.60396
▁beach	-8.605
▁forgot	-8.6061
▁scary	-8.60884
▁hair	-8.60884
▁Maybe	-8.6095
▁few	-8.61032
▁sometimes	-8.61036
▁dinner	-8.61502
▁turned	-8.61571
▁hungry	-8.61604
▁mess	-8.61916
▁grandma	-8.62234
▁fire	-8.62302
▁What	-8.62347
▁mother	-8.62353
▁set	-8.62362
▁trying	-8.63
▁amazing	-8.63101
▁daddy	-8.63116
▁castle	-8.63121
▁climbed	-8.64008
▁pictures	-8.65207
▁white	-8.65418
▁wet	-8.6549
▁listened	-8.65582
▁air	-8.65816
▁squirrel	-8.66263
▁cream	-8.66502
▁moment	-8.6669
▁fix	-8.66809
▁alone	-8.6685
▁talk	-8.67072
▁smiles	-8.67286
▁clothes	-8.67505
▁puppy	-8.67682
▁rest	-8.67782
▁brought	-8.68273
▁others	-8.68308
▁everything	-8.68629
▁light	-8.69166
▁strange	-8.69167
▁makes	-8.69397
▁duck	-8.70174
▁woods	-8.70181
▁pulled	-8.70192
▁tail	-8.70273
▁ride	-8.70415
▁won	-8.70906
▁wasn	-8.71215
▁asks	-8.72135
▁joy	-8.72358
▁leave	-8.72411
Oh	-8.73303
▁might	-8.73521
▁Jill	-8.73549
▁thank	-8.73783
▁fox	-8.73868
▁amazed	-8.74021
▁waited	-8.74263
▁Soon	-8.74388
▁teddy	-8.74426
▁towards	-8.74822
▁hide	-8.7496
▁flying	-8.76534
▁owner	-8.76564
▁silly	-8.77123
▁shared	-8.77181
▁perfect	-8.77474
But	-8.77965
▁living	-8.78108
▁sing	-8.78265
▁In	-8.78371
▁lake	-8.78383
▁promised	-8.78483
▁Daddy	-8.78695
▁moral	-8.78811
▁pretend	-8.7894
▁All	-8.79079
▁runs	-8.79097
▁draw	-8.7935
▁job	-8.79493
This	-8.79621
▁deep	-8.79905
▁thinks	-8.80515
▁wear	-8.80605
▁party	-8.8078
▁race	-8.81019
Maybe	-8.81342
▁money	-8.81409
▁worried	-8.82036
▁sand	-8.82074
▁dance	-8.8243
▁slowly	-8.82566
▁colorful	-8.82656
▁faster	-8.82881
▁Mary	-8.8295
▁pieces	-8.83595
▁broke	-8.83709
Okay	-8.83737
▁such	-8.84154
▁grateful	-8.84164
▁bigger	-8.8437
Mom	-8.84761
▁train	-8.85046
▁monster	-8.85128
▁visit	-8.85224
O	-8.8601
▁candy	-8.86557
▁bike	-8.86905
▁magical	-8.87068
▁sit	-8.87161
▁Mama	-8.87484
▁dangerous	-8.87739
▁side	-8.87893
▁sister	-8.87964
▁across	-8.88243
▁cut	-8.88282
▁farmer	-8.88306
▁everywhere	-8.8849
▁helping	-8.88608
▁music	-8.88692
▁Just	-8.88854
▁join	-8.88885
▁most	-8.88907
▁smart	-8.89163
Mommy	-8.89874
▁dragon	-8.90257
▁sleep	-8.90549
▁words	-8.90776
▁tower	-8.90973
▁spot	-8.91252
▁tight	-8.91262
▁reach	-8.91337
▁met	-8.91339
▁bite	-8.91341
▁stepped	-8.91468
▁river	-8.91495
▁threw	-8.91527
▁heavy	-8.9156
▁field	-8.91718
▁dirty	-8.92075
▁bug	-8.92173
▁same	-8.92215
▁twins	-8.92268
▁crying	-8.92356
▁wall	-8.92717
TMt	-8.92845
▁believe	-8.92882
Sure	-8.92958
▁dolls	-8.93095
▁remember	-8.93097
▁princess	-8.93271
▁wouldn	-8.94067
▁Grandma	-8.94216
▁closed	-8.94392
▁balloon	-8.94637
▁song	-8.94901
Hi	-8.95108
▁stuck	-8.95118
▁start	-8.95429
▁turn	-8.95575
▁quiet	-8.95936
▁bowl	-8.96397
▁school	-8.96491
▁hoped	-8.96565
▁must	-8.9662
▁brown	-8.96691
Why	-8.96731
▁suddenly	-8.96898
▁eating	-8.9756
▁Emma	-8.97748
▁mouth	-8.98027
▁course	-8.98038
▁clapped	-8.98054
▁swim	-8.98204
▁fairy	-8.99093
▁gentle	-8.9933
▁town	-8.99403
▁feels	-9.00009
▁drove	-9.00144
▁black	-9.00151
▁paint	-9.00331
▁Jimmy	-9.00454
▁pushed	-9.00458
▁welcome	-9.00884
▁break	-9.01085
▁animal	-9.01241
▁doctor	-9.01277
▁blanket	-9.01289
▁higher	-9.01348
▁Inside	-9.01448
▁without	-9.0146
▁today	-9.01675
Ben	-9.02248
▁piece	-9.02793
▁swings	-9.02969
▁cheered	-9.03572
▁yard	-9.03607
▁child	-9.03719
▁wings	-9.03936
▁explained	-9.03943
▁longer	-9.03967
▁treasure	-9.04435
▁teacher	-9.04633
The	-9.04684
▁games	-9.05023
▁pet	-9.05179
▁Their	-9.05455
▁late	-9.05604
▁sang	-9.05723
▁sign	-9.06153
Anna	-9.06375
▁along	-9.06661
▁Mum	-9.06708
▁magic	-9.06756
▁build	-9.07093
▁stories	-9.07137
▁shoes	-9.07454
▁turns	-9.07749
▁singing	-9.07873
▁apple	-9.0797
▁noises	-9.08154
▁fence	-9.08565
▁well	-9.08582
▁lonely	-9.08719
▁upset	-9.08774
▁dry	-9.08946
▁hugs	-9.08966
▁adventures	-9.09532
▁mine	-9.09562
▁young	-9.09602
▁wish	-9.09719
▁monkey	-9.09934
ing	-9.09991
▁pocket	-9.10054
▁year	-9.10304
▁shook	-9.10605
▁exploring	-9.10629
▁moved	-9.10786
▁bee	-9.10961
▁nearby	-9.11076
▁jar	-9.1109
▁soup	-9.11309
▁naughty	-9.11368
▁lunch	-9.11518
▁wise	-9.11571
▁fight	-9.11708
▁hold	-9.11922
▁Fluffy	-9.12175
▁stars	-9.12282
▁caught	-9.12434
▁enjoy	-9.12522
▁owl	-9.12575
▁forget	-9.1271
▁On	-9.12785
▁backyard	-9.12968
▁sea	-9.12975
▁seemed	-9.13083
▁chair	-9.13394
▁dropped	-9.13485
▁street	-9.13636
▁heart	-9.13676
▁purple	-9.14157
▁swam	-9.14407
▁orange	-9.14687
▁taking	-9.14849
▁though	-9.14992
▁rocks	-9.15254
▁nap	-9.1535
e	-9.1543
▁star	-9.15769
▁hit	-9.15845
▁Sammy	-9.1586
▁shapes	-9.15976
▁woke	-9.16492
▁bench	-9.16664
▁nose	-9.17253
▁wondered	-9.17345
▁busy	-9.17387
▁tiny	-9.17433
▁real	-9.17563
▁Later	-9.17582
▁daughter	-9.1785
▁sitting	-9.17865
▁kite	-9.17939
▁sounds	-9.18295
▁farm	-9.18297
▁juice	-9.18568
▁mad	-9.18858
▁snow	-9.18906
▁holding	-9.18934
"	-9.18938
▁nothing	-9.19677
▁nest	-9.19895
▁pull	-9.20024
▁arms	-9.20062
▁basket	-9.20091
▁With	-9.20772
▁fit	-9.2091
▁secret	-9.20926
d	-9.21
▁branch	-9.21003
▁key	-9.2115
▁relieved	-9.21245
▁afraid	-9.21464
Do	-9.21874
▁Mr	-9.21893
▁gift	-9.21965
▁forever	-9.22166
▁fall	-9.2223
▁cute	-9.22242
▁elephant	-9.22541
▁bring	-9.22543
▁promise	-9.22945
▁comes	-9.22982
▁bucket	-9.22991
▁Thank	-9.23528
▁huge	-9.23899
▁touched	-9.24007
▁dream	-9.24034
▁Come	-9.24133
▁hello	-9.24313
▁takes	-9.24368
▁birthday	-9.24562
▁sick	-9.25051
▁sunny	-9.25169
▁cheese	-9.25171
▁exciting	-9.25179
Sara	-9.25537
▁onto	-9.25634
▁pot	-9.25717
▁driver	-9.25731
▁round	-9.25791
▁laughing	-9.25826
▁rainbow	-9.25972
▁drink	-9.26546
Of	-9.27142
▁bush	-9.27433
▁bread	-9.28025
▁Jenny	-9.28055
▁cozy	-9.28079
▁bottle	-9.28143
▁swimming	-9.28186
▁treat	-9.28668
▁journey	-9.28669
▁follow	-9.29022
▁instead	-9.29182
▁watching	-9.29447
▁life	-9.29454
▁cave	-9.29466
▁milk	-9.29631
▁plan	-9.29682
▁Emily	-9.29686
▁accidentally	-9.29879
▁sunshine	-9.29959
▁lucky	-9.31003
Hey	-9.31167
▁talked	-9.31195
▁pointed	-9.31474
▁sharp	-9.31673
▁grow	-9.31819
▁bought	-9.32442
▁smiling	-9.32521
▁anyone	-9.32686
▁searched	-9.32754
▁later	-9.32982
▁honey	-9.33544
ed	-9.34096
▁gives	-9.34531
▁apples	-9.34625
▁hope	-9.34659
▁plane	-9.34916
▁woman	-9.35633
▁interesting	-9.35715
▁pile	-9.35881
▁healthy	-9.36076
▁win	-9.36229
▁tasty	-9.36376
▁Jen	-9.36436
▁wide	-9.36585
▁rope	-9.37581
▁crayons	-9.37809
▁ducks	-9.37854
▁free	-9.38153
▁clouds	-9.38299
▁shining	-9.38567
▁clever	-9.38617
▁smelled	-9.38743
▁person	-9.38768
▁front	-9.38791
▁button	-9.38905
▁Jim	-9.39191
œI	-9.39712
▁storm	-9.39721
▁spotted	-9.39788
▁loves	-9.39788
▁snack	-9.39818
▁screamed	-9.40007
▁arm	-9.4039
▁fair	-9.40627
▁mud	-9.40745
▁coat	-9.40807
▁road	-9.40989
▁danced	-9.41027
▁trouble	-9.41061
▁spoon	-9.41497
▁which	-9.41765
▁Jake	-9.41829
▁appeared	-9.41853
▁snake	-9.42121
▁snowman	-9.42403
▁cup	-9.4258
▁patient	-9.43092
▁asleep	-9.43162
▁shop	-9.43285
▁lovely	-9.43514
▁path	-9.43525
▁horse	-9.43776
▁Mittens	-9.43802
▁Together	-9.43843
▁wearing	-9.43937
▁gently	-9.44009
▁bow	-9.44184
▁giant	-9.44273
▁goes	-9.44543
▁whole	-9.44632
▁corner	-9.4508
▁matter	-9.45582
▁answer	-9.45784
▁fruit	-9.45849
▁tries	-9.46373
▁confused	-9.46612
▁places	-9.46969
▁dirt	-9.47085
▁rolled	-9.47124
▁tasted	-9.47207
▁forgive	-9.4728
▁machine	-9.47855
▁phone	-9.48268
▁rude	-9.4844
Come	-9.48547
▁king	-9.48596
▁spent	-9.4864
▁teeth	-9.48762
▁ocean	-9.4919
▁oven	-9.49534
▁cookie	-9.49584
▁wild	-9.49818
▁spider	-9.4988
▁pretended	-9.50105
▁Lisa	-9.50257
▁feet	-9.50491
▁furry	-9.50523
▁picnic	-9.5108
▁problem	-9.51094
▁wave	-9.51357
▁throw	-9.51771
▁last	-9.52039
▁eventually	-9.52073
▁helpful	-9.52379
▁smell	-9.5267
▁zoo	-9.52996
▁talking	-9.53174
▁T	-9.53301
▁drive	-9.53315
▁village	-9.53418
▁tomorrow	-9.53802
▁ladder	-9.53995
▁faces	-9.5407
▁cow	-9.54154
▁write	-9.54346
▁coin	-9.54426
▁Peter	-9.54431
▁happen	-9.5453
▁building	-9.54712
▁slow	-9.55031
▁couch	-9.55053
▁push	-9.5526
▁trip	-9.55383
▁part	-9.55541
▁calm	-9.55642
▁fighting	-9.55787
▁blew	-9.5591
▁chased	-9.5592
▁Sometimes	-9.55967
▁wore	-9.55989
▁call	-9.56181
▁fur	-9.56192
▁knee	-9.56373
Good	-9.56666
▁treats	-9.56711
▁puddle	-9.56832
▁hiding	-9.56911
▁pool	-9.57119
▁grab	-9.57121
▁waiting	-9.57259
▁shy	-9.57329
▁shelf	-9.57635
▁finish	-9.57725
▁bugs	-9.57935
▁whenever	-9.57995
▁mind	-9.58122
▁string	-9.58511
▁taste	-9.58689
▁maybe	-9.58724
▁chocolate	-9.58771
▁cannot	-9.58782
▁Everywhere	-9.59229
▁songs	-9.59238
▁sack	-9.59599
▁lay	-9.5976
▁large	-9.59809
▁selfish	-9.59842
▁letter	-9.59903
▁Teddy	-9.59908
▁stone	-9.60145
▁fixed	-9.60285
▁barked	-9.60462
▁smooth	-9.6048
Tim	-9.60565
▁carrot	-9.6072
▁leaf	-9.6111
▁count	-9.614
▁plant	-9.61501
▁wash	-9.61509
▁spread	-9.61574
▁cloud	-9.62554
▁jungle	-9.62902
▁cloth	-9.62919
▁Please	-9.63046
▁color	-9.63141
▁missed	-9.63264
▁robot	-9.63454
▁forward	-9.63466
▁hid	-9.6372
▁necklace	-9.63825
▁creature	-9.63893
ex	-9.63899
▁peaceful	-9.63952
▁meet	-9.63987
▁landed	-9.6399
▁embarrassed	-9.64101
▁kiss	-9.64158
▁seat	-9.64205
▁jumping	-9.64306
▁neighbor	-9.64523
▁tidy	-9.64552
▁shirt	-9.64898
▁carry	-9.64971
▁land	-9.65384
My	-9.65401
▁sharing	-9.65689
▁tea	-9.65702
▁bus	-9.65852
▁creative	-9.65935
▁teach	-9.66086
▁knocked	-9.66097
▁How	-9.66097
▁Even	-9.66266
▁Whil	-9.66326
▁stood	-9.66399
▁plate	-9.66667
▁bell	-9.66717
▁carrots	-9.66775
▁tightly	-9.66845
Please	-9.67004
▁ashamed	-9.67096
▁hears	-9.67243
▁Little	-9.67263
▁almost	-9.67352
▁sticks	-9.67586
▁gray	-9.67672
▁grew	-9.6771
▁legs	-9.67755
▁whistle	-9.67802
▁empty	-9.67986
▁splash	-9.68383
▁line	-9.68556
▁moon	-9.68562
▁protect	-9.68725
▁Mummy	-9.6878
▁understood	-9.68947
▁meadow	-9.69027
▁carried	-9.69304
▁Johnny	-9.69312
▁meant	-9.69371
▁save	-9.69466
▁honest	-9.69513
▁yelled	-9.69752
▁Don	-9.70015
▁sheep	-9.70156
▁tells	-9.70243
▁Why	-9.70324
▁disappointed	-9.70745
▁hours	-9.70789
▁Alice	-9.71213
▁kitten	-9.71267
▁stand	-9.71362
▁nods	-9.71402
▁bath	-9.71446
▁sparkly	-9.71493
▁breath	-9.71561
▁snacks	-9.71681
▁these	-9.72011
▁sail	-9.72021
▁hospital	-9.72105
▁crab	-9.72855
▁taught	-9.72988
▁hidden	-9.73066
▁generous	-9.73257
▁present	-9.73313
▁bored	-9.73341
▁mountain	-9.73392
▁standing	-9.73468
▁Leo	-9.73498
▁band	-9.73655
▁scarf	-9.7374
▁returned	-9.73816
▁minutes	-9.74034
▁easy	-9.74078
▁bedroom	-9.74127
▁polite	-9.74222
▁knowing	-9.74509
▁cook	-9.74518
▁sighed	-9.74625
▁prince	-9.74721
▁mysterious	-9.74791
▁plants	-9.74943
▁ant	-9.74947
John	-9.74971
▁puzzle	-9.75017
▁wolf	-9.75024
▁waves	-9.75169
▁determined	-9.75544
▁powerful	-9.75613
▁thankful	-9.75642
▁finger	-9.76
▁shore	-9.76152
▁passed	-9.76265
▁sandwich	-9.76308
▁pizza	-9.76356
▁sleepy	-9.76399
▁drew	-9.76455
▁spicy	-9.76637
▁hop	-9.76745
▁bridge	-9.7677
▁frustrated	-9.76774
▁group	-9.76798
▁messy	-9.77007
▁fancy	-9.77021
▁days	-9.77137
Stop	-9.77238
▁gate	-9.77284
▁sour	-9.77482
▁kissed	-9.77796
▁Mark	-9.77833
▁worm	-9.77867
▁closet	-9.78036
▁ship	-9.78038
▁gathered	-9.78222
▁Susie	-9.78266
▁lock	-9.78734
▁poor	-9.78789
▁grumpy	-9.78953
▁yourself	-9.79265
Where	-9.79481
▁answered	-9.79594
▁cries	-9.79768
▁often	-9.79907
▁ring	-9.79947
▁chest	-9.80305
▁block	-9.80321
▁hopping	-9.80562
▁scissors	-9.80728
▁wood	-9.80761
▁tears	-9.8096
▁ugly	-9.81261
▁mummy	-9.81301
Sorry	-9.81576
▁deer	-9.81948
▁caterpillar	-9.81978
▁lit	-9.82128
▁excitement	-9.82225
Are	-9.82285
▁expensive	-9.82409
▁middle	-9.82449
Sam	-9.82461
▁working	-9.82498
▁saved	-9.82526
▁taken	-9.82673
▁ok	-9.82694
▁true	-9.83149
▁vase	-9.83363
▁wagged	-9.83363
▁pleased	-9.83571
▁pig	-9.83576
▁mail	-9.83911
▁leg	-9.83924
▁card	-9.8394
▁boring	-9.84132
▁net	-9.84461
▁mix	-9.84529
▁tie	-9.84572
▁asking	-9.8486
▁shell	-9.84893
▁mistake	-9.85146
▁brush	-9.85465
▁spin	-9.85484
▁cage	-9.85489
▁nervous	-9.85512
▁giggled	-9.85642
▁vegetables	-9.85736
▁rocket	-9.85819
▁roll	-9.86167
▁Go	-9.86291
▁sugar	-9.86292
▁glass	-9.86559
▁comfortable	-9.86589
▁packed	-9.86718
itty	-9.86718
▁especially	-9.8687
▁dancing	-9.8702
▁seek	-9.87145
▁picks	-9.87175
▁Today	-9.87304
▁police	-9.87605
▁O	-9.87888
▁glue	-9.87932
▁pain	-9.87969
▁Eventually	-9.88292
▁medicine	-9.88292
▁lying	-9.88517
▁feed	-9.88523
▁fake	-9.88527
▁Bobby	-9.88771
▁distance	-9.8886
▁sweetie	-9.88984
▁bone	-9.88986
▁fruits	-9.89111
▁bake	-9.89148
▁drawing	-9.8919
▁eggs	-9.89248
▁splashed	-9.89408
▁number	-9.89441
There	-9.89533
▁change	-9.89614
▁crown	-9.89714
▁become	-9.89762
▁moving	-9.89766
▁disappeared	-9.89957
▁smelly	-9.90127
▁lose	-9.9026
▁Some	-9.9086
▁feathers	-9.90948
▁licked	-9.91039
▁calling	-9.91164
▁roar	-9.91372
▁If	-9.91388
▁bathroom	-9.91493
▁playground	-9.91524
▁lazy	-9.91895
▁test	-9.91993
▁elderly	-9.92112
▁mirror	-9.92258
▁body	-9.92267
▁tent	-9.92665
▁wrote	-9.93013
▁nod	-9.93187
▁questions	-9.93355
▁pay	-9.93391
▁walks	-9.93428
▁noisy	-9.93436
▁father	-9.93627
▁tape	-9.93877
▁skipped	-9.93929
▁fluffy	-9.94107
▁Pete	-9.94139
Who	-9.9462
▁gun	-9.94658
▁match	-9.94679
▁respect	-9.94728
▁famous	-9.94946
▁fill	-9.95009
▁ruined	-9.95039
▁queen	-9.9504
▁Mandy	-9.95225
▁rich	-9.95254
▁drank	-9.95371
▁eager	-9.95573
▁incredible	-9.95576
▁Ellie	-9.95683
▁stones	-9.95876
▁juicy	-9.95935
▁covered	-9.96047
▁live	-9.96089
▁pillow	-9.96094
▁sailed	-9.96208
▁decide	-9.96291
▁flag	-9.96358
▁lamp	-9.96628
▁discovered	-9.96858
▁rare	-9.96913
▁realised	-9.96982
▁No	-9.97383
▁weak	-9.97396
ose	-9.97624
▁zoom	-9.977
▁towel	-9.97736
▁branches	-9.98184
▁joke	-9.98197
▁tiger	-9.98244
▁cleaned	-9.98348
▁chicken	-9.98432
▁ones	-9.98462
▁Ella	-9.98475
▁coins	-9.9856
▁measure	-9.98801
▁map	-9.98855
▁balance	-9.98895
▁barn	-9.99041
▁adventurous	-9.99104
▁fine	-9.99137
▁loyal	-9.9921
▁offered	-9.9928
▁eye	-9.99424
▁lifted	-9.99677
▁clear	-9.99781
▁colourful	-9.99806
▁bubbles	-9.99815
▁wheel	-9.99982
▁gets	-10.001
▁clown	-10.0013
Now	-10.0029
▁dig	-10.0029
Help	-10.0046
▁tag	-10.0061
▁cross	-10.0066
▁organized	-10.0069
▁bottom	-10.0071
▁hose	-10.0078
▁happening	-10.0082
▁Bella	-10.0089
▁unique	-10.0094
▁difficult	-10.0112
▁knife	-10.0127
▁neck	-10.0129
▁butter	-10.013
▁shows	-10.0135
▁soap	-10.0144
▁weird	-10.0165
▁pie	-10.017
▁board	-10.0181
▁garage	-10.0191
▁Bobo	-10.0193
▁managed	-10.0199
▁word	-10.0203
▁Blue	-10.0213
▁circle	-10.0238
▁jealous	-10.0286
▁crawled	-10.0292
▁learning	-10.0296
▁wonder	-10.0299
▁chase	-10.0312
▁needs	-10.0313
▁knight	-10.0316
▁berries	-10.0322
▁kindness	-10.0329
▁saying	-10.0333
▁thin	-10.0335
▁island	-10.0346
▁shake	-10.0352
▁once	-10.0353
▁tough	-10.0353
▁figure	-10.0353
▁edge	-10.0362
▁content	-10.0366
▁search	-10.0378
▁mighty	-10.0382
▁bald	-10.0387
▁End	-10.0389
▁pointing	-10.039
▁wand	-10.0391
▁extra	-10.0403
▁dinosaur	-10.0435
▁louder	-10.0435
▁added	-10.0447
▁Fred	-10.0449
▁spun	-10.0455
▁Mrs	-10.0457
▁whale	-10.0457
▁kid	-10.0459
▁lift	-10.0462
▁drum	-10.0466
▁favourite	-10.0468
▁harder	-10.0481
▁already	-10.0486
▁Tweety	-10.0487
▁smoke	-10.0529
▁thick	-10.0544
▁unusual	-10.0545
▁balloons	-10.0547
▁dizzy	-10.055
▁enjoying	-10.0556
▁belonged	-10.06
▁dogs	-10.0613
▁foot	-10.062
▁wrapped	-10.0622
▁impressed	-10.0629
▁cheerful	-10.0645
▁sword	-10.0656
▁giving	-10.0657
▁guitar	-10.068
▁Grandpa	-10.069
▁normal	-10.0691
A	-10.07
▁banana	-10.0709
▁turtle	-10.0722
▁market	-10.0731
Lila	-10.0746
▁balls	-10.0746
▁loudly	-10.0747
▁choose	-10.0759
▁four	-10.0764
▁escape	-10.0767
▁team	-10.0779
▁boxes	-10.0781
▁proudly	-10.079
▁ears	-10.0801
▁yours	-10.0817
▁check	-10.0821
▁pen	-10.0823
▁bossy	-10.0846
▁dreamed	-10.0853
▁against	-10.086
▁invited	-10.0875
▁swan	-10.0885
▁circles	-10.0891
▁painting	-10.0896
▁belong	-10.0914
▁birdie	-10.0915
▁hats	-10.0915
▁trunk	-10.092
▁miss	-10.0925
▁brilliant	-10.093
Well	-10.0941
▁hurts	-10.0945
▁frightened	-10.095
y	-10.0963
▁laughs	-10.0976
▁crayon	-10.0979
▁slipped	-10.0993
▁step	-10.0994
▁safely	-10.0994
▁wake	-10.0995
▁paw	-10.1033
▁valuable	-10.1037
Here	-10.1048
▁log	-10.1054
▁ancient	-10.1059
▁sight	-10.1062
▁breakfast	-10.1065
▁happiness	-10.1067
▁grown	-10.1078
▁shout	-10.1079
▁successful	-10.1084
▁clay	-10.1108
▁buttons	-10.1131
▁shape	-10.1135
▁fridge	-10.1143
▁skin	-10.1146
▁movie	-10.1147
▁Nemo	-10.1153
▁trucks	-10.1189
▁nicely	-10.1195
▁brothers	-10.1208
▁clap	-10.1208
▁space	-10.1213
▁ear	-10.122
▁nosy	-10.1245
▁Lola	-10.126
▁city	-10.1262
▁stubborn	-10.1268
▁borrow	-10.127
▁walls	-10.1271
▁foolish	-10.1272
▁delicate	-10.1289
▁grandpa	-10.1291
▁office	-10.1292
▁wagon	-10.1298
▁collect	-10.1306
▁falls	-10.1309
▁notice	-10.1314
▁fat	-10.1314
▁rough	-10.1326
▁suggested	-10.1338
▁icy	-10.1345
▁kick	-10.1377
▁exclaimed	-10.1395
▁dead	-10.1395
▁dreams	-10.1398
▁wiped	-10.141
▁mixed	-10.1411
▁useful	-10.1429
▁My	-10.1433
▁poured	-10.1437
▁stove	-10.1437
œLet	-10.1442
▁means	-10.1454
œ	-10.1457
▁locked	-10.1466
▁horn	-10.1467
im	-10.1471
▁sounded	-10.1475
▁tools	-10.15
▁shells	-10.1506
▁excitedly	-10.1511
▁explored	-10.1512
▁fierce	-10.1545
▁egg	-10.1551
▁son	-10.1564
▁rose	-10.1594
▁trust	-10.1609
▁goat	-10.1612
▁gold	-10.1623
▁fountain	-10.1629
▁themselves	-10.1667
▁stumbled	-10.1674
▁bushes	-10.1675
▁spoiled	-10.1692
▁showing	-10.1695
▁obedient	-10.1701
▁above	-10.1701
▁smaller	-10.1714
▁lights	-10.1723
▁Ducky	-10.1726
▁witch	-10.1739
▁clock	-10.1741
▁fragile	-10.1764
▁dependable	-10.1781
▁print	-10.1795
▁raced	-10.1797
▁fingers	-10.1808
▁Whenever	-10.1813
▁spinning	-10.1814
▁playful	-10.1814
▁rode	-10.184
▁dough	-10.1842
▁brightly	-10.1852
▁practice	-10.1855
▁act	-10.1877
▁admired	-10.1887
▁enormous	-10.1899
▁built	-10.1903
▁thoughtful	-10.192
▁counted	-10.192
▁kicked	-10.1921
▁jam	-10.1922
▁delighted	-10.1942
▁changed	-10.1942
▁bags	-10.1946
▁aunt	-10.1947
▁shone	-10.1951
Me	-10.1961
▁jog	-10.1969
▁Ann	-10.1982
▁reminded	-10.199
Be	-10.1993
▁cone	-10.2025
▁solve	-10.2052
▁Dave	-10.2056
▁using	-10.2059
▁parrot	-10.2061
▁handed	-10.2061
▁Your	-10.2066
▁whispered	-10.2066
▁bitter	-10.2072
▁chose	-10.2078
▁independent	-10.2088
▁stronger	-10.2099
▁jolly	-10.2108
▁original	-10.2111
▁roof	-10.2111
▁hero	-10.2119
▁sauce	-10.2123
▁pass	-10.2123
▁pan	-10.2131
▁tummy	-10.2133
▁popcorn	-10.2135
▁spend	-10.2135
▁terrible	-10.2142
œYes	-10.2174
▁painted	-10.2176
▁allowed	-10.2188
▁hairy	-10.2208
▁finding	-10.221
▁pencil	-10.2211
▁wrap	-10.2217
▁cleaning	-10.2236
▁Mike	-10.2239
▁scream	-10.2244
▁George	-10.2246
▁spray	-10.2247
▁scare	-10.2255
▁pumpkin	-10.2259
▁unknown	-10.226
▁hammer	-10.2266
▁To	-10.2272
▁joined	-10.2274
▁gasped	-10.2275
▁leaving	-10.228
▁dove	-10.2291
▁bounce	-10.2297
▁bees	-10.2312
▁shark	-10.2317
▁Toby	-10.2318
▁picking	-10.2324
▁dolphin	-10.233
▁kinds	-10.2334
▁metal	-10.2358
▁delight	-10.2379
▁reliable	-10.2395
▁those	-10.2419
▁forth	-10.2434
▁yet	-10.2434
▁cart	-10.2438
▁zip	-10.2453
▁power	-10.2456
▁barber	-10.2457
▁doesn	-10.2458
▁advice	-10.2461
▁pirate	-10.2468
▁beak	-10.2473
▁ow	-10.2477
▁modern	-10.2489
▁thinking	-10.2503
▁create	-10.2507
▁salad	-10.2511
▁sink	-10.2519
▁knows	-10.2542
▁Bill	-10.2546
▁boys	-10.2557
▁week	-10.2567
▁yarn	-10.2572
▁clumsy	-10.2575
▁toast	-10.2579
▁sleeping	-10.258
▁serious	-10.2583
▁searching	-10.26
▁rushed	-10.2601
▁cover	-10.2603
▁wealthy	-10.2604
▁stupid	-10.2609
▁guilty	-10.2616
▁stairs	-10.2617
▁Bear	-10.2625
▁view	-10.2628
▁telling	-10.2628
▁spaghetti	-10.2633
▁camera	-10.2645
▁stream	-10.2659
œWhat	-10.2665
▁goose	-10.2669
▁houses	-10.2677
▁tank	-10.2682
▁boats	-10.271
▁hay	-10.2725
▁holds	-10.2726
▁add	-10.273
▁patch	-10.2744
▁half	-10.2763
▁umbrella	-10.2769
▁angel	-10.2772
▁prize	-10.2808
▁march	-10.2831
▁engine	-10.284
▁stage	-10.2844
▁crazy	-10.2849
▁driving	-10.2853
▁meal	-10.2866
▁washed	-10.287
▁low	-10.2872
▁dull	-10.2874
▁carrying	-10.2875
▁class	-10.2888
▁ways	-10.2903
▁jacket	-10.2904
▁missing	-10.2904
▁sparkled	-10.2912
▁Sophie	-10.2923
▁Polly	-10.293
▁popular	-10.2933
▁flexible	-10.2935
▁impressive	-10.294
▁hoop	-10.2946
▁tied	-10.2947
▁regular	-10.2948
▁library	-10.2948
▁lemon	-10.295
▁graceful	-10.2961
▁ending	-10.2966
▁seeds	-10.2976
▁imagined	-10.2994
▁nature	-10.3003
œIt	-10.3011
▁rubbed	-10.3039
▁ingredients	-10.3046
▁truth	-10.3049
▁dreaming	-10.3059
▁shocked	-10.3063
▁sudden	-10.3072
▁corn	-10.3073
How	-10.3113
▁stranger	-10.3127
▁thirsty	-10.315
▁friendship	-10.315
▁Next	-10.3156
▁sadly	-10.3157
▁mark	-10.3205
▁Joey	-10.3219
▁reading	-10.3226
▁opens	-10.3227
▁early	-10.3235
▁bracelet	-10.3253
▁penny	-10.3254
▁peeked	-10.3259
▁butterflies	-10.3266
▁Andy	-10.3279
▁feather	-10.3279
▁wheels	-10.3292
▁spilled	-10.3304
▁careless	-10.3309
▁diamond	-10.3312
▁numbers	-10.3326
▁rat	-10.3341
▁flashlight	-10.3344
▁rug	-10.3349
▁humble	-10.3354
▁wing	-10.3365
▁fresh	-10.3368
▁flute	-10.3383
▁handle	-10.3387
▁ahead	-10.3394
▁chew	-10.3396
▁spoke	-10.3409
▁gum	-10.3412
▁nut	-10.3418
▁bent	-10.3426
▁warned	-10.3427
▁scale	-10.3439
Go	-10.3449
▁sorts	-10.346
▁sunflower	-10.3461
▁pale	-10.3463
▁cheap	-10.3468
If	-10.3471
▁uncomfortable	-10.3486
▁placed	-10.3487
▁mailbox	-10.349
▁badly	-10.3503
▁statue	-10.3512
▁older	-10.3537
▁biggest	-10.3538
See	-10.3545
▁tunnel	-10.3546
▁beetle	-10.3546
▁Alex	-10.3549
▁note	-10.3568
▁guard	-10.3571
▁sofa	-10.3579
▁growing	-10.358
old	-10.3586
▁cupboard	-10.3592
▁celebrate	-10.3596
▁counting	-10.3597
▁cooking	-10.3597
▁mole	-10.36
▁nurse	-10.3619
Ow	-10.3627
▁value	-10.3658
▁harmless	-10.3658
▁desk	-10.3674
▁beauty	-10.3686
▁hang	-10.3688
▁towers	-10.3689
▁crocodile	-10.3699
▁crane	-10.3699
▁shoot	-10.3699
▁thunder	-10.3703
▁track	-10.3712
▁past	-10.3717
▁bull	-10.3725
▁persistent	-10.3742
▁gifted	-10.3796
▁charming	-10.3804
▁refused	-10.3809
▁cereal	-10.3818
▁helps	-10.382
▁deaf	-10.3832
▁Give	-10.3838
▁slid	-10.3839
▁anxious	-10.386
▁raven	-10.3861
▁drop	-10.3863
▁envelope	-10.3872
▁parade	-10.3872
They	-10.3877
▁sandwiches	-10.3879
▁stops	-10.3882
▁pretending	-10.389
▁shut	-10.3893
▁collar	-10.3898
▁drawer	-10.3903
▁snuggled	-10.3903
▁ordinary	-10.3906
▁computer	-10.3917
▁chasing	-10.3919
▁order	-10.3923
▁lead	-10.3938
▁jelly	-10.3938
▁trap	-10.397
aid	-10.3977
▁Paul	-10.3978
▁flour	-10.3981
▁lively	-10.3991
▁study	-10.401
▁uncle	-10.4014
▁package	-10.4016
▁piano	-10.4023
▁rules	-10.4024
▁crystal	-10.4028
▁helmet	-10.4043
▁sell	-10.4046
▁gloomy	-10.4048
▁intelligent	-10.4059
▁needle	-10.4072
▁return	-10.4073
▁shaking	-10.4104
▁design	-10.4123
▁lizard	-10.413
▁hung	-10.4138
▁twirled	-10.4151
▁pony	-10.4155
▁jumps	-10.4162
▁soldier	-10.4166
▁station	-10.4176
Tommy	-10.4177
He	-10.4181
▁alert	-10.4186
œThat	-10.4191
▁octopus	-10.4192
▁zebra	-10.4193
▁hunter	-10.4205
cream	-10.4227
▁thief	-10.4232
▁miserable	-10.424
▁Look	-10.4249
▁fireman	-10.4269
▁anywhere	-10.4281
▁creatures	-10.4282
▁slides	-10.4284
▁dug	-10.4287
▁less	-10.4303
▁radio	-10.431
▁pack	-10.4324
▁bandage	-10.4327
▁turkey	-10.4341
▁Before	-10.4351
▁screen	-10.4353
▁Brownie	-10.436
▁wishes	-10.4367
▁names	-10.4375
▁ignorant	-10.4378
Max	-10.4381
▁shine	-10.4386
▁seem	-10.4386
Give	-10.4408
▁bounced	-10.4412
▁spring	-10.4421
▁chance	-10.4424
▁courage	-10.4427
▁Grace	-10.4435
▁trash	-10.4441
▁lollipop	-10.4442
▁practiced	-10.4446
▁blow	-10.4448
▁cube	-10.4453
▁fan	-10.4454
▁stickers	-10.4466
▁led	-10.4467
▁leash	-10.4471
▁suit	-10.4473
▁square	-10.4474
Yay	-10.4481
▁pigeon	-10.4486
▁hurry	-10.4495
▁jet	-10.4497
▁attractive	-10.4514
▁stirred	-10.4522
▁stretched	-10.4522
▁compassionate	-10.4523
ate	-10.4525
▁nobody	-10.4528
▁pasta	-10.4534
▁arrow	-10.4535
▁gem	-10.4536
▁chubby	-10.4538
▁jeep	-10.4549
▁carpet	-10.4555
▁decorate	-10.4567
▁helpless	-10.4573
▁Tweetie	-10.4578
▁cocoa	-10.4591
▁respectful	-10.4593
▁Annie	-10.4599
▁seal	-10.4606
▁brighter	-10.4607
▁Fin	-10.462
▁competitive	-10.4626
▁candle	-10.4628
▁ghost	-10.4646
▁jug	-10.4648
▁further	-10.465
▁case	-10.4654
▁letters	-10.4662
▁troubled	-10.4673
▁itself	-10.468
▁pressed	-10.4684
▁afternoon	-10.4697
▁fear	-10.47
▁steps	-10.471
▁attic	-10.4715
▁skip	-10.4725
▁mask	-10.4732
▁anyway	-10.4735
▁Jerry	-10.4736
Timmy	-10.4738
▁somewhere	-10.4764
▁disgusting	-10.4791
▁tray	-10.4794
▁adorable	-10.4803
▁fearful	-10.4803
▁bark	-10.4804
up	-10.4809
▁restless	-10.4813
▁may	-10.4817
▁restaurant	-10.4838
▁tool	-10.4841
▁giggle	-10.4842
▁envious	-10.4853
▁Are	-10.4854
▁pants	-10.4857
▁sweetheart	-10.4872
▁filthy	-10.4878
▁distant	-10.4886
▁Lee	-10.4891
▁impatient	-10.4892
▁fork	-10.4895
▁nuts	-10.4897
▁shoe	-10.4897
▁Where	-10.4909
▁shouts	-10.491
▁broccoli	-10.4914
▁crawl	-10.4931
▁cooked	-10.4933
▁Everything	-10.4938
▁trumpet	-10.4945
▁Here	-10.4949
▁pipe	-10.4949
▁soar	-10.4949
▁post	-10.4954
▁scooter	-10.4967
▁stir	-10.4979
▁comb	-10.4983
▁Charlie	-10.4986
▁sandbox	-10.4989
▁belt	-10.4993
▁cards	-10.5003
▁guess	-10.5004
▁starts	-10.5014
▁nowhere	-10.5017
▁travel	-10.5017
▁pepper	-10.5022
▁admire	-10.5023
▁Lilly	-10.5031
▁cheer	-10.5049
▁thread	-10.5055
▁bathtub	-10.5075
▁cap	-10.5082
▁dish	-10.5085
▁question	-10.5085
▁leopard	-10.5089
▁barking	-10.5094
▁quite	-10.5096
▁Would	-10.5099
▁rub	-10.5102
▁bicycle	-10.5103
▁mule	-10.5122
▁squash	-10.5124
▁windows	-10.5128
▁lid	-10.5149
▁happier	-10.5151
▁mama	-10.5156
▁Henry	-10.5164
▁ten	-10.5172
▁cricket	-10.5188
▁message	-10.519
▁Maria	-10.5205
▁monkeys	-10.5207
▁listening	-10.5207
▁sort	-10.5209
▁stared	-10.5225
▁ants	-10.5225
▁record	-10.5244
▁gorilla	-10.5246
▁harsh	-10.5256
year	-10.5259
▁club	-10.5281
▁given	-10.5282
▁ostrich	-10.5289
▁pour	-10.5299
▁crack	-10.5301
▁Baby	-10.5302
▁five	-10.5307
▁relax	-10.5307
▁cows	-10.5308
▁stretch	-10.531
▁dessert	-10.5311
▁Millie	-10.5316
▁alligator	-10.5318
▁stuff	-10.533
▁paid	-10.5335
▁yogurt	-10.5353
▁melon	-10.5356
▁size	-10.5356
▁violin	-10.5372
▁purse	-10.5387
▁helicopter	-10.5403
▁vine	-10.5407
▁rescue	-10.5414
▁Will	-10.542
▁enthusiastic	-10.5422
▁grabs	-10.5426
▁shadow	-10.5427
▁split	-10.5427
▁jellyfish	-10.543
▁wander	-10.5431
▁Bunny	-10.5431
▁tripped	-10.5451
▁Papa	-10.5453
▁Sandy	-10.5455
▁pilot	-10.546
▁shade	-10.5463
▁sent	-10.5468
▁hippo	-10.5471
▁perform	-10.5473
▁wheat	-10.5477
▁otter	-10.5479
▁forgave	-10.5486
▁sheet	-10.5488
▁roared	-10.5489
▁modest	-10.5491
▁mug	-10.5492
▁object	-10.5495
▁summer	-10.5504
▁hook	-10.5512
▁behave	-10.5525
▁organize	-10.5546
▁pushing	-10.5557
▁paws	-10.5557
▁swinging	-10.5562
▁heal	-10.5568
▁triangle	-10.557
▁Mimi	-10.5578
▁salt	-10.5581
▁rice	-10.5594
▁steal	-10.5607
▁yell	-10.5608
▁neat	-10.5617
▁starting	-10.5621
▁lightning	-10.5623
▁bubble	-10.5631
▁taxi	-10.5631
▁evening	-10.5647
▁raft	-10.566
▁Buddy	-10.5664
▁energy	-10.5666
▁Ted	-10.5672
▁wallet	-10.5676
Bye	-10.5679
▁porch	-10.5694
▁pulls	-10.5697
▁riding	-10.5701
▁reward	-10.5708
▁frowned	-10.5718
▁fold	-10.5724
▁kangaroo	-10.5727
▁either	-10.5729
▁van	-10.573
▁tire	-10.5733
▁sticker	-10.574
▁knot	-10.5741
▁panda	-10.5741
▁tooth	-10.5749
▁sweater	-10.5756
▁rod	-10.5759
▁tomato	-10.5762
▁cop	-10.5768
▁quick	-10.5773
▁ended	-10.5783
▁send	-10.5798
▁Whiskers	-10.5832
▁museum	-10.5835
▁Danny	-10.584
▁spirit	-10.584
▁palace	-10.585
▁shopkeeper	-10.5852
▁knock	-10.5874
▁peace	-10.5876
▁strawberry	-10.5878
▁rolling	-10.5883
▁bananas	-10.5898
▁microphone	-10.5913
▁boots	-10.5916
▁bikes	-10.5924
▁math	-10.5931
TMm	-10.5948
œYou	-10.595
▁sock	-10.5961
▁jokes	-10.597
▁pole	-10.5977
▁wire	-10.5985
▁alive	-10.6007
▁reindeer	-10.6009
▁notebook	-10.6021
▁laundry	-10.6025
▁magnet	-10.6034
▁hive	-10.6036
▁mild	-10.6041
▁cactus	-10.6047
▁holes	-10.6047
▁moms	-10.6048
▁tube	-10.6056
▁shakes	-10.6061
▁sailor	-10.6066
▁pushes	-10.6082
▁softly	-10.6082
▁ink	-10.6085
▁putting	-10.6088
▁visited	-10.609
▁Be	-10.6092
▁clapping	-10.6094
▁learnt	-10.6118
▁tricks	-10.612
▁falling	-10.6122
▁glow	-10.6122
▁penguin	-10.6126
▁trains	-10.6129
▁leaned	-10.6134
▁airport	-10.6136
▁zoomed	-10.6143
▁colours	-10.6157
▁shelter	-10.6167
▁Harry	-10.6177
▁Tony	-10.618
▁dust	-10.618
▁speed	-10.6181
▁pebble	-10.6184
▁ambulance	-10.6184
▁silver	-10.6197
▁barrel	-10.6199
▁smells	-10.62
▁checked	-10.6203
▁stack	-10.6203
▁chalk	-10.6204
▁volcano	-10.6216
▁marched	-10.622
▁steak	-10.6224
▁judge	-10.6229
▁aeroplane	-10.6234
▁climbing	-10.6238
▁drawings	-10.6241
▁dive	-10.6246
▁jewel	-10.6253
▁goal	-10.6276
▁meat	-10.6282
▁belongs	-10.6291
▁dishes	-10.63
▁polish	-10.6315
▁costume	-10.632
▁seed	-10.6328
▁imagine	-10.6344
▁backpack	-10.6351
▁task	-10.6355
▁elevator	-10.6356
▁lions	-10.6359
▁beep	-10.6361
▁bin	-10.6365
▁apologized	-10.6366
▁coffee	-10.6366
▁danger	-10.6367
▁Tweet	-10.637
▁grapes	-10.6371
▁medal	-10.6375
▁yacht	-10.6375
▁trophy	-10.6379
▁acorn	-10.639
▁rubber	-10.6397
▁soil	-10.6399
▁hoping	-10.641
▁barks	-10.6412
▁support	-10.6413
▁hadn	-10.6415
▁minute	-10.6416
▁mushroom	-10.6419
▁cord	-10.6422
▁comfort	-10.6425
▁chain	-10.6425
Mia	-10.6428
▁papers	-10.6435
▁wool	-10.6444
▁unhappy	-10.645
▁onion	-10.6467
▁eraser	-10.6468
▁kitty	-10.6476
▁haircut	-10.6476
▁raining	-10.6477
▁page	-10.6477
▁available	-10.648
▁trick	-10.6484
▁shield	-10.6487
▁mill	-10.649
▁journal	-10.6502
▁basketball	-10.6515
▁twig	-10.6516
▁celery	-10.652
▁perfectly	-10.6529
▁mechanic	-10.6534
▁resist	-10.6555
▁speak	-10.6557
▁drops	-10.6557
▁complete	-10.6565
▁planet	-10.6578
▁flies	-10.658
▁shouldn	-10.6592
▁diary	-10.6598
▁closely	-10.6601
▁counter	-10.6603
▁winter	-10.661
▁player	-10.6615
▁cardboard	-10.6626
▁glove	-10.6632
▁eagerly	-10.6648
▁marry	-10.665
▁tap	-10.666
▁quit	-10.6664
▁baking	-10.6665
▁Smith	-10.6666
▁comet	-10.6668
▁twist	-10.669
▁cooler	-10.6702
▁fields	-10.6705
▁loop	-10.6711
▁repair	-10.6715
▁pair	-10.6721
▁furniture	-10.6732
▁James	-10.6736
▁stuffed	-10.6736
▁church	-10.6764
▁second	-10.6781
▁wife	-10.6786
▁shrimp	-10.6786
▁headed	-10.6791
▁lie	-10.6824
▁switch	-10.6829
ting	-10.6832
▁football	-10.6845
▁motorcycle	-10.6849
▁Instead	-10.6873
▁between	-10.6887
▁peek	-10.6901
ve	-10.6904
▁flame	-10.6912
▁factory	-10.6922
▁swung	-10.6933
▁thanks	-10.6936
▁Clara	-10.6936
▁shouting	-10.6972
▁gather	-10.6975
▁hotel	-10.6977
▁vendor	-10.6978
▁video	-10.6988
▁Pat	-10.6989
▁blowing	-10.7
▁mixer	-10.7001
▁coal	-10.7007
▁rag	-10.7007
▁peach	-10.7014
▁folder	-10.7015
▁cauliflower	-10.702
▁cats	-10.7021
▁skull	-10.7022
▁unlock	-10.7039
▁cushion	-10.704
▁frame	-10.7058
▁treasures	-10.7071
▁pin	-10.7074
▁human	-10.7087
▁spell	-10.7092
▁hut	-10.7102
▁breaks	-10.711
▁created	-10.7111
▁sunset	-10.7116
▁oil	-10.7117
▁maze	-10.7132
▁seeing	-10.7132
▁potato	-10.7141
▁explain	-10.7141
▁fisherman	-10.7142
▁wipe	-10.7151
▁Maggie	-10.7162
▁cups	-10.7163
▁pit	-10.7168
▁soccer	-10.7172
▁stamp	-10.718
▁pirates	-10.7182
Your	-10.7188
▁laser	-10.7198
▁popped	-10.7204
▁peanut	-10.7213
▁battery	-10.7228
▁attention	-10.7232
▁photo	-10.7253
▁painter	-10.7253
▁powder	-10.7255
▁forgotten	-10.726
▁weather	-10.7268
osie	-10.7272
▁poke	-10.7273
▁celebrated	-10.7282
▁God	-10.7286
▁mop	-10.7295
▁Or	-10.7309
▁giraffe	-10.732
▁fishing	-10.7325
▁slept	-10.7329
▁throws	-10.733
▁waving	-10.7343
▁yoga	-10.735
▁axe	-10.7355
▁deliver	-10.7356
Molly	-10.7362
▁anchor	-10.7363
▁Bun	-10.7367
▁tutor	-10.7368
▁flea	-10.7371
▁breeze	-10.7381
▁point	-10.7387
▁frogs	-10.7388
▁bloom	-10.7392
▁lives	-10.7398
▁fireplace	-10.7399
▁golf	-10.7414
▁swamp	-10.7417
▁vet	-10.7429
▁curtain	-10.7434
▁imagination	-10.7435
▁glowing	-10.7458
▁ceiling	-10.7467
▁sunglasses	-10.7474
▁lend	-10.7478
▁parent	-10.7482
Mama	-10.7484
▁rhinoceros	-10.7488
▁kingdom	-10.749
▁points	-10.7492
▁memories	-10.7503
▁dancer	-10.7506
▁strength	-10.752
▁tuna	-10.7528
▁horses	-10.7529
▁petals	-10.7537
▁skeleton	-10.7543
▁fog	-10.7556
▁baseball	-10.7566
▁cabin	-10.7571
▁knob	-10.7575
▁dear	-10.7587
▁pine	-10.7589
▁greedy	-10.759
▁igloo	-10.7602
▁hockey	-10.7605
▁cable	-10.7613
▁napkin	-10.7613
▁True	-10.7628
▁temple	-10.7632
ly	-10.7632
▁sir	-10.7639
▁feelings	-10.7645
▁bulb	-10.7647
▁argue	-10.7649
▁hedge	-10.7652
▁skirt	-10.7659
▁golden	-10.7665
▁sniffed	-10.7665
▁Miss	-10.7673
▁shovel	-10.7696
▁hanging	-10.7708
▁staff	-10.7708
▁meeting	-10.7714
▁microscope	-10.7714
▁mistakes	-10.7723
▁chickens	-10.7727
▁bears	-10.773
▁zipper	-10.7735
▁shoulder	-10.7743
▁film	-10.7757
▁theater	-10.776
▁eaten	-10.7764
Jack	-10.778
▁welcomed	-10.7809
▁pup	-10.7815
▁quietly	-10.7817
▁motor	-10.7828
▁gas	-10.784
Mum	-10.7841
▁flapped	-10.7848
▁slippery	-10.7853
▁fought	-10.786
▁radish	-10.7868
▁accepted	-10.787
▁pear	-10.7876
▁throwing	-10.7882
▁bouncing	-10.7896
▁plastic	-10.7902
▁kayak	-10.7919
▁creek	-10.7925
▁sticky	-10.7926
▁marble	-10.7933
▁avocado	-10.7933
▁lotion	-10.7942
▁lime	-10.7945
▁freezer	-10.7954
▁agree	-10.7965
▁vroom	-10.7971
▁E	-10.7978
▁success	-10.7984
▁oyster	-10.7995
▁armchair	-10.7997
▁writing	-10.8005
▁iron	-10.8008
▁First	-10.8024
▁cared	-10.8038
▁reef	-10.8043
▁faucet	-10.8047
▁Tina	-10.8056
▁heads	-10.8078
▁vest	-10.8092
▁investigate	-10.8099
▁makeup	-10.8112
▁mystery	-10.8118
▁sailing	-10.8119
▁ticket	-10.8124
▁discover	-10.8127
▁tug	-10.813
▁squirrels	-10.8138
▁calls	-10.814
▁cherries	-10.8146
▁crib	-10.8153
▁magazine	-10.8159
▁mattress	-10.8169
▁pistol	-10.818
▁splashing	-10.8189
▁rake	-10.8196
▁collected	-10.8204
▁sprayed	-10.8212
▁separate	-10.8212
▁trail	-10.8217
▁offer	-10.8217
▁quarrel	-10.8217
▁chimney	-10.8225
▁toilet	-10.8226
▁tub	-10.8245
▁dishwasher	-10.8249
▁wags	-10.8251
▁pray	-10.8258
▁entered	-10.8263
▁alarm	-10.8264
▁scolded	-10.8291
▁veil	-10.8292
▁shrugged	-10.8295
▁worth	-10.8296
▁finds	-10.8299
▁tear	-10.8309
▁mosquito	-10.8319
▁Dan	-10.8336
▁choice	-10.8372
▁pattern	-10.8373
▁lawyer	-10.8379
▁tucked	-10.8394
▁poem	-10.8397
ach	-10.8401
▁hall	-10.8404
▁ignored	-10.8412
▁presents	-10.8424
▁since	-10.8434
▁musician	-10.8435
▁cane	-10.8441
▁trade	-10.8447
▁kisses	-10.8451
▁classroom	-10.8453
▁nail	-10.8462
▁happens	-10.8475
▁easily	-10.8479
▁burn	-10.8483
▁beef	-10.8504
▁Freddy	-10.8507
▁burned	-10.8524
▁disappear	-10.8551
▁country	-10.8552
▁candles	-10.8553
n	-10.8554
▁language	-10.8555
Wait	-10.8558
▁rise	-10.8569
▁pill	-10.8579
▁trusted	-10.8587
▁chess	-10.8591
▁dressed	-10.8591
▁short	-10.8593
▁veterinarian	-10.8596
▁bean	-10.8597
▁telephone	-10.8612
▁shower	-10.8617
▁accept	-10.8618
▁blinked	-10.8621
▁missile	-10.8625
▁wardrobe	-10.8627
▁jewelry	-10.8642
uby	-10.8643
▁newspaper	-10.8646
▁moves	-10.865
▁cabinet	-10.8654
▁caring	-10.8672
▁oak	-10.8675
▁luck	-10.8676
▁stable	-10.868
▁However	-10.8693
▁puddles	-10.8694
▁keeping	-10.8696
▁sizes	-10.8697
▁crossed	-10.8698
▁claws	-10.8716
▁display	-10.8722
▁coats	-10.8724
▁opera	-10.8727
▁bookcase	-10.8743
▁blouse	-10.8744
▁hopes	-10.8755
er	-10.8771
▁follows	-10.878
▁unpack	-10.8783
▁blankets	-10.8795
▁lab	-10.8812
▁valley	-10.8818
▁lawn	-10.8828
▁amazement	-10.8834
▁blueberries	-10.884
▁Milly	-10.8842
▁squeezed	-10.8856
▁razor	-10.8858
▁bookshelf	-10.8862
▁tornado	-10.8866
▁perfume	-10.8874
▁castles	-10.888
▁uniform	-10.8883
▁chairs	-10.8886
▁subway	-10.8888
▁apart	-10.8889
▁television	-10.8899
▁symbol	-10.8901
▁straight	-10.891
▁spear	-10.8911
▁file	-10.892
▁squeeze	-10.8928
▁puzzles	-10.8931
▁earth	-10.8937
▁experience	-10.8943
▁mint	-10.8944
▁planes	-10.895
▁crawling	-10.8957
▁poked	-10.8959
▁following	-10.8992
▁serve	-10.8992
▁melt	-10.9014
▁ribbon	-10.9027
▁spark	-10.903
▁shampoo	-10.9032
▁pinch	-10.9036
▁licks	-10.9053
▁muffin	-10.9058
▁helper	-10.9063
▁ringing	-10.9066
▁cliff	-10.9067
▁gym	-10.9074
▁mustache	-10.9084
▁immediately	-10.9101
atie	-10.9101
▁sneeze	-10.9125
▁shrink	-10.9137
▁invite	-10.914
▁dictionary	-10.9141
▁growled	-10.9144
▁begged	-10.9158
▁grill	-10.9161
▁matches	-10.917
▁warmth	-10.9179
▁gear	-10.9186
▁birdcage	-10.9189
▁Snowy	-10.922
▁People	-10.9221
These	-10.924
▁drain	-10.9245
▁attach	-10.925
▁alright	-10.9253
▁fuel	-10.9253
▁ignore	-10.9266
▁married	-10.9269
▁yucky	-10.927
▁Luckily	-10.928
▁fallen	-10.9295
▁blood	-10.9308
▁berry	-10.9312
▁calendar	-10.9315
▁novel	-10.9347
▁pastry	-10.9355
▁doors	-10.9359
▁improve	-10.9376
▁below	-10.9383
▁bravely	-10.9385
▁wandered	-10.9404
▁mist	-10.9408
▁exam	-10.9417
And	-10.9422
▁laughter	-10.9429
▁understanding	-10.9429
▁weigh	-10.9431
▁oasis	-10.9444
▁whip	-10.9445
▁hurting	-10.9464
▁apron	-10.948
▁Help	-10.9493
œNo	-10.9506
▁pages	-10.9506
▁bathe	-10.9518
▁root	-10.9526
▁crash	-10.9534
▁Ollie	-10.9536
▁buckle	-10.9537
▁safety	-10.9542
▁sandcastle	-10.9545
▁bury	-10.9547
▁waste	-10.9551
▁reaches	-10.9552
▁buried	-10.9556
▁captain	-10.9577
▁worms	-10.9578
achel	-10.9582
▁reverse	-10.9591
▁strawberries	-10.9592
▁spade	-10.9593
▁relaxed	-10.9603
▁myself	-10.9608
Because	-10.9622
▁festival	-10.9635
▁skills	-10.9645
▁holiday	-10.9647
Did	-10.9647
▁ashtray	-10.965
▁quiz	-10.9677
▁raise	-10.9699
▁ornament	-10.9722
TMre	-10.9722
▁teaching	-10.975
▁beamed	-10.9759
▁model	-10.9761
▁snapped	-10.9765
▁refrigerator	-10.9768
▁saving	-10.9769
▁Betsy	-10.9777
▁someday	-10.9779
▁junk	-10.9781
▁received	-10.9795
▁Everyday	-10.9803
▁earlier	-10.9816
a	-10.9819
▁screw	-10.9824
▁harbor	-10.9835
▁steam	-10.9836
▁load	-10.9857
▁plates	-10.987
▁hearts	-10.9874
▁rot	-10.9879
▁isn	-10.9891
▁vanished	-10.9897
▁sparkling	-10.9899
▁insisted	-10.9901
▁bumped	-10.9925
▁Buzz	-10.9939
▁insect	-10.9947
▁Steve	-10.9958
eady	-10.9958
▁enter	-10.9975
▁cell	-10.9977
▁sparkle	-10.998
▁blackboard	-10.9983
▁dried	-10.9985
▁prepare	-10.9995
▁breathe	-11.0006
▁spending	-11.0021
TMll	-11.0022
▁boot	-11.0025
▁remove	-11.0026
▁scattered	-11.0028
▁socks	-11.003
▁Joy	-11.0037
▁scooped	-11.0039
▁settled	-11.004
▁permission	-11.0045
▁waffle	-11.0053
▁tease	-11.0065
▁Penny	-11.0073
▁known	-11.0075
Yuck	-11.0082
▁yawned	-11.0089
ver	-11.0091
ups	-11.0095
▁jewels	-11.0099
▁bathrobe	-11.0108
▁toes	-11.0111
▁destroyed	-11.0113
▁lumber	-11.0134
▁hardly	-11.0152
▁Abigail	-11.0153
▁hanger	-11.0166
▁encouraged	-11.0178
▁jail	-11.018
▁pride	-11.0194
▁lemonade	-11.0203
▁decorations	-11.0218
▁pulling	-11.0224
▁Have	-11.023
▁hate	-11.0244
▁cuddled	-11.0245
▁license	-11.0253
▁daisy	-11.0271
▁prevent	-11.0305
▁moments	-11.0306
▁ha	-11.0308
▁Poppy	-11.0326
▁surprises	-11.0337
▁snap	-11.0341
▁chirping	-11.0342
▁praised	-11.0345
▁See	-11.0346
▁cartoon	-11.0352
▁beans	-11.036
▁patiently	-11.0375
▁appreciate	-11.0378
▁buzzing	-11.0386
▁nation	-11.039
▁fastest	-11.0396
▁provide	-11.0403
▁automobile	-11.0403
▁superhero	-11.0404
▁billboard	-11.0405
▁dresses	-11.0412
▁chamber	-11.0417
▁wizard	-11.0423
▁spots	-11.0432
oe	-11.0439
▁destination	-11.0449
▁spoil	-11.045
▁taller	-11.0453
▁poppy	-11.0455
▁wine	-11.0456
▁passport	-11.0477
▁shot	-11.0482
▁structure	-11.0485
▁Brown	-11.0491
▁mall	-11.0494
▁dare	-11.0508
▁replace	-11.0523
▁believed	-11.0531
▁rabbits	-11.0533
▁whisper	-11.0538
▁washing	-11.0539
▁digging	-11.0541
▁rail	-11.0543
▁score	-11.0548
▁May	-11.0556
▁infant	-11.0558
▁approached	-11.0559
▁mitten	-11.0561
▁cobweb	-11.0564
▁deeper	-11.0575
▁sausage	-11.0599
▁none	-11.0604
▁heat	-11.061
▁restore	-11.0611
▁label	-11.0622
▁tongue	-11.0624
▁law	-11.0633
▁struggling	-11.0648
h	-11.0653
▁vacation	-11.0666
Thanks	-11.0669
▁surrender	-11.067
▁cheek	-11.0675
▁war	-11.0691
▁hurricane	-11.0698
▁sneezed	-11.0705
▁warning	-11.0707
▁David	-11.071
and	-11.0713
Welcome	-11.0722
▁panic	-11.0737
▁supply	-11.074
▁examine	-11.0743
▁brain	-11.0748
▁press	-11.075
▁thrilled	-11.0763
▁upstairs	-11.0768
▁universe	-11.0777
▁port	-11.0777
▁twisted	-11.0784
▁hits	-11.0785
▁airplane	-11.079
▁setting	-11.0799
▁glowed	-11.08
▁sits	-11.0801
▁worse	-11.0802
▁awe	-11.0805
▁solved	-11.0818
▁succeed	-11.0828
▁ideas	-11.0838
▁Spike	-11.0868
▁camp	-11.087
▁pillows	-11.0883
Ok	-11.0904
▁ranch	-11.0923
▁remained	-11.0927
▁neighborhood	-11.0929
▁floated	-11.0936
Jimmy	-11.0945
▁thermometer	-11.0948
▁shooting	-11.0967
▁chores	-11.0968
ray	-11.0984
▁sparkles	-11.0997
▁university	-11.102
▁dur	-11.105
▁remind	-11.1056
▁Who	-11.1063
▁thumb	-11.1078
▁massage	-11.1083
▁floating	-11.1101
▁measured	-11.1109
▁fixing	-11.111
▁supposed	-11.1112
▁parts	-11.1115
▁stadium	-11.1115
▁Jo	-11.1124
▁grinned	-11.1126
▁surrounded	-11.1132
▁batter	-11.1134
▁weeks	-11.1143
▁paused	-11.1147
nfortunately	-11.1149
▁collection	-11.1156
▁cherry	-11.1178
▁leak	-11.1184
▁future	-11.1195
emember	-11.1204
▁tide	-11.1215
▁observe	-11.1218
▁remain	-11.1222
▁sprinkles	-11.1229
▁grey	-11.1233
▁jazz	-11.1237
▁memory	-11.1243
▁vehicle	-11.1249
▁wisdom	-11.1278
▁sunrise	-11.1284
▁discovery	-11.1289
▁marbles	-11.1294
▁shed	-11.1298
▁actually	-11.1299
▁palm	-11.135
▁climbs	-11.1354
▁Liz	-11.1356
▁urge	-11.1374
▁neighbour	-11.1385
▁exercise	-11.1387
▁gust	-11.1397
▁meowed	-11.1407
Mmm	-11.1429
▁oranges	-11.1429
▁accident	-11.1432
▁decision	-11.1446
▁chewed	-11.1457
▁lily	-11.1458
▁weapon	-11.1463
▁rush	-11.1467
▁unite	-11.148
▁mailman	-11.1487
▁luggage	-11.1502
▁hills	-11.1527
emy	-11.1558
▁sip	-11.1567
▁possible	-11.158
▁paints	-11.1583
▁delay	-11.1593
▁rhythm	-11.1598
▁brings	-11.1599
▁tomatoes	-11.1608
▁folded	-11.1611
▁curled	-11.1611
▁gifts	-11.1611
▁yield	-11.1614
▁mineral	-11.1626
▁rooms	-11.1626
▁scratch	-11.1638
▁teaspoon	-11.1638
▁melted	-11.1643
▁bites	-11.1644
▁destroy	-11.1645
▁shiver	-11.1648
▁firework	-11.1649
▁sunlight	-11.1655
▁cartoons	-11.1655
▁chirped	-11.1656
▁difference	-11.1662
▁collecting	-11.167
▁x	-11.1697
▁manage	-11.1707
▁signs	-11.1712
▁Someone	-11.1713
▁itch	-11.1716
▁jogging	-11.1737
▁keeper	-11.1747
▁grape	-11.1753
▁tour	-11.1781
▁safari	-11.1789
▁beside	-11.1789
▁receive	-11.1817
▁sliding	-11.1819
▁complain	-11.1825
▁laid	-11.183
Mummy	-11.1846
▁art	-11.1849
▁equipment	-11.1862
▁potatoes	-11.1865
▁elephants	-11.1878
▁watered	-11.1886
▁slice	-11.1898
▁tracks	-11.1899
▁petted	-11.1905
▁skipping	-11.1907
ncle	-11.1917
▁copper	-11.1921
▁continue	-11.1922
▁kindly	-11.1931
▁admiring	-11.1978
▁Luna	-11.1982
▁bricks	-11.1992
▁patterns	-11.2
Ha	-11.2011
▁twigs	-11.2022
▁eagle	-11.2029
▁ordered	-11.2033
▁overjoyed	-11.2034
▁gotten	-11.2036
▁torn	-11.2063
▁mountains	-11.2064
▁zipped	-11.2071
▁soldiers	-11.2073
▁whistling	-11.2078
œThank	-11.2081
▁gloves	-11.2087
▁watches	-11.2092
▁problems	-11.2094
▁Cat	-11.2107
▁prayed	-11.2136
▁invitation	-11.2136
▁colour	-11.2149
▁stomach	-11.2163
▁peered	-11.2163
▁strangers	-11.2175
▁Moral	-11.2192
▁network	-11.2199
▁marching	-11.22
▁repeat	-11.2205
▁sidewalk	-11.2216
▁wooden	-11.2239
▁seats	-11.224
▁doggy	-11.2241
▁twirl	-11.2252
▁disagreed	-11.2262
▁grocery	-11.2288
▁navy	-11.2293
▁attached	-11.2301
▁raised	-11.2308
▁pigs	-11.2314
▁acorns	-11.2344
▁company	-11.2345
▁Julie	-11.2356
▁bother	-11.2363
▁Suzy	-11.2384
▁mister	-11.2394
se	-11.2399
▁Beth	-11.2413
▁happiest	-11.2414
▁burning	-11.2419
▁onwards	-11.2419
▁sold	-11.2419
▁operation	-11.2421
▁lands	-11.2426
▁Sunny	-11.2438
▁racing	-11.2442
seek	-11.2446
▁float	-11.2447
▁fed	-11.2455
Jill	-11.2461
▁crashed	-11.2477
▁Sharing	-11.2479
▁ash	-11.2482
▁Thomas	-11.2483
▁crunchy	-11.2497
▁brick	-11.2499
Would	-11.25
▁officer	-11.2506
eally	-11.2508
▁whistled	-11.2544
Bob	-11.2561
▁poison	-11.2564
▁refreshed	-11.2575
▁prune	-11.2578
r	-11.2585
▁scratched	-11.2595
▁history	-11.2596
▁Chloe	-11.2603
▁clearing	-11.2605
▁menu	-11.2607
▁prepared	-11.2617
▁bowed	-11.2625
▁peanuts	-11.2627
▁escaped	-11.2637
▁olive	-11.2643
œWe	-11.2656
▁gain	-11.2661
▁planted	-11.2662
▁reminder	-11.2668
▁easier	-11.2676
▁lips	-11.2678
▁fireworks	-11.2685
▁comfy	-11.269
▁revealed	-11.2691
Ouch	-11.2692
▁row	-11.2694
▁turning	-11.2705
▁drinks	-11.2709
▁brand	-11.2727
▁hated	-11.2727
▁bye	-11.276
▁recognized	-11.2771
▁selling	-11.2774
▁crept	-11.2779
▁precious	-11.28
▁price	-11.2808
▁weren	-11.2809
▁Sure	-11.2819
▁settle	-11.2822
▁pies	-11.2825
▁sore	-11.2825
▁landscape	-11.2833
▁Sadly	-11.2833
▁earthquake	-11.2836
▁muddy	-11.2856
▁slip	-11.287
▁scatter	-11.2877
▁spoons	-11.2883
▁By	-11.2884
▁drinking	-11.2887
▁dinosaurs	-11.2899
▁screams	-11.2902
▁flood	-11.2917
▁bridges	-11.2977
▁Sunday	-11.298
▁herb	-11.2984
▁measuring	-11.2987
▁apologize	-11.2993
▁perched	-11.3005
▁spaceship	-11.3007
▁served	-11.3017
▁request	-11.3027
▁cuddle	-11.3038
▁buildings	-11.3046
▁Josh	-11.305
▁event	-11.3063
œCan	-11.3091
▁surf	-11.3101
▁everyday	-11.3102
▁tip	-11.3112
▁responsible	-11.312
▁circus	-11.3125
▁comforted	-11.3129
▁soared	-11.3136
▁agreement	-11.3145
▁velvet	-11.3147
▁bang	-11.3155
▁rained	-11.316
▁anytime	-11.3171
▁succeeded	-11.3171
▁disturb	-11.3179
▁Jamie	-11.3188
▁trapped	-11.3193
▁whatever	-11.3197
▁beat	-11.3199
▁sneak	-11.32
▁hurried	-11.3201
Billy	-11.3205
▁cutting	-11.3209
▁shopping	-11.3212
▁cakes	-11.3219
▁shadows	-11.3232
▁Frank	-11.324
▁wonders	-11.3278
▁printer	-11.3286
▁weight	-11.3289
▁disturbed	-11.3297
▁traffic	-11.3302
▁bones	-11.3302
▁pitch	-11.332
▁style	-11.3321
▁bringing	-11.3322
▁remembers	-11.3327
▁steel	-11.3333
▁items	-11.3339
▁practicing	-11.3342
▁rang	-11.335
▁punish	-11.3355
▁exactly	-11.3357
▁rested	-11.337
▁oats	-11.3386
TM	-11.3393
abbit	-11.3405
▁visiting	-11.3417
▁simple	-11.3418
Will	-11.3438
▁recognize	-11.3468
▁Anne	-11.3488
▁olives	-11.3492
▁brushed	-11.3514
▁soak	-11.3527
▁Nina	-11.3538
▁image	-11.354
▁curiosity	-11.3555
▁costumes	-11.3572
▁tastes	-11.3572
▁For	-11.3575
▁breaking	-11.3599
▁owned	-11.3605
▁waist	-11.3629
▁beneath	-11.3631
▁fascinated	-11.3635
Dad	-11.3636
▁weep	-11.3642
▁knelt	-11.3644
œDon	-11.3651
▁villagers	-11.3661
▁underground	-11.3665
▁leather	-11.3682
▁creation	-11.3689
▁Lucky	-11.3691
▁sadness	-11.3694
▁sings	-11.3703
▁unlocked	-11.3713
▁news	-11.3715
▁died	-11.3715
▁oxygen	-11.3729
▁grandmother	-11.3731
▁Coco	-11.3731
▁downstairs	-11.3736
▁catching	-11.3739
▁waffles	-11.3742
▁secrets	-11.3747
▁Nutty	-11.3748
oom	-11.375
▁Big	-11.3759
▁tremble	-11.376
▁Floppy	-11.3767
▁jogged	-11.3775
▁cape	-11.3778
▁nails	-11.3785
Spot	-11.3786
▁mission	-11.3802
▁Hop	-11.3805
▁frown	-11.383
nâ	-11.3832
▁ours	-11.3834
▁Claire	-11.3837
▁suffer	-11.3838
▁freeze	-11.385
p	-11.3851
▁stripes	-11.3877
▁soaring	-11.3879
▁pets	-11.3893
▁answers	-11.3894
▁Something	-11.3909
▁lecture	-11.3919
▁struggled	-11.3921
▁blueberry	-11.3922
▁wondering	-11.3942
▁bleeding	-11.3946
▁punished	-11.395
▁wanting	-11.397
▁gained	-11.397
▁planned	-11.3981
▁fetch	-11.3986
▁challenge	-11.3995
▁Pip	-11.4003
▁nicer	-11.4006
▁wreck	-11.4027
▁guessed	-11.4029
▁area	-11.4034
▁increase	-11.4049
▁examined	-11.405
▁stealing	-11.4051
▁tune	-11.4079
▁argued	-11.408
▁stirring	-11.4086
▁herbs	-11.4096
▁Tiny	-11.4101
She	-11.4101
▁ripped	-11.4118
▁firemen	-11.414
▁studied	-11.4142
▁tugged	-11.4156
▁lemons	-11.4162
▁wagging	-11.4164
▁zooming	-11.4167
▁victory	-11.417
▁Betty	-11.4177
▁Tilly	-11.4203
▁satisfied	-11.4208
▁sisters	-11.421
▁winning	-11.4212
▁properly	-11.422
▁bunnies	-11.4224
▁mouths	-11.4226
▁yawn	-11.4233
looking	-11.4234
▁shivering	-11.4262
Daddy	-11.4272
▁winner	-11.4275
▁exit	-11.4284
▁gathering	-11.4297
▁mice	-11.4323
▁accidents	-11.4328
▁loaded	-11.4333
▁vegetable	-11.4339
▁teasing	-11.434
▁outdoors	-11.4342
▁discuss	-11.4352
▁twirling	-11.4366
▁decorated	-11.4375
▁budge	-11.4385
▁slapped	-11.4391
▁neighbourhood	-11.4405
▁supplies	-11.4405
▁underneath	-11.4409
▁competition	-11.442
▁permit	-11.4425
▁yelling	-11.4426
▁Chirpy	-11.443
▁Jessie	-11.4433
▁pancakes	-11.4446
▁peaches	-11.4449
▁introduce	-11.4456
▁bump	-11.4466
▁contain	-11.4476
▁six	-11.4478
▁works	-11.45
▁appear	-11.4505
▁Hannah	-11.4507
▁machines	-11.4512
▁weighed	-11.4522
▁fashion	-11.4523
▁mixing	-11.4524
▁released	-11.4526
Little	-11.4527
▁zero	-11.4527
▁doctors	-11.4538
▁Lulu	-11.4544
▁realize	-11.456
▁tickets	-11.4578
▁sneaked	-11.4584
▁Bubbles	-11.4584
▁Susan	-11.4588
▁piles	-11.4605
▁sights	-11.4612
▁monsters	-11.4626
▁instructions	-11.4637
▁release	-11.4644
▁bunch	-11.4655
▁ruler	-11.4661
▁burrow	-11.47
▁regret	-11.4704
▁pedal	-11.4718
▁pinched	-11.472
Yum	-11.4727
▁Abby	-11.4738
▁studying	-11.4747
▁Adam	-11.4755
▁struck	-11.4778
▁printed	-11.4779
▁baked	-11.4785
▁waits	-11.4792
▁lets	-11.4799
▁sport	-11.4805
▁frosting	-11.4808
▁pastel	-11.4814
▁muffins	-11.4814
▁strip	-11.4818
œLook	-11.482
out	-11.4823
▁Did	-11.483
▁Like	-11.4838
▁giggling	-11.4857
▁keys	-11.4865
▁ourselves	-11.4872
▁sigh	-11.4906
Not	-11.4908
▁shoulders	-11.492
▁beds	-11.4937
œHello	-11.4945
▁unicorn	-11.4972
▁scurried	-11.4984
▁surface	-11.5021
▁voices	-11.5038
▁Carl	-11.5045
Happy	-11.5047
▁poking	-11.505
▁stamps	-11.505
▁repeated	-11.5062
▁Stop	-11.5076
▁ruin	-11.5078
Or	-11.5091
▁prunes	-11.5095
▁flap	-11.5103
œThis	-11.5119
▁control	-11.5125
▁stretching	-11.5132
▁cones	-11.5133
▁lick	-11.5136
▁decides	-11.5139
▁spiders	-11.5143
▁zigzag	-11.5153
▁men	-11.5153
▁brushes	-11.5162
▁demanded	-11.5163
▁boss	-11.5166
▁ago	-11.5175
▁mentioned	-11.5187
▁pears	-11.5191
▁kicking	-11.5198
▁marks	-11.5199
▁lines	-11.5203
▁spit	-11.5205
▁tonight	-11.5244
▁touching	-11.5258
▁protected	-11.5272
▁result	-11.5317
un	-11.5323
ayla	-11.5324
▁goodnight	-11.5326
▁claps	-11.5345
Goodbye	-11.5369
▁Santa	-11.5373
▁prettiest	-11.5379
▁soaked	-11.538
▁camping	-11.5383
▁barely	-11.54
▁Both	-11.5414
▁discovering	-11.5418
▁bouncy	-11.542
▁strings	-11.5458
▁prints	-11.5466
▁lip	-11.5467
▁ribbons	-11.5469
▁east	-11.5493
▁stole	-11.55
▁Linda	-11.5501
▁pockets	-11.5502
▁twinkling	-11.5502
▁parked	-11.5506
▁sorting	-11.5515
▁cub	-11.5524
▁recommend	-11.5526
▁draws	-11.5537
▁rides	-11.5539
▁vowed	-11.5546
▁gazed	-11.5551
▁Momo	-11.5552
▁west	-11.5563
▁purred	-11.5567
œWhy	-11.5567
▁beard	-11.5569
▁Afterwards	-11.5592
▁babies	-11.5592
▁sweeties	-11.5593
▁stitch	-11.56
▁guys	-11.5628
▁tickle	-11.5632
▁silence	-11.5632
▁neighbors	-11.5647
▁Hoppy	-11.5651
▁applauded	-11.5662
▁nightmare	-11.5677
▁horns	-11.568
▁loose	-11.5683
it	-11.5698
▁broom	-11.5704
▁pearl	-11.5721
▁Luke	-11.5726
▁urged	-11.5726
▁luxury	-11.5737
▁acted	-11.574
▁dragged	-11.5741
▁ladybug	-11.5748
▁writes	-11.5755
▁strike	-11.5774
▁emergency	-11.5789
▁catches	-11.5793
▁shock	-11.5796
▁youth	-11.5801
eep	-11.582
▁chewing	-11.582
▁Wednesday	-11.5826
▁completed	-11.5836
▁rocking	-11.584
▁direction	-11.5847
▁movies	-11.5853
▁pebbles	-11.5862
▁loving	-11.5869
▁muscles	-11.5888
▁sides	-11.59
▁powers	-11.5902
use	-11.5907
▁introduced	-11.5915
▁patience	-11.5931
▁solution	-11.5934
▁mittens	-11.5935
▁steep	-11.5935
▁Lizzy	-11.5939
▁importance	-11.5943
▁chips	-11.5954
▁reluctantly	-11.5955
▁highest	-11.5969
▁oat	-11.5975
▁guns	-11.5981
▁curtains	-11.5992
▁figured	-11.5993
▁shivered	-11.5997
▁Jenna	-11.6004
▁buckets	-11.6004
▁flat	-11.6014
▁dolphins	-11.6018
▁librarian	-11.6025
▁shelves	-11.6039
▁stair	-11.6043
▁screaming	-11.6043
▁frozen	-11.6049
▁obey	-11.6052
▁unexpected	-11.6053
▁rocked	-11.6058
▁pouring	-11.6059
▁entire	-11.6075
▁rubbing	-11.6102
▁scoop	-11.6121
▁staring	-11.6132
thank	-11.6134
▁effort	-11.6136
▁contest	-11.6144
▁hugging	-11.6154
▁include	-11.6164
▁season	-11.6166
▁roaring	-11.6177
œOh	-11.619
▁sorted	-11.619
▁confident	-11.6195
▁Jeff	-11.6238
▁sting	-11.6246
▁situation	-11.6252
▁safer	-11.6254
▁fabric	-11.6274
ip	-11.6279
▁pop	-11.6303
▁policeman	-11.6331
▁chases	-11.635
▁curly	-11.6354
▁Tuesday	-11.6355
▁usual	-11.6376
▁awesome	-11.6388
▁passing	-11.6418
▁shined	-11.6419
▁wedding	-11.6421
▁lean	-11.6423
▁sighs	-11.6435
▁balancing	-11.6446
▁dared	-11.6448
▁Suzie	-11.645
▁planets	-11.6459
▁plenty	-11.6461
▁matched	-11.6464
▁slimy	-11.6482
▁lied	-11.6517
▁Dolly	-11.6528
▁homework	-11.6531
▁cheering	-11.6541
▁heel	-11.6553
▁bravery	-11.6561
▁zookeeper	-11.6565
▁truly	-11.6583
▁allow	-11.66
▁web	-11.6633
▁blink	-11.6646
▁eight	-11.6648
▁Cindy	-11.6652
▁knowledge	-11.6655
▁waiter	-11.6683
▁patted	-11.6686
▁resting	-11.669
▁caused	-11.6697
▁radishes	-11.6699
▁drives	-11.6707
▁dragons	-11.671
▁Matt	-11.6711
▁reaching	-11.6732
▁packing	-11.6749
▁arguing	-11.675
▁sausages	-11.6763
▁Always	-11.6766
▁flags	-11.6778
▁struggle	-11.6787
▁Pinky	-11.6787
▁growling	-11.6793
▁blooming	-11.6798
▁goals	-11.6801
▁spraying	-11.6802
▁towels	-11.6818
▁exhausted	-11.6837
▁worker	-11.6838
▁kneeled	-11.6869
▁growl	-11.6878
▁cast	-11.6888
▁spike	-11.6904
▁sticking	-11.6915
▁super	-11.6915
▁paddled	-11.6916
▁markers	-11.6921
oh	-11.6925
▁startled	-11.695
▁traveled	-11.6955
▁Jacob	-11.6956
▁rescued	-11.6969
▁singer	-11.6979
▁written	-11.6992
▁mane	-11.6994
▁bank	-11.7
▁inviting	-11.7
▁flavor	-11.7008
▁expected	-11.7012
▁paintings	-11.7012
▁project	-11.7024
▁dusty	-11.7031
▁spill	-11.7038
▁arrive	-11.7045
▁Tara	-11.705
▁matching	-11.7052
▁regretted	-11.7056
o	-11.7066
▁princesses	-11.7081
▁rid	-11.7083
▁trembling	-11.7088
▁marriage	-11.7089
▁pupil	-11.7092
▁bloomed	-11.7093
▁creating	-11.7097
▁snail	-11.7108
▁replaced	-11.7125
▁recorded	-11.7126
▁Lizzie	-11.7138
▁Lena	-11.7146
▁Julia	-11.715
Exc	-11.7155
▁motion	-11.7156
▁siren	-11.7165
▁observed	-11.7177
▁prayer	-11.7179
▁included	-11.7185
▁cubes	-11.7225
▁ranger	-11.7228
▁daisies	-11.7229
▁Jessica	-11.7246
Today	-11.7252
▁activities	-11.7254
▁pajamas	-11.7254
▁encourage	-11.7254
▁darkness	-11.7271
▁worries	-11.7284
▁removed	-11.7302
▁organizing	-11.7303
▁timer	-11.7305
▁opening	-11.731
▁ventured	-11.7314
▁relief	-11.7322
▁glitter	-11.7325
▁crowd	-11.7328
▁Good	-11.7331
▁completely	-11.7337
▁seesaw	-11.7341
▁rainbows	-11.7342
▁workers	-11.735
▁countryside	-11.7352
▁fairies	-11.7361
▁storekeeper	-11.7367
▁leader	-11.7391
▁flash	-11.7391
▁fault	-11.7402
Jim	-11.7407
▁pencils	-11.7432
▁quack	-11.744
▁wasted	-11.7442
▁belly	-11.7455
▁Johnson	-11.748
▁polishing	-11.7486
▁applaud	-11.7501
▁quacked	-11.7503
▁twinkle	-11.751
▁wires	-11.7532
▁becoming	-11.7545
▁Fox	-11.7571
▁harm	-11.7583
▁hunt	-11.7596
▁Leave	-11.7598
▁Slowly	-11.7612
▁lamb	-11.7621
▁slap	-11.7627
▁Jones	-11.7635
Yeah	-11.7637
▁everybody	-11.7649
▁texture	-11.7656
▁desert	-11.7674
▁faced	-11.7678
▁melting	-11.7683
▁opinion	-11.7696
▁vanish	-11.7699
▁bar	-11.7705
▁squealed	-11.7709
▁folding	-11.771
▁seagull	-11.7716
▁healed	-11.7746
▁pretends	-11.7751
▁An	-11.7762
hello	-11.7763
▁ripe	-11.7781
▁flames	-11.7789
▁bottles	-11.779
▁usually	-11.7795
▁Mira	-11.7797
Just	-11.7801
▁throat	-11.7812
▁poems	-11.7824
ob	-11.7833
▁agrees	-11.7834
▁crumbs	-11.7835
▁tractor	-11.7838
▁dipped	-11.7838
▁Two	-11.7845
▁Follow	-11.7851
▁baker	-11.7866
▁teaches	-11.7868
▁penguins	-11.7869
▁eats	-11.7872
▁lap	-11.7879
▁groceries	-11.7893
▁dentist	-11.7896
▁crow	-11.7897
ara	-11.7909
▁polished	-11.7931
est	-11.7935
▁bend	-11.7946
▁peeking	-11.7946
▁reply	-11.7948
▁provided	-11.7948
▁roads	-11.7963
▁staying	-11.7964
▁gaze	-11.7971
▁den	-11.7973
▁wandering	-11.7988
▁valued	-11.7994
▁kneel	-11.7996
▁interested	-11.7996
▁scales	-11.8
▁cautiously	-11.8002
▁honk	-11.8007
▁Put	-11.8008
▁Bye	-11.8011
▁pots	-11.8031
▁cracked	-11.8034
▁helmets	-11.8041
▁united	-11.8066
▁winked	-11.8085
▁faraway	-11.8097
▁protecting	-11.8109
▁marked	-11.8112
▁lollipops	-11.8113
▁balanced	-11.8114
▁misses	-11.8118
▁meow	-11.812
▁logs	-11.8137
▁younger	-11.8144
▁June	-11.8151
▁seems	-11.8152
▁cuts	-11.816
▁forehead	-11.8162
▁single	-11.8164
▁Many	-11.8171
▁chuckled	-11.8174
▁Doggy	-11.8178
▁signed	-11.8203
you	-11.8203
▁fuzzy	-11.8204
▁particular	-11.8216
▁boom	-11.8218
▁Larry	-11.8226
▁pastries	-11.8228
▁sense	-11.8242
▁however	-11.8244
▁blows	-11.8253
▁crabs	-11.8255
▁beads	-11.826
▁bat	-11.8263
▁rubs	-11.8274
▁copy	-11.828
œMommy	-11.8281
▁actions	-11.8282
▁splashes	-11.8298
▁filling	-11.8302
▁crackers	-11.831
▁Sorry	-11.8337
▁yesterday	-11.8343
▁knights	-11.8345
▁directions	-11.8349
▁Sophia	-11.8368
room	-11.8381
▁keeps	-11.8388
▁twin	-11.8398
▁restored	-11.84
▁swooped	-11.8401
▁Happy	-11.8401
▁suitcase	-11.8413
▁sew	-11.842
▁boo	-11.8422
▁wiggled	-11.8426
▁fluttered	-11.8435
▁snowballs	-11.844
▁cause	-11.8443
▁awake	-11.8456
▁roots	-11.8471
i	-11.848
▁kites	-11.8482
▁sweets	-11.8484
▁Christmas	-11.8487
▁celebration	-11.8491
▁somebody	-11.8493
▁bumpy	-11.85
Bad	-11.8502
ery	-11.8516
▁Abbie	-11.8524
Sometimes	-11.8545
▁achieve	-11.8551
▁inch	-11.8554
▁itchy	-11.8559
▁rings	-11.8568
▁Mickey	-11.8574
▁roses	-11.8588
▁Everybody	-11.859
▁cashier	-11.8599
▁disagree	-11.8612
▁froze	-11.8621
▁tallest	-11.8629
▁Nothing	-11.865
▁Watch	-11.8655
▁photos	-11.8658
▁wow	-11.8659
▁pastels	-11.8661
▁remote	-11.8677
▁determination	-11.868
▁pedals	-11.8681
▁darker	-11.8686
▁Gigi	-11.8687
▁stare	-11.8697
▁nectar	-11.8706
▁snakes	-11.8712
▁speaking	-11.8713
ay	-11.8716
▁recording	-11.8741
▁Laura	-11.8741
▁piggy	-11.8763
▁complaining	-11.8765
▁Out	-11.8769
▁Sparky	-11.877
boo	-11.8771
▁owners	-11.8806
▁delivery	-11.8812
▁acting	-11.8816
▁pat	-11.8819
▁Being	-11.8821
oar	-11.8839
▁pleasure	-11.8842
▁bars	-11.8853
▁sneaky	-11.8862
▁entrance	-11.8867
▁liquid	-11.8884
▁Jazz	-11.8889
Then	-11.8897
Fine	-11.8911
▁Pandy	-11.8923
▁rolls	-11.893
▁coloured	-11.8938
▁noon	-11.8944
▁lower	-11.8948
▁delivered	-11.8964
▁Enjoy	-11.898
▁miles	-11.8988
▁Nick	-11.8988
▁tricked	-11.902
▁beyond	-11.903
▁Jess	-11.9038
▁afterwards	-11.9056
▁glasses	-11.9063
▁hissed	-11.9071
uack	-11.9075
▁videos	-11.908
▁stolen	-11.9089
When	-11.9092
▁Stella	-11.9096
▁cough	-11.9101
▁Emmy	-11.9108
▁tickled	-11.911
▁joking	-11.9128
▁farther	-11.9129
▁Buzzy	-11.9132
▁scaring	-11.9141
▁burst	-11.9143
▁sobbed	-11.9145
▁rule	-11.9145
▁expect	-11.9149
obby	-11.9152
▁cheeks	-11.9152
▁colored	-11.9161
▁reveal	-11.9166
▁pause	-11.9169
▁tricky	-11.9176
▁Days	-11.9187
▁insects	-11.9213
▁lung	-11.9245
œCome	-11.9255
▁calmed	-11.9267
▁naps	-11.9267
▁trips	-11.928
obbie	-11.9284
▁talented	-11.9292
▁tangled	-11.9294
▁sled	-11.9297
▁smarter	-11.9305
▁candies	-11.9307
▁adding	-11.933
▁indeed	-11.9338
▁warn	-11.9339
over	-11.9343
▁scarves	-11.9348
▁sandcastles	-11.935
▁achieved	-11.9362
▁Olive	-11.9369
▁learns	-11.9384
▁Aunt	-11.939
▁Chris	-11.9403
▁Princess	-11.9406
▁badge	-11.942
▁wrist	-11.9422
▁hallway	-11.9429
▁giraffes	-11.9434
▁consequences	-11.9435
▁yourselves	-11.9436
▁deal	-11.9438
aren	-11.9439
▁leading	-11.9441
Grandma	-11.9444
▁knees	-11.9445
▁hesitated	-11.9453
▁paddle	-11.9459
▁impossible	-11.9463
▁batteries	-11.9463
▁masks	-11.9467
▁rockets	-11.9476
▁peel	-11.9497
▁darling	-11.9508
▁Maya	-11.951
▁beginning	-11.9511
▁mixture	-11.9538
▁outfit	-11.9543
▁choices	-11.9549
▁wink	-11.9549
▁grand	-11.9552
▁Get	-11.9553
▁covers	-11.9568
▁bumps	-11.9573
▁skill	-11.9597
▁guy	-11.9598
▁explorers	-11.9599
▁Mikey	-11.9615
▁Pam	-11.962
▁accomplishment	-11.9622
in	-11.9633
obert	-11.9634
en	-11.9636
▁weeping	-11.9644
▁foods	-11.9647
▁recommended	-11.965
▁cost	-11.9668
▁seeker	-11.9675
▁gracefully	-11.9681
▁bakery	-11.9691
▁deserve	-11.9691
▁flapping	-11.9694
▁Milo	-11.97
▁salty	-11.9706
▁improved	-11.9707
▁swept	-11.9722
▁hider	-11.9756
yan	-11.9764
▁stroked	-11.9775
▁complained	-11.9783
▁firefighters	-11.9792
▁stem	-11.9823
▁Abi	-11.9836
▁Snuggles	-11.9836
▁magnets	-11.9852
▁talent	-11.9858
▁seven	-11.9864
Shh	-11.9877
▁Martha	-11.9888
▁third	-11.9894
▁teased	-11.9904
▁basement	-11.9905
▁travelled	-11.9912
▁lighter	-11.992
▁horizon	-11.9923
nuck	-11.993
œDo	-11.9938
▁parties	-11.9952
▁marker	-11.9963
▁Not	-11.9977
▁shirts	-11.9982
▁cupcakes	-11.9987
▁performance	-11.9988
▁wipes	-12.0003
▁kicks	-12.0004
▁Granny	-12.0007
▁hearing	-12.0011
▁fever	-12.0016
▁siblings	-12.0019
▁heading	-12.0024
▁clowns	-12.0025
▁fluttering	-12.0038
▁mushrooms	-12.0046
▁dots	-12.0052
œHi	-12.0053
▁glee	-12.0063
▁smiley	-12.0064
▁snatched	-12.0074
▁threat	-12.0075
▁secure	-12.0076
▁handful	-12.0091
▁bedtime	-12.0096
▁uses	-12.0098
▁ruining	-12.0101
▁closes	-12.0106
ie	-12.0123
▁families	-12.0135
▁objects	-12.0136
▁knocks	-12.0136
▁buying	-12.0157
▁Water	-12.016
es	-12.0177
▁neither	-12.0183
l	-12.0185
▁dollhouse	-12.0191
▁celebrating	-12.0198
▁Ow	-12.0203
▁scrubbed	-12.0209
▁Along	-12.0212
▁paying	-12.0214
▁seconds	-12.0223
▁puppies	-12.0223
▁lettuce	-12.0227
go	-12.023
▁wrapping	-12.0234
▁Finn	-12.0247
▁among	-12.0253
œWow	-12.0254
▁treehouse	-12.0261
▁creamy	-12.0264
iki	-12.0264
▁drifted	-12.0268
▁peacefully	-12.0281
▁widened	-12.029
▁scratches	-12.0297
▁rumble	-12.0315
▁yells	-12.0316
▁source	-12.0319
or	-12.034
▁hi	-12.0347
▁rusty	-12.0368
▁behaved	-12.0374
▁wound	-12.0374
▁bowls	-12.0412
▁cuddly	-12.0412
▁Jay	-12.0428
▁tigers	-12.0431
▁S	-12.0445
▁rewarded	-12.0446
Those	-12.0455
▁wears	-12.0462
▁jackets	-12.0463
▁gems	-12.0479
▁drums	-12.0487
▁creativity	-12.0488
Next	-12.0492
▁mention	-12.0493
▁shrinking	-12.0499
▁including	-12.0499
▁repaired	-12.0502
▁losing	-12.051
▁Jacky	-12.0522
▁Mabel	-12.0546
Ah	-12.0548
▁Binky	-12.056
▁tasks	-12.0608
▁chop	-12.0613
▁tiptoed	-12.0613
▁imagining	-12.0617
alph	-12.0643
▁players	-12.0649
▁tapped	-12.0651
▁rising	-12.0667
▁separated	-12.0674
▁sprinkled	-12.0675
▁grassy	-12.0678
▁chef	-12.0683
▁Janie	-12.0684
▁Dur	-12.0686
▁Goodbye	-12.0696
bye	-12.0702
▁demand	-12.0708
▁gross	-12.0717
▁granted	-12.0717
ntil	-12.0742
▁creations	-12.0746
▁chefs	-12.0754
▁Sadie	-12.0764
▁tissue	-12.0779
▁damage	-12.0797
▁arrows	-12.0809
▁needles	-12.0813
▁minerals	-12.0818
▁decorating	-12.0829
▁screwdriver	-12.0829
▁pouted	-12.0829
▁stomped	-12.0841
▁Nobody	-12.0852
▁backwards	-12.086
▁hesitant	-12.0864
Have	-12.0868
▁grabbing	-12.0884
œMy	-12.0892
▁printing	-12.0903
▁stung	-12.0904
▁unpacked	-12.091
▁item	-12.0912
▁planning	-12.0951
▁Judy	-12.0952
▁diving	-12.0955
▁hedgehog	-12.0959
▁slower	-12.0965
▁center	-12.0971
▁heavier	-12.0975
▁sponge	-12.0975
▁avoid	-12.0983
▁grin	-12.0991
▁beloved	-12.0991
▁Marie	-12.1002
uick	-12.1004
▁raindrops	-12.1004
no	-12.1019
▁recipe	-12.1026
▁reflection	-12.1026
al	-12.103
▁limes	-12.104
▁trampoline	-12.1054
▁willing	-12.1055
▁Bee	-12.1057
▁materials	-12.1057
▁cousin	-12.1058
▁sailboat	-12.1062
▁fears	-12.1068
▁snowmen	-12.1074
To	-12.1078
▁Squeaky	-12.1082
▁growls	-12.1096
▁pointy	-12.11
▁rustling	-12.1102
▁surroundings	-12.1112
▁Simon	-12.1116
▁Bird	-12.1124
▁Since	-12.1127
▁audience	-12.1142
▁Michael	-12.1144
▁swims	-12.1148
▁Bluey	-12.1154
Oops	-12.1155
▁onions	-12.1163
▁gobbled	-12.1171
Sammy	-12.1175
▁artist	-12.118
▁stool	-12.1191
▁peppers	-12.1206
▁snowball	-12.1208
▁blocking	-12.121
nna	-12.1215
▁pans	-12.1221
▁couple	-12.1223
▁temperature	-12.1227
▁wiping	-12.1227
▁squares	-12.1232
Lucy	-12.1235
on	-12.1236
▁windy	-12.1247
▁Todd	-12.1249
▁discussed	-12.1258
▁wobbled	-12.1269
oey	-12.1277
▁aren	-12.1277
▁Gina	-12.1287
▁designed	-12.131
▁ache	-12.1316
▁Maddie	-12.1324
▁neighbours	-12.1342
▁slammed	-12.135
▁pecked	-12.135
▁wins	-12.1359
▁slices	-12.1363
ueen	-12.1366
Meow	-12.137
▁age	-12.1387
▁silent	-12.142
▁hitting	-12.1441
▁Earth	-12.145
▁Jackie	-12.1465
▁un	-12.1479
▁helpers	-12.1495
▁sale	-12.1503
▁duckling	-12.1523
▁requested	-12.1526
▁raccoon	-12.1549
▁Back	-12.155
▁ornaments	-12.1553
▁aside	-12.156
▁curiously	-12.1579
▁chirp	-12.1589
Jenny	-12.1592
▁Star	-12.1602
▁adult	-12.1612
▁sports	-12.1634
▁vanilla	-12.1642
▁leaning	-12.1644
uth	-12.1649
▁familiar	-12.1651
▁d	-12.1652
▁afford	-12.1659
▁shaped	-12.1659
Time	-12.1686
▁reads	-12.1688
Jane	-12.169
▁breathed	-12.1702
▁coloring	-12.1703
▁Although	-12.171
Great	-12.1715
▁raincoat	-12.1723
▁spreading	-12.1724
▁remembering	-12.1726
▁Those	-12.173
▁greeted	-12.1732
▁hour	-12.1749
▁intrigued	-12.1753
▁dollars	-12.1757
▁potion	-12.1758
▁chosen	-12.1763
▁praying	-12.177
▁twice	-12.177
▁warnings	-12.1771
▁prettier	-12.1779
▁thrown	-12.1781
▁reason	-12.1796
▁click	-12.18
▁listens	-12.1805
▁sparks	-12.1823
▁rivers	-12.1824
▁chick	-12.1826
▁Frog	-12.1838
▁gardener	-12.1839
Yummy	-12.1849
▁touches	-12.1859
▁enthusiasm	-12.186
▁husband	-12.1869
▁daring	-12.1878
▁spoonful	-12.1891
▁Ali	-12.1891
▁swans	-12.1893
▁superheroes	-12.19
▁Our	-12.1901
▁forks	-12.1903
▁weekend	-12.1905
▁Amelia	-12.1909
▁zipping	-12.1921
Alice	-12.1936
▁skunk	-12.1939
▁wishing	-12.1941
▁least	-12.1943
▁flight	-12.1943
▁woof	-12.1945
Boo	-12.1952
▁meals	-12.196
▁magician	-12.1961
▁changing	-12.1965
▁forgetting	-12.1966
▁grandparents	-12.197
▁Friends	-12.1974
▁feast	-12.1986
▁bodies	-12.1991
▁rotten	-12.1991
▁hopeful	-12.1991
▁Fido	-12.1996
▁borrowed	-12.1998
▁dreamt	-12.2001
▁sunflowers	-12.2005
Woof	-12.2015
▁screws	-12.2019
▁snuggle	-12.204
▁spikes	-12.2067
▁mesmerized	-12.207
▁sending	-12.208
▁flavors	-12.2097
▁guests	-12.2103
▁heroes	-12.2117
▁neatly	-12.212
▁buzzed	-12.2138
▁toddler	-12.215
ness	-12.2152
▁die	-12.216
lined	-12.2168
▁handsome	-12.2177
▁sailors	-12.2185
▁steady	-12.2195
▁feeding	-12.2202
▁mat	-12.2209
ee	-12.2214
▁tunnels	-12.2215
Our	-12.2216
▁muscle	-12.2225
▁hides	-12.2229
▁alien	-12.2252
▁nine	-12.226
▁onward	-12.2266
▁delivering	-12.2272
▁politely	-12.2283
▁dived	-12.229
▁promises	-12.2292
▁suffering	-12.2292
▁corners	-12.2308
--	-12.2329
▁prove	-12.2331
▁oh	-12.2334
▁Meg	-12.2353
▁warmer	-12.237
▁sneezing	-12.2371
▁plucked	-12.238
▁poster	-12.2404
▁honked	-12.2404
▁Lia	-12.2409
▁swords	-12.2418
▁crashing	-12.2421
Whee	-12.2422
yes	-12.2427
▁plain	-12.2435
▁refreshing	-12.2486
▁Wendy	-12.2491
▁seaweed	-12.2513
▁Birthday	-12.2518
▁dip	-12.2518
▁unsure	-12.2522
▁increased	-12.2525
▁oatmeal	-12.2532
▁students	-12.2541
Sue	-12.2549
▁thud	-12.256
▁crew	-12.2564
▁swallowed	-12.2569
▁pens	-12.2575
▁stern	-12.2583
▁mints	-12.2596
▁preparing	-12.2601
▁lungs	-12.2607
▁joining	-12.2624
▁Baa	-12.263
▁noses	-12.2644
▁hops	-12.2648
▁bows	-12.2649
▁Frosty	-12.2649
▁glued	-12.2654
▁wraps	-12.2655
▁napkins	-12.266
▁Bessie	-12.2667
f	-12.2668
▁toaster	-12.2668
œMom	-12.267
▁rip	-12.2675
▁Farmer	-12.2682
▁Squirrel	-12.2687
▁sniff	-12.269
years	-12.2707
œBut	-12.2708
▁performed	-12.2719
ight	-12.2729
▁trembled	-12.2735
▁puppet	-12.274
▁starfish	-12.2742
▁wobbly	-12.2771
▁presses	-12.2771
▁zebras	-12.2774
▁bully	-12.2778
▁hawk	-12.2785
▁Momma	-12.2786
▁shops	-12.2795
aty	-12.2796
▁plans	-12.2799
▁postman	-12.2814
Sally	-12.2818
Amy	-12.2818
▁whispers	-12.2818
▁wag	-12.2818
▁Love	-12.2818
▁flutter	-12.2821
▁C	-12.2823
▁resisted	-12.2823
▁Holly	-12.2824
▁merry	-12.2829
œWell	-12.2832
▁streets	-12.2838
▁scraped	-12.2842
▁geese	-12.2852
▁dropping	-12.2852
▁freedom	-12.2856
▁focused	-12.2857
▁biting	-12.2869
▁Patch	-12.2872
▁rushing	-12.2874
▁watering	-12.2876
▁Dr	-12.2878
▁waddled	-12.288
▁panicked	-12.2885
▁softer	-12.289
▁wiggle	-12.2892
▁counts	-12.2903
c	-12.2923
▁firmly	-12.2933
▁adults	-12.2953
▁sniffs	-12.296
▁joyful	-12.2977
▁firefly	-12.2986
▁stays	-12.3
▁frowning	-12.3008
▁robber	-12.3009
▁Thanks	-12.3012
œWhere	-12.302
▁Davey	-12.3032
le	-12.3032
▁tested	-12.3035
▁dancers	-12.3061
▁waterfall	-12.3069
▁nervously	-12.3071
▁lifts	-12.3073
▁worn	-12.3079
▁ham	-12.3083
▁slips	-12.3085
▁faded	-12.3099
▁scampered	-12.3108
▁lifting	-12.3109
▁Bubba	-12.3114
▁Only	-12.3119
▁Samantha	-12.312
▁cushions	-12.3138
▁triangles	-12.314
▁spat	-12.3144
▁leads	-12.3147
▁appreciation	-12.3152
ar	-12.3157
▁firefighter	-12.3162
▁Owl	-12.3192
▁Maddy	-12.3194
▁master	-12.3222
▁drawn	-12.3232
▁twinkled	-12.3233
▁quarreling	-12.3236
▁forgets	-12.3237
▁dresser	-12.3239
▁stacked	-12.3241
▁throughout	-12.3243
▁Tuna	-12.3247
▁Honey	-12.3249
▁Fuzzy	-12.3252
▁Stay	-12.3255
▁baths	-12.3257
▁respected	-12.3261
▁Megan	-12.3262
▁leapt	-12.3267
▁pennies	-12.3276
▁Listen	-12.3276
TMd	-12.3286
▁Flopsy	-12.3291
Ew	-12.3292
▁guide	-12.3295
▁grant	-12.3301
▁Mina	-12.3307
▁Meanwhile	-12.3341
▁polar	-12.3346
▁overcome	-12.3348
▁tricycle	-12.3361
▁stands	-12.3368
▁chat	-12.3371
▁elf	-12.3372
▁playtime	-12.3379
▁months	-12.3382
▁strongest	-12.3397
▁bravest	-12.3402
▁grows	-12.3408
▁Eva	-12.3423
▁compassion	-12.3432
▁wept	-12.3432
▁Take	-12.3437
▁drawers	-12.3439
▁humans	-12.3447
u	-12.3451
▁cosy	-12.3467
▁Sofia	-12.3474
▁scored	-12.3476
Mine	-12.3485
▁amount	-12.3485
▁echoed	-12.3508
▁encouraging	-12.3518
▁garbage	-12.3518
▁explorer	-12.3523
▁colder	-12.3533
▁Freddie	-12.356
▁performing	-12.3561
▁sweetest	-12.3568
▁matters	-12.3569
▁sank	-12.3585
▁flown	-12.3595
▁Fiona	-12.3607
please	-12.3613
▁pours	-12.3624
S	-12.3627
▁playroom	-12.3635
▁forgiving	-12.3642
▁probably	-12.3642
▁behaving	-12.3652
▁tossed	-12.3652
ids	-12.366
▁marshmallows	-12.3672
nder	-12.3673
▁dances	-12.3674
▁avocados	-12.3681
▁pigeons	-12.3684
▁blinking	-12.3685
let	-12.3693
▁base	-12.3699
▁Jojo	-12.3699
▁begin	-12.3704
▁squeezing	-12.3709
▁squishy	-12.372
▁causing	-12.3725
elly	-12.3726
ocky	-12.3731
▁shown	-12.3732
Mary	-12.3732
œOkay	-12.3733
▁Despite	-12.3741
Joe	-12.3759
Like	-12.3759
el	-12.3784
▁passengers	-12.3797
▁spices	-12.3804
▁tighter	-12.3809
▁conflict	-12.3823
▁yielded	-12.3838
▁healing	-12.3868
▁reversed	-12.3881
▁doorway	-12.3894
▁Louise	-12.3894
▁ropes	-12.3897
▁coral	-12.3898
▁necklaces	-12.391
▁ease	-12.3914
▁tails	-12.3921
▁yum	-12.3924
icky	-12.3925
▁napping	-12.3926
▁notes	-12.3933
▁aimed	-12.3936
▁Mouse	-12.3954
Surprise	-12.3957
▁cobwebs	-12.3961
▁fact	-12.3963
▁nearly	-12.3965
▁sewing	-12.3991
▁Mae	-12.4007
▁Still	-12.4011
▁designs	-12.4023
▁instruments	-12.4029
▁wider	-12.404
Follow	-12.4052
▁paintbrush	-12.407
▁cottage	-12.407
▁Birdy	-12.4081
▁appreciated	-12.4095
▁clues	-12.4105
▁action	-12.4106
▁brushing	-12.4106
▁Halloween	-12.4108
Watch	-12.4111
▁cleaner	-12.4113
▁Lou	-12.4116
Lisa	-12.4128
▁EndOnce	-12.4133
▁wakes	-12.4142
▁blast	-12.4156
oo	-12.4159
▁Because	-12.4159
▁loading	-12.4161
▁heartbroken	-12.4162
▁pumpkins	-12.4163
▁blocked	-12.4168
Listen	-12.4176
ia	-12.4213
▁slipping	-12.4222
▁repeating	-12.4237
▁mailed	-12.4239
▁Maisy	-12.424
▁laying	-12.4241
▁evil	-12.4266
Johnny	-12.4272
▁Jan	-12.4283
▁anger	-12.4287
▁twisty	-12.4296
▁soaking	-12.4297
▁grandchild	-12.4299
▁crossing	-12.4301
▁buzz	-12.4303
▁health	-12.4304
▁accomplished	-12.4305
▁twisting	-12.4311
▁connected	-12.4327
▁spins	-12.4328
▁behavior	-12.4343
▁Pippin	-12.4344
▁suffered	-12.4346
▁surfing	-12.4347
▁puzzled	-12.4347
▁damaged	-12.4356
▁final	-12.4362
▁pad	-12.4363
espite	-12.4371
▁angels	-12.4376
▁giggles	-12.4378
▁breathing	-12.4389
▁buses	-12.4389
▁licking	-12.4391
▁several	-12.4393
▁Ally	-12.4405
▁toward	-12.4407
▁noodles	-12.4411
▁passports	-12.4411
▁within	-12.4419
evin	-12.4421
▁hairdresser	-12.4421
œPlease	-12.4428
▁results	-12.443
▁finishing	-12.4435
▁streamers	-12.4438
▁lending	-12.4439
▁tying	-12.4444
▁Spidey	-12.4444
▁supported	-12.4449
▁risks	-12.4452
▁surrendered	-12.4453
▁awoke	-12.4466
▁Pippa	-12.4467
▁rainy	-12.4509
▁shady	-12.4517
▁quieter	-12.4517
▁luckily	-12.4528
œOf	-12.4532
▁Hope	-12.4549
▁ignoring	-12.4568
▁fantastic	-12.4579
▁rather	-12.4579
▁pins	-12.4585
▁stitches	-12.4591
▁Jonny	-12.4594
▁whose	-12.4595
Take	-12.4602
▁Becky	-12.4603
▁drivers	-12.4611
Fighting	-12.4619
▁surfboard	-12.4619
▁Curious	-12.4619
▁battle	-12.4635
▁ponies	-12.4636
D	-12.4645
▁cotton	-12.4648
▁cloudy	-12.4654
▁belts	-12.467
▁sped	-12.4676
▁grip	-12.4697
▁ties	-12.4703
▁robots	-12.4704
▁oysters	-12.4712
E	-12.4739
▁shovels	-12.474
▁definitely	-12.4745
▁snowflakes	-12.4751
▁B	-12.4762
▁thorns	-12.4763
▁pays	-12.4767
▁Pretty	-12.4772
▁Well	-12.4778
▁Auntie	-12.4782
▁Wally	-12.4792
▁bells	-12.4793
▁driveway	-12.4797
▁smallest	-12.4804
▁cuddles	-12.4808
▁wisely	-12.4809
▁Janey	-12.4815
▁frowns	-12.4815
▁reminding	-12.4819
▁student	-12.4826
▁correctly	-12.4826
▁Pepper	-12.4828
▁fleas	-12.4833
▁newfound	-12.4845
▁fits	-12.4845
œNow	-12.4847
choo	-12.4851
▁swimsuit	-12.4862
▁Time	-12.4863
▁Splash	-12.4871
▁peeled	-12.4875
▁chopped	-12.4879
▁granddaughter	-12.4902
▁grandson	-12.4902
▁squeaked	-12.4903
▁fishes	-12.4914
oger	-12.4918
▁weeds	-12.4924
▁birdhouse	-12.4928
▁D	-12.4934
▁bleed	-12.4937
▁wobble	-12.4937
▁Froggy	-12.4944
▁figures	-12.4962
▁simply	-12.4967
at	-12.4972
▁straw	-12.4973
▁Mother	-12.5001
▁nasty	-12.5003
▁bracelets	-12.5004
▁squeak	-12.5008
▁Mo	-12.5012
▁response	-12.5014
▁kittens	-12.5024
▁stopping	-12.5028
▁expert	-12.5032
▁punishment	-12.5032
▁inspired	-12.5056
but	-12.5079
ers	-12.5082
▁afar	-12.5086
▁banged	-12.5089
▁purr	-12.5098
▁flipped	-12.5098
▁decisions	-12.511
▁tipped	-12.511
▁lent	-12.511
▁disturbing	-12.512
▁Dog	-12.5126
▁concert	-12.5128
œHey	-12.515
▁masterpiece	-12.5158
▁pedaled	-12.516
▁Bo	-12.5169
▁travelling	-12.5176
▁stain	-12.5183
▁footsteps	-12.5188
▁Bounce	-12.5189
▁scarecrow	-12.52
▁darlings	-12.5217
▁Jax	-12.5219
am	-12.5235
▁congratulated	-12.5237
▁presented	-12.5239
▁roars	-12.524
▁windowsill	-12.5243
▁symbols	-12.5255
▁exercises	-12.5256
▁apologised	-12.5261
▁Flo	-12.5269
▁Excitedly	-12.5285
▁planting	-12.5287
▁Fire	-12.5292
▁arranged	-12.5298
ero	-12.5311
▁believing	-12.5316
▁trotted	-12.5316
▁Feeling	-12.5316
▁encouragement	-12.5322
▁Elle	-12.5327
▁reassured	-12.5328
▁reunited	-12.5328
round	-12.5332
▁Dory	-12.5347
▁Welcome	-12.5347
▁vines	-12.5351
▁spits	-12.5351
▁clerk	-12.5365
▁nodding	-12.5371
▁Try	-12.5373
▁edges	-12.5377
▁campfire	-12.5383
▁covering	-12.5412
▁focus	-12.5418
▁terrified	-12.5426
▁poppies	-12.5451
Alright	-12.5475
▁firm	-12.5476
▁activity	-12.5476
Beep	-12.5491
▁steer	-12.5493
▁mood	-12.5496
▁seller	-12.5498
▁sharks	-12.5498
▁paths	-12.5498
ack	-12.5523
▁smelling	-12.5533
▁bandages	-12.5535
▁chilly	-12.5538
▁tasting	-12.5541
▁yelped	-12.5545
▁wrinkled	-12.5551
▁delayed	-12.5554
▁talks	-12.5568
▁suggestion	-12.5574
▁testing	-12.5579
▁travels	-12.5581
▁speeding	-12.5596
▁calmly	-12.5599
▁mermaid	-12.5606
uackers	-12.5607
▁Startled	-12.562
▁sniffing	-12.5621
▁comforting	-12.5634
▁Snowman	-12.564
udy	-12.5644
▁braver	-12.565
▁pleaded	-12.5651
▁discussing	-12.5667
▁images	-12.5677
▁officers	-12.5682
▁displayed	-12.5688
▁spills	-12.5689
▁Elly	-12.5696
▁spies	-12.5702
▁Amanda	-12.5709
▁bothering	-12.572
less	-12.5728
▁admiration	-12.5734
▁unfortunately	-12.574
▁artwork	-12.5747
▁refuse	-12.5752
▁although	-12.5753
▁business	-12.5753
▁belongings	-12.5754
▁aware	-12.5754
▁foxes	-12.5756
g	-12.5764
▁burying	-12.5765
▁gesture	-12.5766
▁toolbox	-12.5772
Mandy	-12.5782
▁worrying	-12.5796
▁buddy	-12.5804
the	-12.5822
▁Charlotte	-12.5824
▁lies	-12.5827
▁backpacks	-12.5829
▁untie	-12.5829
Dear	-12.583
▁experienced	-12.5835
▁dragonfly	-12.5849
▁bitten	-12.5862
Teddy	-12.5866
▁humming	-12.5875
ro	-12.5878
ain	-12.588
▁Daniel	-12.5885
vroom	-12.5885
▁cheers	-12.5887
▁Outside	-12.5889
▁knots	-12.5902
▁Bow	-12.5904
we	-12.5911
▁efforts	-12.5916
▁coach	-12.594
▁purpose	-12.5947
▁annoyed	-12.5947
▁suits	-12.5948
▁tumbled	-12.5949
In	-12.5949
▁Saturday	-12.5953
▁solving	-12.5955
▁labels	-12.5957
▁gears	-12.5963
▁material	-12.5974
œThe	-12.6002
▁seashells	-12.6003
▁Frankie	-12.601
▁Tess	-12.6012
▁rotting	-12.6013
▁warmly	-12.6017
▁sunscreen	-12.6019
▁scent	-12.602
▁momma	-12.6027
▁Nancy	-12.6033
▁treated	-12.6036
▁conversation	-12.604
▁nibbled	-12.6046
▁Snowball	-12.6071
▁magazines	-12.6073
▁Helen	-12.609
▁untied	-12.6098
œSure	-12.6113
▁gazing	-12.6117
▁pro	-12.6119
▁members	-12.6127
▁insisting	-12.6138
▁Patty	-12.614
Joey	-12.6144
▁environment	-12.615
▁kings	-12.6151
▁parted	-12.6156
▁vehicles	-12.6162
▁whispering	-12.6162
▁mischievous	-12.6164
▁Elsa	-12.6165
▁Gus	-12.6168
▁sewed	-12.6192
▁Lina	-12.6204
▁encountered	-12.6224
▁scurrying	-12.6224
▁tilted	-12.6231
▁cowboy	-12.624
ne	-12.6246
▁prayers	-12.6249
▁Fortunately	-12.6251
▁spooky	-12.6257
▁joked	-12.6258
▁ships	-12.6264
ic	-12.6266
▁type	-12.6266
▁permitted	-12.6278
▁P	-12.6283
▁Tammy	-12.6305
▁stored	-12.6307
▁scientist	-12.6308
▁except	-12.6311
▁genie	-12.6318
T	-12.6327
▁guest	-12.6335
▁Ava	-12.6339
▁Sasha	-12.6339
▁maker	-12.6349
▁Ana	-12.6349
Get	-12.6357
▁Eddie	-12.6387
▁peas	-12.6394
▁beaming	-12.6407
▁stroke	-12.6416
▁list	-12.642
▁glittering	-12.6423
▁donkey	-12.6434
▁charge	-12.6439
œSee	-12.6465
▁cleared	-12.6467
▁tapping	-12.6482
▁tables	-12.6486
▁chocolates	-12.6487
▁pupils	-12.6494
▁Stitch	-12.6496
▁pandas	-12.6504
▁changes	-12.651
▁visitors	-12.6513
▁packages	-12.6517
▁customers	-12.6539
▁million	-12.6544
▁tablet	-12.6559
▁swollen	-12.6564
▁convinced	-12.6565
▁sails	-12.6566
▁fins	-12.6572
▁Lion	-12.6576
▁Seeing	-12.6577
one	-12.6585
▁examining	-12.6585
Leave	-12.6591
▁Hold	-12.6598
▁declared	-12.6599
▁Speedy	-12.6599
▁Poor	-12.6599
▁sweaty	-12.6599
▁loops	-12.6608
▁slowed	-12.6619
▁opposite	-12.6634
▁characters	-12.665
▁dressing	-12.6656
▁wounds	-12.6663
▁failed	-12.6676
▁warrior	-12.6682
▁Terry	-12.6699
▁Elsie	-12.6711
▁Jean	-12.6711
▁goodies	-12.6717
▁shall	-12.6718
▁forgiveness	-12.6726
▁hike	-12.6735
▁crowns	-12.6739
▁tidied	-12.6739
▁lessons	-12.6739
▁Finny	-12.674
▁scratching	-12.6744
ered	-12.6744
▁Bongo	-12.6746
▁youngest	-12.6749
▁drift	-12.6772
▁guessing	-12.6784
▁lipstick	-12.6789
▁inchworm	-12.6796
▁grandfather	-12.6797
▁sternly	-12.681
▁nibble	-12.6823
▁sheets	-12.6825
▁orders	-12.6831
▁beeped	-12.6853
Jen	-12.6853
▁aisle	-12.686
▁scrambled	-12.6867
▁meowing	-12.6869
▁Okay	-12.6878
b	-12.6881
P	-12.6888
▁dripping	-12.6888
▁thanking	-12.6889
ther	-12.6891
▁Excited	-12.6895
▁rescuing	-12.6895
▁responsibility	-12.6895
▁active	-12.6896
▁seagulls	-12.6906
▁spells	-12.6909
▁questioned	-12.691
ter	-12.6912
▁anticipation	-12.6917
▁bouquet	-12.6917
▁William	-12.6918
▁tubes	-12.6931
▁force	-12.6935
▁responded	-12.6939
▁decoration	-12.6946
▁Izzy	-12.6947
▁Green	-12.6948
▁smashed	-12.6953
▁Taking	-12.6954
▁Spring	-12.6956
▁films	-12.6958
▁obeyed	-12.6963
▁discoveries	-12.6967
▁attacked	-12.6975
▁knocking	-12.6976
▁emerged	-12.6989
▁hoops	-12.699
obo	-12.6992
▁proper	-12.7003
▁diamonds	-12.7008
▁gratitude	-12.7011
Goodnight	-12.7032
▁rely	-12.704
▁classmates	-12.7041
▁manners	-12.7049
All	-12.7072
▁rays	-12.7079
▁survive	-12.7082
▁rumbling	-12.7113
▁Peppa	-12.7113
▁instantly	-12.7127
Always	-12.7128
▁Jason	-12.7137
▁manager	-12.7143
▁stumble	-12.7143
▁beehive	-12.7149
what	-12.715
hind	-12.7154
▁signing	-12.7155
▁swap	-12.7157
▁wiggly	-12.7157
ebecca	-12.7164
▁bond	-12.7164
oomy	-12.717
▁Eric	-12.7173
▁argument	-12.7173
▁elbow	-12.7173
▁nurses	-12.7184
▁buckled	-12.7192
▁hunters	-12.7197
▁seashell	-12.7218
▁Amber	-12.7223
▁shrunk	-12.723
▁Tessa	-12.7231
▁brightest	-12.7237
▁munched	-12.7246
▁Me	-12.7252
▁earned	-12.7255
▁Crabby	-12.726
▁Nana	-12.7265
▁sweep	-12.7266
▁chipmunk	-12.7267
▁swaying	-12.7268
▁doorbell	-12.7275
▁turtles	-12.7279
▁offering	-12.7283
▁badger	-12.7284
▁Penelope	-12.729
▁Olivia	-12.729
▁Bobbie	-12.7292
▁shimmering	-12.7297
▁lowered	-12.7307
Mr	-12.7309
▁loses	-12.7313
▁attack	-12.7325
Sarah	-12.7326
▁spy	-12.7327
▁purrs	-12.7332
On	-12.7363
▁movements	-12.7364
▁bathing	-12.7365
▁Brian	-12.7374
▁prevented	-12.7384
▁goats	-12.7388
▁honking	-12.739
▁whoever	-12.739
▁routine	-12.7395
▁announced	-12.7395
œGood	-12.7396
▁queens	-12.7398
▁greet	-12.74
▁Sparkle	-12.7415
k	-12.7416
▁aliens	-12.7419
led	-12.742
▁beaver	-12.7421
▁address	-12.7424
Arrr	-12.7433
▁rowed	-12.7436
▁Ever	-12.744
▁Phil	-12.7441
▁prickly	-12.7447
▁mosquitoes	-12.7448
▁switched	-12.7454
▁flaps	-12.7456
▁explains	-12.7459
▁depend	-12.7463
▁Gary	-12.7464
la	-12.7465
▁winding	-12.7473
▁nuzzled	-12.7478
▁Matilda	-12.7494
w	-12.75
▁poses	-12.7508
▁gasp	-12.7511
▁insist	-12.7515
▁swayed	-12.7524
▁tires	-12.7525
C	-12.7526
▁taped	-12.7532
M	-12.7543
▁fin	-12.7551
▁dodged	-12.7563
▁aeroplanes	-12.7567
▁stethoscope	-12.7569
Stay	-12.7571
▁glimmering	-12.7585
▁destroying	-12.759
▁Trust	-12.7596
▁designing	-12.7596
▁laptop	-12.76
▁flips	-12.7602
▁exploded	-12.7608
▁customer	-12.7613
▁smelt	-12.7623
▁peck	-12.7626
iley	-12.7629
▁Ashley	-12.7631
ick	-12.7637
Bang	-12.7641
▁twists	-12.765
▁Hoot	-12.7653
▁observing	-12.7662
uickly	-12.7662
▁recorder	-12.7673
▁deed	-12.7675
▁generosity	-12.7677
œWho	-12.7677
ra	-12.7687
▁crops	-12.7696
▁beating	-12.7697
▁stamped	-12.7699
▁scolds	-12.7704
▁beautifully	-12.7711
Too	-12.7715
▁checkout	-12.7717
▁knives	-12.7724
▁Jilly	-12.7739
▁germs	-12.7746
▁paddling	-12.7763
▁tummies	-12.7778
▁cocoon	-12.7786
▁honesty	-12.7787
▁closing	-12.7794
?!"	-12.7794
▁drowned	-12.7802
▁clicked	-12.7819
▁supplied	-12.7825
▁expecting	-12.7836
▁Eliza	-12.7842
▁robbers	-12.7843
▁freed	-12.7855
▁veggies	-12.7862
udolph	-12.7873
▁Cara	-12.7873
▁seals	-12.7881
▁F	-12.7902
▁Bonnie	-12.7912
▁astronauts	-12.7918
▁sill	-12.7935
▁exploration	-12.7936
▁tidying	-12.7938
▁Shelly	-12.7946
▁Sir	-12.7952
▁wade	-12.7958
▁self	-12.7962
▁cracks	-12.7964
▁cupcake	-12.7968
▁troubles	-12.797
▁increasing	-12.797
œMaybe	-12.7981
▁unpacking	-12.7983
Henry	-12.7987
▁baskets	-12.7988
▁wealth	-12.8007
▁chatted	-12.8008
▁snaps	-12.8015
▁steering	-12.8017
▁gap	-12.8049
▁conductor	-12.8056
▁matey	-12.8056
Danny	-12.8067
▁Say	-12.8069
▁jars	-12.808
th	-12.8089
▁faint	-12.8095
▁Gracie	-12.8097
▁applause	-12.8104
▁zooms	-12.8128
▁hardest	-12.8142
▁healthier	-12.8145
▁wiser	-12.815
▁awful	-12.8153
▁Belle	-12.8165
osa	-12.8166
▁dollar	-12.8167
▁Nora	-12.8178
▁chip	-12.8184
▁wasting	-12.8185
▁languages	-12.8185
▁stretches	-12.8186
▁crawls	-12.8189
▁dock	-12.8199
▁plugged	-12.8202
▁Isn	-12.8211
▁squished	-12.8243
Someone	-12.8255
man	-12.8258
ccidents	-12.8265
▁snug	-12.8267
▁dangers	-12.8281
▁traded	-12.8283
▁wildflowers	-12.8292
▁fascinating	-12.83
▁syrup	-12.83
▁container	-12.8302
▁overhead	-12.8309
▁combed	-12.8309
▁shines	-12.8316
George	-12.8321
▁bluebird	-12.8326
▁carries	-12.8327
▁bothered	-12.8327
▁scooters	-12.8343
▁rats	-12.8344
▁flashing	-12.8353
five	-12.8356
▁beast	-12.8358
▁Bad	-12.8361
▁providing	-12.8366
▁Tyler	-12.8367
▁papa	-12.8383
▁reminds	-12.8396
▁court	-12.8408
▁killed	-12.8408
▁returning	-12.8412
œOk	-12.8413
L	-12.8415
▁shorter	-12.8426
▁dears	-12.843
▁novels	-12.8439
▁example	-12.8441
▁floats	-12.8449
▁tearing	-12.8458
▁Immediately	-12.8466
▁flashed	-12.8469
▁telescope	-12.8475
▁target	-12.8478
▁April	-12.8492
▁defeated	-12.8492
▁sprinkle	-12.8493
▁hotter	-12.8494
Peter	-12.8496
▁scrub	-12.85
▁Foxy	-12.8501
▁breaths	-12.8508
▁expression	-12.8517
▁opinions	-12.852
▁Another	-12.8526
to	-12.8527
▁glided	-12.8534
an	-12.855
▁serving	-12.855
▁grumbled	-12.8559
▁inches	-12.857
▁Flora	-12.8576
▁picnics	-12.8581
▁shorts	-12.8599
▁surprising	-12.8601
▁Peggy	-12.8612
▁sadder	-12.8614
▁Carla	-12.862
▁suggest	-12.8629
▁moo	-12.8638
▁seas	-12.8652
▁icing	-12.8652
▁visitor	-12.8668
▁confidence	-12.867
œBe	-12.8674
▁statues	-12.8676
▁convince	-12.8677
▁applauding	-12.8681
▁leap	-12.8682
▁Duck	-12.8686
▁dryer	-12.8688
▁member	-12.8692
An	-12.8693
▁risk	-12.8699
▁trusting	-12.8703
▁robin	-12.8704
Choo	-12.8709
▁twenty	-12.8712
▁Fairy	-12.8722
▁awhile	-12.8728
ufus	-12.8729
▁Bang	-12.8736
▁Prince	-12.8739
▁Andrew	-12.8739
▁cheated	-12.8747
▁Gabby	-12.875
▁ghosts	-12.8753
▁Boo	-12.8763
▁erase	-12.8771
▁bride	-12.8772
▁teachers	-12.8776
▁Show	-12.8778
▁petting	-12.8783
▁Dino	-12.879
▁sway	-12.8796
▁burnt	-12.8798
▁raising	-12.8798
▁Melissa	-12.8799
▁blown	-12.8809
▁Tiger	-12.881
▁ramp	-12.8812
▁extraordinary	-12.8816
avi	-12.8817
▁collapsed	-12.8825
ful	-12.8825
▁adds	-12.8827
na	-12.883
Nice	-12.883
▁stroll	-12.8831
▁inseparable	-12.8833
▁munching	-12.8834
▁Annabelle	-12.8843
▁instrument	-12.8847
▁experiences	-12.885
▁Wooly	-12.8851
▁weapons	-12.8858
▁cubs	-12.8858
▁tuck	-12.8872
▁checking	-12.8878
▁tweet	-12.8878
▁kit	-12.8884
▁Liza	-12.8897
▁behaviour	-12.8903
▁born	-12.8903
▁puff	-12.8909
▁rains	-12.891
▁soapy	-12.8919
lo	-12.892
▁types	-12.8934
▁flip	-12.8935
▁imaginary	-12.8938
▁L	-12.895
Boys	-12.8959
▁Barry	-12.8964
▁flock	-12.8964
▁odd	-12.8964
▁grasshopper	-12.8982
▁sprang	-12.8982
shaped	-12.8989
▁earn	-12.8992
▁puck	-12.9005
▁Liam	-12.9006
▁shoo	-12.9006
▁sirens	-12.9015
▁upside	-12.9017
▁attitude	-12.9026
▁opportunity	-12.9026
able	-12.9033
▁choo	-12.9034
▁pops	-12.9042
▁Moo	-12.9043
▁salon	-12.9044
▁distracted	-12.9053
▁trigger	-12.9062
▁peeped	-12.9062
▁conquered	-12.9062
▁whistles	-12.9076
▁Sun	-12.9078
▁miracle	-12.908
▁traveling	-12.9101
▁Mona	-12.9108
▁Sparkles	-12.9129
▁sandy	-12.913
▁wriggled	-12.9133
is	-12.9149
▁hunting	-12.9155
▁cheaper	-12.9162
▁longest	-12.9168
▁Bert	-12.9171
▁meows	-12.9174
▁minds	-12.9176
▁enemies	-12.9178
▁G	-12.918
▁mommies	-12.9187
▁tin	-12.9194
So	-12.9197
▁singers	-12.92
▁Oink	-12.92
▁deserved	-12.9201
▁flowing	-12.9206
▁coolest	-12.9212
N	-12.9213
▁unable	-12.9214
▁Twinkle	-12.9215
ita	-12.9217
▁umbrellas	-12.924
▁discouraged	-12.9259
▁Never	-12.9262
▁Mel	-12.9267
▁burger	-12.9268
Mark	-12.9268
▁Sky	-12.9269
▁burns	-12.9272
andy	-12.9278
▁thorn	-12.9286
▁moat	-12.9287
▁sprays	-12.9289
▁swimmer	-12.9295
▁Jody	-12.9296
▁clearly	-12.9309
▁joins	-12.9316
▁compete	-12.9322
▁reappeared	-12.9323
▁sometime	-12.9334
▁countries	-12.9341
▁Lenny	-12.9343
▁chatting	-12.936
▁glittered	-12.9362
▁Willy	-12.9364
▁bounces	-12.9365
▁chin	-12.9384
▁quacking	-12.9391
▁plug	-12.9396
▁passes	-12.9397
▁tortoise	-12.9405
ping	-12.9431
▁ability	-12.9434
▁spilling	-12.9437
▁Gray	-12.9443
▁realizes	-12.9468
ad	-12.9472
▁cheat	-12.9477
▁annoying	-12.948
by	-12.9487
▁Midnight	-12.9489
Bobby	-12.949
▁Candy	-12.9495
▁marking	-12.9495
▁curl	-12.9496
▁mattered	-12.9508
▁common	-12.9517
▁patches	-12.9517
▁details	-12.9526
▁soundly	-12.9526
▁enjoyable	-12.9536
▁crowded	-12.9538
▁checks	-12.9538
▁thicker	-12.9539
▁cheerfully	-12.9539
▁crystals	-12.9545
▁whined	-12.9545
▁yawning	-12.955
▁local	-12.9554
▁cafe	-12.9554
Put	-12.9563
sing	-12.9569
▁sincere	-12.9572
▁relaxing	-12.9585
▁surely	-12.9593
▁skies	-12.9601
▁Jennie	-12.9601
▁forgiven	-12.9607
▁chill	-12.9608
▁rows	-12.961
▁Mila	-12.9613
▁races	-12.9617
▁shallow	-12.9619
▁Looking	-12.9643
▁swirl	-12.9657
▁natural	-12.9666
▁Joanna	-12.9667
be	-12.9667
▁Paula	-12.9673
▁vibrant	-12.9685
▁hood	-12.9686
▁formed	-12.9687
▁Martin	-12.9689
▁strips	-12.9695
▁Nice	-12.9698
▁Through	-12.9704
▁noticing	-12.9704
elvet	-12.9714
▁repairman	-12.9714
▁bits	-12.9726
▁washes	-12.9726
▁astronaut	-12.9735
▁tips	-12.9738
▁bicycles	-12.9743
ma	-12.9755
il	-12.977
▁bubbly	-12.9771
▁treasured	-12.9784
▁pills	-12.9789
▁BunBun	-12.979
▁Again	-12.9794
▁outfits	-12.9797
li	-12.9798
▁sweaters	-12.9801
▁weighing	-12.9808
▁moonlight	-12.981
▁squeaky	-12.981
▁tests	-12.9815
▁aboard	-12.9828
Nina	-12.9877
▁blonde	-12.9901
▁teams	-12.9905
▁certain	-12.9905
▁melody	-12.9906
▁Yum	-12.9911
▁companion	-12.9915
▁necks	-12.9915
▁prizes	-12.992
▁compliment	-12.9929
▁excite	-12.9934
▁freezing	-12.9935
▁stall	-12.9938
▁messes	-12.994
▁hummed	-12.9944
ock	-12.9948
▁swirls	-12.9952
▁satisfaction	-12.9964
▁squinted	-12.9964
▁scattering	-12.997
▁sprout	-12.9972
▁la	-12.9972
▁beam	-12.9977
▁blushed	-13.0003
▁successfully	-13.0007
▁clue	-13.0008
▁leaking	-13.001
▁understands	-13.0018
œYay	-13.0018
▁Monkey	-13.0018
▁calmer	-13.0018
▁lump	-13.0022
▁bundle	-13.0022
▁pepperoni	-13.0022
▁Leah	-13.0022
Dave	-13.0023
us	-13.004
▁otters	-13.0044
▁coughed	-13.0045
▁Captain	-13.0053
▁glittery	-13.0053
▁uniforms	-13.0054
▁cowboys	-13.0057
▁positive	-13.0071
▁sipped	-13.0072
ng	-13.0075
▁fires	-13.0083
▁grace	-13.0091
▁joyfully	-13.0102
▁scenery	-13.0111
▁hangers	-13.0118
▁heaven	-13.0119
Fluffy	-13.0122
▁section	-13.0131
▁engines	-13.0132
Andy	-13.0146
▁meatballs	-13.015
▁explaining	-13.0152
▁Ginger	-13.0152
▁envelopes	-13.0155
▁ankle	-13.016
▁shrug	-13.0166
▁smartest	-13.0175
▁answering	-13.018
▁tickling	-13.018
▁Whoever	-13.0185
▁pressing	-13.0188
▁Make	-13.0189
Bun	-13.0191
▁airplanes	-13.0198
▁bruises	-13.0199
▁scold	-13.0204
▁unfair	-13.021
id	-13.0214
▁welcoming	-13.022
▁Joan	-13.0227
▁rubbish	-13.024
▁pantry	-13.024
Grandpa	-13.0241
▁fade	-13.0249
Maggie	-13.0251
▁pinching	-13.0259
▁Oliver	-13.0273
▁hisses	-13.0274
▁snowy	-13.0279
▁Sunshine	-13.0281
▁teapot	-13.029
▁shattered	-13.029
▁rewarding	-13.0293
ah	-13.0309
▁defeat	-13.031
▁Chickie	-13.031
Hold	-13.0312
▁rhino	-13.0331
▁burgers	-13.0331
ory	-13.0334
ri	-13.0335
▁blank	-13.034
▁Over	-13.0353
v	-13.0359
▁intently	-13.0361
▁glance	-13.0371
▁Choo	-13.0374
▁Hootie	-13.0381
▁Fish	-13.0387
▁rowing	-13.0388
▁situations	-13.0401
▁Jasmine	-13.0402
▁Mamma	-13.0405
▁newspapers	-13.0407
For	-13.0407
▁talents	-13.0413
▁Playing	-13.0421
▁playdate	-13.0422
▁locks	-13.043
▁practised	-13.0432
▁embarrass	-13.0441
▁sturdy	-13.0442
Yesterday	-13.0444
▁bomb	-13.0449
yle	-13.0472
▁ballerina	-13.0483
▁sandpit	-13.0483
▁watermelon	-13.0483
▁groaned	-13.0483
▁Thankfully	-13.0483
▁tempted	-13.0493
▁marveled	-13.0494
▁Felix	-13.0494
do	-13.0494
▁minded	-13.0498
▁whales	-13.0502
▁sneezes	-13.0503
▁doorstep	-13.0515
beep	-13.0516
▁stuffing	-13.0538
▁runner	-13.0554
▁pouch	-13.0555
▁swallow	-13.0561
▁haircuts	-13.0565
▁angrily	-13.0565
▁ketchup	-13.0565
▁croaked	-13.0566
Harry	-13.0568
▁beetles	-13.057
▁apology	-13.0576
▁unfamiliar	-13.0576
▁Ash	-13.0579
▁fireflies	-13.0586
ur	-13.0588
▁weighs	-13.06
▁spoiling	-13.0605
▁bubbling	-13.0607
▁energetic	-13.0607
▁Man	-13.0616
▁microwave	-13.0617
▁smoking	-13.0628
▁finishes	-13.063
▁visits	-13.0638
Open	-13.0641
▁lookout	-13.0646
▁Bruce	-13.0649
▁tentacles	-13.0653
▁exchange	-13.0658
▁clutch	-13.067
Ahoy	-13.0674
▁models	-13.0676
hi	-13.0677
▁Yesterday	-13.0678
▁tugging	-13.069
as	-13.0714
▁Magic	-13.0721
▁overwhelmed	-13.0722
▁ma	-13.0722
▁sweeter	-13.0729
▁cherish	-13.073
▁Life	-13.0739
iggy	-13.074
▁bends	-13.0742
▁slapping	-13.0743
▁mugs	-13.0744
▁goodness	-13.0745
da	-13.0746
▁shyly	-13.075
▁hesitation	-13.0753
Achoo	-13.0763
▁shrank	-13.0764
▁stepping	-13.0764
▁protection	-13.0764
▁strolled	-13.0775
▁Elephant	-13.0779
▁playhouse	-13.0793
Benny	-13.08
▁bulbs	-13.081
▁chopping	-13.0817
▁cheating	-13.0818
Sandy	-13.0821
▁height	-13.0842
▁hum	-13.0857
▁month	-13.087
ion	-13.0876
▁gasps	-13.0885
ibbit	-13.089
▁slithered	-13.0892
▁binoculars	-13.0894
▁underwater	-13.0902
▁forts	-13.0903
▁demanding	-13.0905
▁tunes	-13.0915
▁hopscotch	-13.0923
Jake	-13.0927
▁tick	-13.0931
▁Wait	-13.0946
atty	-13.0967
▁certainly	-13.0977
Anytime	-13.098
iolet	-13.0998
▁loyalty	-13.0999
▁transformed	-13.0999
▁forgives	-13.1008
▁disappointment	-13.1009
▁f	-13.1009
▁Does	-13.1011
▁cautious	-13.102
▁fishy	-13.1026
▁Peep	-13.1027
▁recess	-13.1031
of	-13.104
▁Fifi	-13.1042
▁bamboo	-13.1042
▁Cathy	-13.1045
▁rewards	-13.1047
▁Chuck	-13.1053
▁pounced	-13.1053
▁differently	-13.1055
▁cells	-13.1059
ch	-13.1061
▁thump	-13.1065
▁Beep	-13.1066
▁Ant	-13.1072
▁riverbank	-13.1096
▁Claus	-13.1107
▁raking	-13.1107
▁Tear	-13.1108
▁hundred	-13.1108
▁Steven	-13.1117
▁unwrapped	-13.1118
▁nests	-13.1128
▁spare	-13.1131
▁M	-13.1137
uff	-13.114
▁rips	-13.1147
▁Al	-13.1148
▁frustration	-13.1151
▁peacock	-13.1151
▁Other	-13.1163
▁invites	-13.1171
▁sweetly	-13.1172
▁amused	-13.1173
▁miller	-13.1176
Soon	-13.1181
G	-13.1182
▁becomes	-13.1182
▁mayor	-13.1185
▁fries	-13.1195
▁temptation	-13.1206
▁napped	-13.1206
▁snorted	-13.1217
▁cherished	-13.1218
▁landing	-13.1219
▁icky	-13.1221
▁teamwork	-13.1228
▁whimpered	-13.1228
enny	-13.1228
▁Gemma	-13.124
Charlie	-13.1266
▁scares	-13.1273
ai	-13.1277
▁Lot	-13.1282
▁traps	-13.1289
▁writer	-13.1291
▁current	-13.1294
▁Ms	-13.1295
▁Mighty	-13.1296
▁ouch	-13.1304
▁communicate	-13.1305
▁thunderstorm	-13.1305
▁crocodiles	-13.1317
▁Allie	-13.1321
œHow	-13.1323
▁thieves	-13.1339
▁pilots	-13.1342
▁Day	-13.1346
▁blades	-13.1375
▁whoosh	-13.138
▁centre	-13.1384
▁injured	-13.1395
▁mysteries	-13.1395
Some	-13.1403
▁Jon	-13.1407
F	-13.1411
▁lumberjack	-13.1417
▁stew	-13.142
▁scene	-13.1421
▁Minnie	-13.1429
▁auntie	-13.143
▁charm	-13.1438
▁snapping	-13.144
▁pipes	-13.1443
▁birdy	-13.1448
▁boil	-13.1449
▁Share	-13.1458
▁Patrick	-13.1463
▁clip	-13.1466
ainbow	-13.1478
▁keyhole	-13.1485
▁Mine	-13.1488
▁choosing	-13.1496
▁Birdie	-13.15
▁nightmares	-13.1502
cat	-13.1503
▁enemy	-13.1519
▁intelligence	-13.1519
▁Bess	-13.1524
ha	-13.1527
▁quest	-13.153
▁Tree	-13.1554
▁Nate	-13.1557
▁hundreds	-13.1563
▁Bambi	-13.1565
▁Marley	-13.1576
▁level	-13.1576
▁Ouch	-13.1583
▁banging	-13.1595
▁Alan	-13.1602
▁benches	-13.1602
▁Wilbur	-13.1611
▁tantrum	-13.1622
▁rebuild	-13.1622
▁supporting	-13.1624
▁messages	-13.1627
ted	-13.1628
▁condition	-13.1633
Abracadabra	-13.1633
▁wrench	-13.1645
▁servant	-13.165
James	-13.1651
▁trading	-13.1656
▁jobs	-13.1658
▁Carol	-13.1659
ling	-13.1665
▁squeezes	-13.1668
Honey	-13.1674
▁tickles	-13.1687
▁weaker	-13.1696
▁melons	-13.1704
▁townspeople	-13.1714
▁wiggling	-13.1714
▁Super	-13.1716
▁electricity	-13.1726
▁lush	-13.1726
▁shinier	-13.1726
▁alongside	-13.1726
▁peak	-13.1727
▁Avery	-13.1731
Emma	-13.1732
▁hissing	-13.1735
he	-13.174
Which	-13.1744
▁trusty	-13.1746
▁levers	-13.1747
▁magnify	-13.1749
▁luckiest	-13.1749
▁Jodie	-13.1749
▁camel	-13.1757
▁jets	-13.1761
▁softened	-13.1762
▁leans	-13.1767
▁chews	-13.177
▁pokes	-13.1775
▁pedaling	-13.1779
▁swimsuits	-13.1784
▁Oscar	-13.1787
▁nicest	-13.1797
▁Josie	-13.1799
▁mooed	-13.1809
▁whine	-13.1813
▁kneeling	-13.1813
▁occasion	-13.1814
ina	-13.1817
▁astonished	-13.1819
▁robe	-13.1834
▁styles	-13.184
▁reversing	-13.1843
▁Snow	-13.1849
▁quilt	-13.1854
▁knit	-13.1866
▁seasons	-13.1868
▁digs	-13.1869
▁quarreled	-13.1875
▁Johny	-13.1878
▁toothbrush	-13.189
▁foggy	-13.189
▁textures	-13.1896
▁foam	-13.1901
▁disappearing	-13.1901
▁Hopper	-13.1902
▁heels	-13.1917
▁Sandra	-13.194
▁guarding	-13.1944
▁admit	-13.1949
▁acts	-13.1963
Does	-13.1963
▁warmed	-13.1969
▁Of	-13.1973
▁munch	-13.1983
▁continuing	-13.1985
Two	-13.1992
▁worst	-13.1996
▁sensation	-13.2008
▁cooperate	-13.2009
▁Jonathan	-13.2009
▁Carefully	-13.202
▁boiling	-13.2022
▁brains	-13.2032
▁compared	-13.2033
▁fetched	-13.2038
▁Sweet	-13.2042
▁judges	-13.2052
▁Stanley	-13.2058
▁guards	-13.2058
▁character	-13.2064
▁revealing	-13.2072
▁mindful	-13.2079
▁structures	-13.2083
▁bowing	-13.2092
▁improving	-13.2092
▁concerned	-13.2093
▁dent	-13.2107
▁magically	-13.2121
she	-13.2122
▁lullaby	-13.2129
▁bushy	-13.2137
œO	-13.2144
Bella	-13.2148
▁flow	-13.2162
▁Buster	-13.2165
▁popping	-13.2165
▁Hurry	-13.2169
▁souvenir	-13.2173
▁ding	-13.2177
▁oldest	-13.2179
Hurry	-13.2184
▁blade	-13.2186
▁realise	-13.2189
▁Brad	-13.2189
▁cuddling	-13.2189
▁wheelbarrow	-13.2189
▁canvas	-13.2201
▁poisonous	-13.2201
Deal	-13.2209
ce	-13.2215
▁Girl	-13.2217
▁approach	-13.2236
▁Buggy	-13.2238
▁disaster	-13.2238
▁spears	-13.2239
▁embarrassing	-13.2239
▁Peanut	-13.224
▁crickets	-13.2243
▁Maisie	-13.225
▁guardian	-13.225
aven	-13.2251
ey	-13.2251
▁allowing	-13.2255
œA	-13.2256
▁aloud	-13.2262
▁boards	-13.2279
▁ho	-13.2283
▁craft	-13.2294
▁ill	-13.2299
▁facing	-13.2299
▁throne	-13.2299
▁thumbs	-13.2306
▁Gwen	-13.2312
that	-13.232
Danger	-13.232
▁cooled	-13.232
▁shh	-13.2321
▁riddle	-13.2336
▁Colin	-13.2338
▁Libby	-13.2348
▁aroma	-13.2348
œWelcome	-13.2352
▁coughing	-13.2353
▁larger	-13.2353
▁drying	-13.2357
▁Ha	-13.2358
▁heavily	-13.2361
▁dashed	-13.2373
▁Thumper	-13.2386
First	-13.2394
▁accomplish	-13.2397
▁deeply	-13.2404
▁angrier	-13.241
Never	-13.2431
per	-13.244
▁Chirp	-13.2442
▁nearer	-13.245
▁pump	-13.2458
▁sobbing	-13.246
▁cracker	-13.2466
▁facts	-13.2473
Fire	-13.2483
▁faith	-13.2485
obin	-13.249
▁express	-13.2497
▁hollow	-13.251
▁wolves	-13.251
▁lifeguard	-13.251
▁''	-13.2516
▁completing	-13.2523
▁storms	-13.2527
▁loudest	-13.2531
▁Summer	-13.2537
▁cages	-13.2538
▁Lucas	-13.2543
▁realizing	-13.2548
▁Jeremy	-13.2563
▁claw	-13.2568
▁property	-13.2573
▁lava	-13.2573
▁Patches	-13.2574
▁flashes	-13.2574
▁plopp	-13.2576
▁Ice	-13.2579
▁Tomorrow	-13.2582
▁warmest	-13.2586
▁circled	-13.2586
▁repairing	-13.2588
▁drag	-13.2589
▁shrugs	-13.2592
▁hips	-13.2603
▁till	-13.2611
▁puppets	-13.2618
▁caterpillars	-13.2619
colored	-13.2621
▁achievement	-13.2623
▁copied	-13.2624
▁whipped	-13.2637
▁skirts	-13.264
œThanks	-13.2646
▁attempts	-13.2648
▁security	-13.2649
▁waking	-13.2649
▁o	-13.2652
▁flooded	-13.2656
Hmm	-13.2656
Daisy	-13.2659
▁preschool	-13.2662
▁hamster	-13.2662
▁cousins	-13.2663
▁pose	-13.2674
▁sleds	-13.2677
▁tow	-13.2684
▁Ami	-13.2694
▁woodcutter	-13.2701
▁alley	-13.2701
▁sneaks	-13.2703
▁meadows	-13.2705
▁Toto	-13.2714
▁spiky	-13.2726
▁kayaking	-13.2727
▁Jennifer	-13.2727
▁farmers	-13.273
▁costs	-13.2732
ani	-13.2741
▁calming	-13.2746
▁pleasant	-13.2752
▁Pinchy	-13.2752
▁glared	-13.2752
▁dozed	-13.2752
▁allowance	-13.2765
▁honks	-13.2775
▁knobs	-13.2775
▁harmony	-13.2778
▁incredibly	-13.2778
▁lunchtime	-13.2779
ies	-13.2779
▁savor	-13.279
▁tale	-13.2791
▁sooner	-13.2791
Every	-13.2801
▁hooves	-13.2803
▁juiciest	-13.2803
▁--	-13.2805
▁moons	-13.2806
▁footprints	-13.2809
▁cops	-13.2811
œThere	-13.2822
▁shave	-13.2828
▁computers	-13.283
▁seatbelt	-13.283
▁invitations	-13.2831
time	-13.2833
▁Deal	-13.2847
▁ticking	-13.2857
▁scoops	-13.2859
▁gratefully	-13.286
▁motorcycles	-13.2861
His	-13.2862
▁builder	-13.2869
▁caw	-13.287
Moo	-13.2877
▁otherwise	-13.2882
▁minding	-13.2887
▁learner	-13.2893
▁soda	-13.2906
▁hatched	-13.291
▁swapped	-13.292
▁seriously	-13.2925
Nothing	-13.2927
ba	-13.2934
▁bellies	-13.2934
▁movement	-13.2936
œWould	-13.2937
Try	-13.2944
▁Math	-13.2955
▁glistening	-13.296
▁Matthew	-13.2961
▁Stan	-13.2968
▁repeats	-13.2972
▁groom	-13.2972
▁theatre	-13.2973
▁Bruno	-13.2987
▁Flutter	-13.2999
▁booth	-13.3001
▁Skip	-13.3003
ent	-13.3025
▁Clare	-13.3026
▁absolutely	-13.3026
me	-13.3031
▁Hank	-13.3042
▁springing	-13.3045
▁Bea	-13.3048
▁connect	-13.305
▁capture	-13.3051
▁possibilities	-13.3065
▁sniffled	-13.3066
▁coop	-13.3069
Sitting	-13.3075
ation	-13.3077
▁persistence	-13.3079
▁rider	-13.308
▁ingredient	-13.3081
▁kangaroos	-13.3083
Pete	-13.3091
▁lever	-13.3108
▁strokes	-13.3124
▁Smoke	-13.3125
▁Could	-13.3127
po	-13.3132
▁soothing	-13.3145
▁bait	-13.3145
▁pollen	-13.3145
▁rinse	-13.3147
▁speaker	-13.3151
▁lasted	-13.3157
▁untangle	-13.3158
▁Freya	-13.3159
▁blamed	-13.3159
▁bumping	-13.3166
▁compromise	-13.3172
▁daily	-13.3172
▁stomp	-13.3173
▁hatch	-13.3174
▁huddle	-13.3175
Susie	-13.3197
œAre	-13.3216
▁Woof	-13.3219
ched	-13.3233
▁springtime	-13.324
▁bathed	-13.3242
▁racer	-13.3254
▁wrapper	-13.3257
▁blooms	-13.3265
▁wax	-13.3266
▁passenger	-13.327
▁smoothly	-13.3275
▁floppy	-13.328
▁desperately	-13.328
▁uncovered	-13.328
▁caution	-13.3294
▁goggles	-13.3294
▁mesmerised	-13.3307
▁progress	-13.3307
▁Nurse	-13.3308
▁trusts	-13.3309
▁pounds	-13.3316
Only	-13.332
▁rails	-13.332
▁cupboards	-13.332
▁chili	-13.3321
▁dolly	-13.3341
Ooh	-13.3346
▁bolt	-13.3352
▁Panda	-13.3365
▁recommendation	-13.3366
▁Things	-13.3367
▁deciding	-13.3375
▁headache	-13.3375
▁introducing	-13.3375
▁cooed	-13.3376
▁gates	-13.3378
ry	-13.3389
▁necessary	-13.3389
▁process	-13.3389
▁quacks	-13.339
▁stacking	-13.3392
▁disobeyed	-13.3404
shirt	-13.3406
▁cutest	-13.341
▁desperate	-13.3416
▁magnificent	-13.3417
▁roamed	-13.3417
▁Missy	-13.3422
▁date	-13.3423
▁yummiest	-13.3432
▁groups	-13.3444
▁messed	-13.3446
▁laces	-13.3452
▁slam	-13.3458
▁undone	-13.3458
▁shooed	-13.3459
▁bats	-13.3461
▁challenges	-13.3465
Baa	-13.3466
▁allergic	-13.3472
▁babysitter	-13.3472
▁rack	-13.3472
▁shoots	-13.3472
▁fooled	-13.3472
▁Doctor	-13.3475
▁obediently	-13.3477
▁piled	-13.3484
▁fond	-13.3487
▁stains	-13.3494
▁medals	-13.3494
▁sleigh	-13.3527
▁vinegar	-13.3527
▁drill	-13.3527
▁Pink	-13.3533
▁Which	-13.3534
▁confusion	-13.3541
▁exhibit	-13.3541
▁hovering	-13.3541
ub	-13.3542
▁co	-13.3543
▁JoJo	-13.3545
dy	-13.3551
▁purring	-13.3558
▁kinder	-13.3563
▁route	-13.3569
Leo	-13.3572
▁widely	-13.358
▁wanna	-13.3583
▁gulped	-13.3583
▁Bouncy	-13.3597
▁pecks	-13.3601
▁instincts	-13.3602
W	-13.3611
▁kissing	-13.3615
▁Years	-13.3619
▁pout	-13.3657
▁rinsed	-13.3668
▁loads	-13.3669
▁scratchy	-13.3671
▁Mumma	-13.3675
▁Instantly	-13.3681
▁greatest	-13.3685
ni	-13.369
▁ostriches	-13.3696
▁charged	-13.3697
co	-13.3706
usty	-13.3711
▁floors	-13.3722
▁nibbling	-13.3724
▁silently	-13.3724
ac	-13.3725
▁Moon	-13.3725
▁Lightning	-13.3728
Tweet	-13.3737
▁snoring	-13.3752
▁depths	-13.3756
▁lunchbox	-13.3766
oy	-13.377
▁army	-13.3787
▁doggie	-13.3787
ol	-13.3798
Isn	-13.3799
▁biscuit	-13.3802
▁blur	-13.3809
▁Sean	-13.3809
▁Nicky	-13.3811
og	-13.3814
this	-13.382
▁creak	-13.3821
▁meaning	-13.3822
▁Father	-13.3825
▁Muffin	-13.3825
▁tempting	-13.3838
▁hangs	-13.3853
Bless	-13.3853
▁borrowing	-13.3867
▁confidently	-13.3868
▁lizards	-13.3869
▁gladly	-13.3878
▁halves	-13.3881
▁squirted	-13.3881
▁Gogo	-13.3883
▁flavour	-13.3884
▁performers	-13.3887
▁sacks	-13.3894
▁Faith	-13.3895
▁zips	-13.3896
▁sweat	-13.3908
▁keen	-13.391
▁Olly	-13.3911
fived	-13.3915
▁challenged	-13.3917
▁musicians	-13.392
▁Otherwise	-13.3925
▁Off	-13.3928
▁rocky	-13.3938
▁indoors	-13.3939
▁speaks	-13.3944
▁listener	-13.3946
▁gradually	-13.3953
▁rooster	-13.3967
▁sparrow	-13.3967
▁carton	-13.3969
▁rotted	-13.3982
▁Was	-13.3986
▁sculpture	-13.3991
▁softest	-13.3994
▁Greg	-13.3999
▁gummy	-13.4011
▁Sleep	-13.4018
▁drip	-13.402
▁Though	-13.4026
▁globe	-13.404
ir	-13.4044
▁Boy	-13.4062
▁appearance	-13.4064
▁prank	-13.407
▁c	-13.407
▁ages	-13.4079
▁gooey	-13.4081
▁courageous	-13.4084
▁galloped	-13.4085
▁imaginations	-13.4094
▁Tell	-13.4111
▁toppings	-13.4112
▁shoelaces	-13.4119
▁differences	-13.413
▁Angel	-13.4132
Toby	-13.4135
▁Dee	-13.4142
▁Lydia	-13.4143
▁enclosure	-13.4143
▁plumber	-13.4143
▁Brother	-13.4148
▁tastiest	-13.4158
▁tiring	-13.4158
▁Puddles	-13.4158
▁sinking	-13.417
▁aprons	-13.4174
▁sets	-13.4175
▁crafts	-13.4176
▁Carly	-13.4179
▁Books	-13.4183
▁Want	-13.4186
▁science	-13.4188
▁niece	-13.4203
▁Billie	-13.4204
▁steered	-13.4205
▁peacefulness	-13.4205
▁Tia	-13.4207
œWill	-13.4207
can	-13.4215
▁soul	-13.4232
▁ladybird	-13.4234
▁freely	-13.4259
▁boiled	-13.4278
▁fuss	-13.4292
▁Pick	-13.4297
▁Too	-13.4304
▁hovered	-13.4307
▁Noah	-13.4308
▁dumb	-13.4322
▁scrubbing	-13.4322
▁pecking	-13.4324
▁Ma	-13.4333
▁webs	-13.4337
▁hare	-13.4344
▁folds	-13.4357
▁scrunched	-13.4368
▁Grumpy	-13.4368
▁stirs	-13.4369
▁guesses	-13.4369
▁baa	-13.4379
▁mustn	-13.4382
▁crushed	-13.4383
▁risky	-13.4383
Emily	-13.4384
▁hooks	-13.4397
▁J	-13.4398
▁slot	-13.4398
▁Mousy	-13.4398
▁stroller	-13.4398
Jump	-13.4399
▁brakes	-13.4415
ding	-13.4415
ily	-13.4428
▁Biggie	-13.4428
▁lilies	-13.4428
▁restoring	-13.4428
▁stinky	-13.4428
▁beeping	-13.4433
▁Wolf	-13.4445
▁snip	-13.4445
▁lightly	-13.4453
▁Mint	-13.4458
▁snuggling	-13.4459
▁mashed	-13.4459
▁hunger	-13.4459
▁signal	-13.4465
▁compass	-13.4474
▁macaroni	-13.4474
▁pounding	-13.4474
Guess	-13.4476
▁feathered	-13.4478
▁Wisdom	-13.4483
▁gorgeous	-13.4489
look	-13.449
▁leaped	-13.4491
▁dripped	-13.4505
▁Piggy	-13.4505
Playing	-13.4507
▁bud	-13.4517
▁dusted	-13.4519
▁stings	-13.4519
▁earrings	-13.4526
▁shortcut	-13.4535
▁state	-13.4535
Paul	-13.4537
▁ashes	-13.4538
▁occasions	-13.4543
▁W	-13.455
▁troll	-13.4551
▁fashionable	-13.4551
▁carefree	-13.4552
▁caps	-13.4554
▁regularly	-13.4556
▁softness	-13.4559
B	-13.4563
▁organised	-13.4566
▁THEOnce	-13.4579
▁Wiggly	-13.4581
▁petal	-13.4584
▁department	-13.4597
▁whiskers	-13.4597
▁valleys	-13.4606
▁experiment	-13.4608
ring	-13.4609
▁venture	-13.4611
▁desks	-13.4616
▁unicorns	-13.462
▁Doug	-13.4623
▁horrible	-13.4643
▁service	-13.4643
▁halfway	-13.4644
▁desserts	-13.4666
▁dump	-13.4686
▁Ned	-13.4687
▁majestic	-13.469
▁platform	-13.469
▁host	-13.4691
œMummy	-13.4694
▁H	-13.4695
enthusiastically	-13.4705
▁brightened	-13.4708
▁guided	-13.4709
œGo	-13.4717
▁alligators	-13.4728
▁laws	-13.4729
▁interest	-13.4734
▁narrow	-13.4736
▁files	-13.4737
▁builders	-13.4739
▁woken	-13.4751
▁clubs	-13.4764
▁disagreement	-13.4767
▁shaky	-13.4769
▁lantern	-13.4775
athy	-13.4778
▁length	-13.4784
▁bold	-13.4784
▁whines	-13.4792
▁pace	-13.4797
▁snowflake	-13.4799
▁mischief	-13.48
▁ordering	-13.4809
▁purchase	-13.4815
▁CD	-13.4815
like	-13.482
▁nightstand	-13.4833
▁Turtle	-13.4833
▁Nature	-13.4835
▁designer	-13.4847
▁information	-13.4848
▁Monster	-13.4851
▁deserves	-13.487
ive	-13.4879
▁ribbit	-13.4882
▁exercising	-13.4895
▁Joanne	-13.4895
▁unlocking	-13.4897
▁automobiles	-13.4904
▁comets	-13.4905
▁fright	-13.491
▁squawk	-13.4911
▁Audrey	-13.4911
▁community	-13.4911
▁scowled	-13.4911
▁rightful	-13.4937
▁overheard	-13.4943
▁Joseph	-13.4946
ippy	-13.4949
▁winners	-13.4969
▁displaying	-13.4975
▁champion	-13.4975
▁Caroline	-13.4975
▁sweetness	-13.4982
▁proved	-13.4995
▁actors	-13.5005
▁crunch	-13.5006
▁honeycomb	-13.5007
▁poop	-13.5008
▁Toys	-13.5015
▁Spark	-13.5023
▁cinema	-13.5024
▁Pearl	-13.5024
▁spice	-13.5039
▁praise	-13.5039
▁invisible	-13.504
osy	-13.5041
▁Mac	-13.5042
▁cheetah	-13.5056
▁twelve	-13.5056
ow	-13.5062
▁boarded	-13.5068
bo	-13.5086
▁nudged	-13.5089
tock	-13.5096
▁chains	-13.512
▁untangled	-13.5122
▁mate	-13.513
ier	-13.5132
▁competing	-13.5137
▁Nut	-13.5137
▁Isabella	-13.5137
▁Susy	-13.5138
all	-13.5139
▁hippos	-13.5141
ball	-13.5142
▁mats	-13.5143
▁batch	-13.515
▁devastated	-13.5153
▁Gail	-13.5154
▁Puppy	-13.5159
▁hates	-13.5167
▁Flash	-13.517
▁deck	-13.517
▁heights	-13.5172
ich	-13.5176
▁disobey	-13.5184
▁contained	-13.5193
▁Bernie	-13.5203
▁funniest	-13.5203
▁striking	-13.5203
▁mound	-13.5203
▁solid	-13.5203
▁Copper	-13.5204
Tina	-13.5207
▁panting	-13.5209
▁dedication	-13.5219
▁frisbee	-13.5219
▁frightening	-13.522
▁trailer	-13.5223
▁pearls	-13.5225
▁damp	-13.5239
▁atmosphere	-13.5252
▁dining	-13.5252
▁mend	-13.5256
clock	-13.5256
▁anybody	-13.5263
▁Marcy	-13.5269
▁zookeepers	-13.5271
Enjoy	-13.5273
land	-13.5277
▁carnival	-13.5285
▁enchanted	-13.5285
▁lighting	-13.5293
if	-13.5298
Fred	-13.5306
▁thrill	-13.5316
▁tingle	-13.532
▁whe	-13.5322
▁entering	-13.5332
▁respond	-13.5333
▁farthest	-13.5335
▁shimmered	-13.5335
Lola	-13.534
▁pancake	-13.5371
▁Hi	-13.5373
z	-13.5374
▁totally	-13.5386
▁sleeve	-13.5388
▁Shadow	-13.5388
▁p	-13.5395
▁scores	-13.54
▁Ostrich	-13.5402
▁managing	-13.5402
▁fiercely	-13.5408
▁mushy	-13.5419
▁Taylor	-13.542
▁nuggets	-13.5423
▁pads	-13.5428
▁strum	-13.5435
▁priest	-13.5435
▁backward	-13.5436
▁servants	-13.5445
▁Chicky	-13.5452
▁crispy	-13.5453
eading	-13.5465
▁doves	-13.5466
mo	-13.5467
▁launch	-13.5468
▁presence	-13.5469
▁blessed	-13.547
▁popsicle	-13.5472
ig	-13.548
Ice	-13.5486
▁Down	-13.5487
sorry	-13.5491
▁Squeak	-13.5492
▁Old	-13.5493
▁scrape	-13.5501
▁antlers	-13.5503
▁squish	-13.5518
▁carousel	-13.552
▁squawked	-13.5521
▁rumbled	-13.5524
age	-13.5529
▁stacks	-13.5534
▁cruel	-13.5537
▁nations	-13.5548
▁invention	-13.5554
▁Jemma	-13.5556
why	-13.5559
▁energized	-13.5571
▁considerate	-13.5571
▁maps	-13.5573
believe	-13.5576
œMe	-13.5577
▁Friend	-13.5581
▁reaction	-13.5588
▁birdseed	-13.5588
light	-13.5596
▁hoses	-13.5598
▁Greta	-13.5605
▁smoother	-13.5615
▁nets	-13.5617
▁Goldie	-13.5622
▁Mara	-13.5623
sh	-13.5635
▁peels	-13.5635
▁royal	-13.5639
▁tripping	-13.5641
don	-13.5645
▁Ch	-13.5649
▁reality	-13.5657
▁ducklings	-13.5662
▁correct	-13.5674
▁twitched	-13.5674
▁howl	-13.5675
▁wig	-13.5676
▁shots	-13.5677
▁Willie	-13.5679
▁Li	-13.5684
▁Turn	-13.5685
▁taps	-13.5686
▁addition	-13.5689
▁Matty	-13.5694
▁bill	-13.5696
▁palms	-13.5697
▁oars	-13.5701
œWait	-13.5714
▁dips	-13.5723
▁Isla	-13.5724
▁commotion	-13.5726
▁Open	-13.5739
▁code	-13.5743
▁threatened	-13.5743
▁handlebars	-13.575
▁ceremony	-13.576
▁delightful	-13.5761
▁attaching	-13.5776
▁practising	-13.5778
▁peeks	-13.5779
▁homeless	-13.578
▁sickness	-13.5781
▁braid	-13.5783
▁wrecked	-13.5785
▁La	-13.5786
ci	-13.5787
▁ripples	-13.58
Beware	-13.5801
Whoa	-13.5812
elsey	-13.5813
▁furious	-13.5813
▁tongues	-13.5822
▁blame	-13.5829
▁Jimbo	-13.5836
▁Yoga	-13.5837
▁spied	-13.5848
▁workshop	-13.5848
J	-13.5848
▁Alfie	-13.5849
▁seeking	-13.585
▁atop	-13.5853
▁Play	-13.5856
▁sneaking	-13.5858
Y	-13.5859
▁elders	-13.5861
▁skinny	-13.5865
▁swirled	-13.5884
▁runny	-13.5886
▁Ellen	-13.5886
ck	-13.5886
▁Eve	-13.5888
▁grumble	-13.5899
▁Confused	-13.59
▁loneliness	-13.59
▁polka	-13.59
▁chattered	-13.5901
▁Heidi	-13.5903
▁Cow	-13.5906
▁Thunder	-13.5907
▁winks	-13.5912
▁hind	-13.5916
ned	-13.5918
Mittens	-13.5925
▁rags	-13.5925
Make	-13.5925
so	-13.5931
▁campsite	-13.5936
▁gliding	-13.5936
▁studies	-13.5936
▁supermarket	-13.5936
▁bounded	-13.5936
▁Pop	-13.5937
▁calf	-13.5953
▁hoof	-13.5953
▁helicopters	-13.5966
▁impress	-13.597
▁Friendship	-13.5975
▁online	-13.5978
▁urging	-13.5989
▁dustpan	-13.5989
▁clothing	-13.5994
▁supplying	-13.6003
▁injuries	-13.6007
▁Oak	-13.6007
▁neighed	-13.6007
▁stained	-13.6009
▁avoided	-13.601
ul	-13.6014
▁Anytime	-13.6018
▁crouche	-13.604
▁connection	-13.6042
▁Cars	-13.6044
▁swirling	-13.6044
les	-13.6048
▁Nia	-13.606
▁painful	-13.6061
▁Purple	-13.6065
▁suggests	-13.607
▁porridge	-13.6078
▁tumbling	-13.6078
▁yuck	-13.6087
▁dives	-13.6088
▁horror	-13.6096
▁rods	-13.6096
▁freshly	-13.6102
▁saddle	-13.6108
▁Jump	-13.611
▁scaly	-13.6132
▁lurking	-13.6132
▁darted	-13.6132
▁journeys	-13.6133
▁possession	-13.614
Shoo	-13.6142
▁Paws	-13.6144
▁Alison	-13.615
▁Margaret	-13.615
▁pudding	-13.615
▁Chip	-13.615
▁Mole	-13.6155
▁Nibbles	-13.6168
um	-13.6168
▁weights	-13.617
▁Bailey	-13.617
cy	-13.6179
▁pitcher	-13.6189
ca	-13.6195
▁rustle	-13.6203
▁device	-13.6204
▁aback	-13.6205
▁Paw	-13.6211
▁voyage	-13.6223
▁Timothy	-13.6225
▁fans	-13.6229
Polly	-13.623
▁roller	-13.6237
ble	-13.6243
▁Orange	-13.6246
igzag	-13.6259
ment	-13.6263
▁Lu	-13.6269
▁Pa	-13.6274
▁dodging	-13.6277
▁Dragon	-13.6283
▁Sundays	-13.6296
▁knitting	-13.6296
creams	-13.6298
▁resisting	-13.6299
▁twirls	-13.6309
▁raked	-13.6312
▁pals	-13.6314
Sleep	-13.6322
▁Johnnie	-13.6323
▁solutions	-13.6329
▁attendant	-13.6332
▁Gilly	-13.6333
ish	-13.6335
▁disagreeing	-13.6339
▁Flop	-13.634
▁Faye	-13.6351
ally	-13.6353
▁snowing	-13.6354
œHere	-13.6366
▁Crusty	-13.6369
▁hurtful	-13.6377
▁glows	-13.6377
Mira	-13.6378
▁hammering	-13.6384
▁Find	-13.6385
▁harvest	-13.6386
▁offers	-13.6386
▁tutu	-13.6388
▁discussion	-13.6406
▁carve	-13.6408
œMum	-13.641
▁Pig	-13.641
▁Snap	-13.6414
▁Layla	-13.6424
▁Wilma	-13.6425
▁carriage	-13.6425
▁Justin	-13.6431
▁explode	-13.6434
▁clips	-13.6437
▁oceans	-13.645
▁stormy	-13.6453
Cool	-13.6455
ug	-13.6457
▁Cheese	-13.646
▁Bop	-13.6463
Working	-13.6464
▁fully	-13.6465
▁wetter	-13.6467
Shrink	-13.6481
▁tightened	-13.6482
œJohn	-13.6485
▁reappear	-13.6498
▁Duke	-13.6499
▁squirmed	-13.65
▁Albert	-13.6501
▁N	-13.6506
▁handles	-13.6519
▁protector	-13.6521
▁grandkids	-13.6523
▁perch	-13.6525
ap	-13.653
▁scar	-13.6533
▁Most	-13.6538
▁speedy	-13.6545
▁slightly	-13.6556
▁Arthur	-13.6557
▁Eating	-13.656
▁Mick	-13.6561
Everyone	-13.6564
▁Frustrated	-13.6574
▁Carrie	-13.6576
▁jumper	-13.6579
▁musical	-13.6585
▁Lea	-13.6585
▁Scott	-13.6593
▁pedalled	-13.6594
Bird	-13.6602
Something	-13.6602
▁dumped	-13.6613
▁Chess	-13.6616
▁Yellow	-13.6618
▁Willow	-13.6618
▁possessions	-13.6623
▁soggy	-13.6631
▁projects	-13.6632
▁recipes	-13.6633
▁threads	-13.664
▁performer	-13.6647
▁disgusted	-13.665
▁pairs	-13.6655
▁winking	-13.6657
▁Po	-13.666
▁distract	-13.6667
▁glimmer	-13.6667
▁rink	-13.6669
▁stiff	-13.6669
▁woodpecker	-13.6669
▁armor	-13.6673
red	-13.668
▁pizzas	-13.6681
▁potty	-13.6688
▁Cuddles	-13.6693
▁blob	-13.6695
▁vests	-13.6701
▁Flappy	-13.6707
▁lasers	-13.671
▁spoken	-13.6713
▁habit	-13.672
▁surrounding	-13.672
▁gardening	-13.6722
▁gruff	-13.6727
▁puffed	-13.6728
ge	-13.6742
▁wobbles	-13.6744
▁settling	-13.6746
▁Fly	-13.6748
From	-13.6755
▁racers	-13.6761
▁grandchildren	-13.6765
▁studio	-13.6765
▁unkind	-13.6765
▁double	-13.6784
ity	-13.6787
▁riches	-13.6789
▁Close	-13.6795
▁hideout	-13.6798
▁streaming	-13.6798
ped	-13.6799
▁Jolly	-13.6803
▁begun	-13.6803
▁ray	-13.6808
▁embrace	-13.6822
▁Ivy	-13.6823
▁Fishy	-13.6823
▁unload	-13.6859
▁Jumpy	-13.6862
▁Alexa	-13.6866
▁smoothie	-13.6868
hearted	-13.6873
▁More	-13.688
▁Janice	-13.6881
▁carved	-13.6882
▁Bree	-13.69
▁glistened	-13.69
▁floaty	-13.6905
œBecause	-13.6906
▁owning	-13.6907
▁gorillas	-13.6919
Mike	-13.693
ous	-13.6938
rd	-13.6939
▁Charles	-13.6939
▁granny	-13.6939
Dog	-13.6939
▁Crab	-13.6943
espect	-13.6947
▁sculptures	-13.6947
▁scientists	-13.6949
smelling	-13.695
▁suitcases	-13.6957
▁pavement	-13.6959
▁quicker	-13.6963
▁contentment	-13.6979
▁Sid	-13.6986
▁scooping	-13.6987
▁obstacles	-13.6993
▁beaks	-13.6995
▁plow	-13.6998
▁parking	-13.7006
▁spirits	-13.7007
▁tales	-13.7017
▁saxophone	-13.7018
▁Dylan	-13.7021
▁values	-13.7025
▁exams	-13.7025
▁cloths	-13.7028
▁adventurers	-13.7033
▁tours	-13.7033
▁Petey	-13.7035
▁clover	-13.7037
▁shame	-13.7037
ke	-13.7048
▁outcome	-13.7053
▁squeal	-13.7055
▁Nelly	-13.7058
ice	-13.7065
▁pounce	-13.7076
▁autumn	-13.7077
▁Surprised	-13.7077
ag	-13.7088
▁croak	-13.709
ari	-13.7092
▁pail	-13.7097
▁arrested	-13.7098
▁ruled	-13.7103
▁massages	-13.7107
▁jeans	-13.7117
▁snarled	-13.7117
▁squirt	-13.7118
▁Furry	-13.7118
ace	-13.712
Silly	-13.7128
pa	-13.7133
▁equally	-13.7137
▁interrupted	-13.7137
▁holidays	-13.7141
▁refusing	-13.7157
▁partner	-13.7157
▁scolding	-13.7159
▁steaming	-13.7174
▁reckless	-13.7176
▁Lauren	-13.7178
▁Wise	-13.7179
olly	-13.7183
Wake	-13.7188
▁lumpy	-13.7197
▁Gerry	-13.7199
ine	-13.7207
▁buckles	-13.7212
▁tents	-13.7214
▁beg	-13.7215
▁vast	-13.7217
▁explanation	-13.7217
▁tingling	-13.7217
Trust	-13.7228
▁thoughtfully	-13.723
▁mixes	-13.724
ky	-13.7252
her	-13.7254
▁suspicious	-13.7257
▁Lexi	-13.7257
▁Spanish	-13.7257
▁abandoned	-13.7257
▁payoff	-13.7257
▁nightfall	-13.7258
▁spelling	-13.726
▁Nan	-13.7269
▁jogger	-13.7274
ning	-13.7274
▁creepy	-13.7277
▁scribbled	-13.7278
▁lovingly	-13.7279
▁Jam	-13.7284
œHelp	-13.7294
▁hammered	-13.7306
op	-13.7317
▁bobbed	-13.7318
▁respecting	-13.7326
ot	-13.7328
Magic	-13.733
▁mailing	-13.7332
▁jaws	-13.7333
▁Gia	-13.7338
More	-13.7351
▁patting	-13.736
▁skips	-13.7361
▁instant	-13.7379
▁boulder	-13.7379
▁terribly	-13.7379
▁undo	-13.7379
▁Ada	-13.738
▁Benjamin	-13.738
▁tanks	-13.7393
▁godmother	-13.7399
▁trudged	-13.7399
▁fist	-13.7417
▁swat	-13.7419
▁Melody	-13.742
▁extremely	-13.742
▁begs	-13.7424
ley	-13.7427
▁Elizabeth	-13.744
▁chirps	-13.7445
Everything	-13.7452
▁curves	-13.7461
▁exchanged	-13.7463
▁Cleaning	-13.7466
ka	-13.7468
▁Car	-13.747
▁independence	-13.7481
▁Near	-13.7481
▁joyous	-13.7483
▁witches	-13.7484
▁misty	-13.7488
▁litter	-13.7488
▁sells	-13.7499
▁accepting	-13.7501
de	-13.7519
▁Y	-13.752
▁ruffled	-13.7523
▁Much	-13.7527
▁charity	-13.7544
▁juggling	-13.7544
▁sleeps	-13.7547
▁stretchy	-13.7554
▁harmful	-13.7565
▁unloaded	-13.7565
▁cluck	-13.7586
▁succeeding	-13.7601
▁escaping	-13.7606
▁sweeping	-13.7609
▁splitting	-13.7612
▁Cookies	-13.7612
Friends	-13.7615
Sharing	-13.7619
pe	-13.7624
▁Africa	-13.7627
▁chooses	-13.7627
▁position	-13.7648
▁Hugo	-13.7648
▁disappears	-13.7649
▁captured	-13.765
▁somehow	-13.7659
▁chewy	-13.766
filled	-13.7662
off	-13.7666
line	-13.7668
▁stomachs	-13.767
▁stomping	-13.7671
▁capes	-13.7676
Hop	-13.7682
Lena	-13.7682
▁yawns	-13.7685
▁roam	-13.7688
▁Angie	-13.769
▁Percy	-13.769
▁peculiar	-13.769
▁Spirit	-13.7692
▁White	-13.7692
▁bare	-13.7697
▁complicated	-13.7711
▁dries	-13.7711
▁lifetime	-13.7713
▁crouch	-13.7714
ster	-13.7725
▁spaces	-13.7729
▁Birds	-13.7731
▁wicked	-13.7732
▁strummed	-13.7732
▁fishermen	-13.7732
▁sly	-13.7736
rs	-13.7738
▁reader	-13.7742
obot	-13.7744
▁hoo	-13.7751
▁stripe	-13.7767
▁Blink	-13.7774
▁Otto	-13.7775
▁proceed	-13.7775
▁Boom	-13.7788
▁raises	-13.7795
▁pendant	-13.7796
okay	-13.781
▁journeyed	-13.781
ichard	-13.7817
▁buddies	-13.7817
▁Sh	-13.7822
Should	-13.7831
▁flyer	-13.7831
▁compare	-13.7838
▁curve	-13.7838
Cat	-13.7852
▁richer	-13.7869
▁railing	-13.7877
▁kindest	-13.7879
▁zig	-13.7882
▁volcanoes	-13.7883
▁Afterward	-13.7886
▁Dora	-13.7888
▁tucks	-13.7889
▁site	-13.7893
▁grains	-13.7893
▁b	-13.7898
▁juggle	-13.7901
▁strict	-13.7903
bird	-13.7909
▁wiggles	-13.7911
Move	-13.7912
aring	-13.7916
▁erasers	-13.7925
▁concentrated	-13.7926
war	-13.7927
▁fail	-13.7944
▁panicking	-13.7946
▁accidently	-13.7949
▁fights	-13.7951
▁Nei	-13.7955
Blue	-13.7961
▁blush	-13.7966
▁defend	-13.7966
▁quizzes	-13.7968
▁droplets	-13.7968
▁sneakers	-13.7968
oxy	-13.7969
ist	-13.7985
▁loosen	-13.7985
▁arrange	-13.7989
▁North	-13.799
▁lobby	-13.799
▁wrinkly	-13.799
H	-13.799
▁abilities	-13.8011
▁quarrelling	-13.8012
▁scuttled	-13.8012
▁Peace	-13.8021
▁separating	-13.8033
▁wriggling	-13.8033
▁anyways	-13.8034
Poppy	-13.8048
▁subjects	-13.805
▁mast	-13.8051
▁Yet	-13.8055
▁Jasper	-13.8055
▁tightrope	-13.8055
iness	-13.8064
▁stretcher	-13.8067
stop	-13.8068
▁stares	-13.8069
▁handy	-13.8071
▁concentrate	-13.8076
▁crosses	-13.808
▁Miles	-13.8081
▁pineapple	-13.8099
▁supportive	-13.8099
œStop	-13.8099
▁squashes	-13.81
Grow	-13.811
▁snuggles	-13.8111
Hooray	-13.8114
▁sung	-13.8116
▁Lo	-13.8118
▁striped	-13.8131
.'"	-13.8135
▁grinning	-13.8143
▁sleepover	-13.8152
▁Jules	-13.8165
▁waitress	-13.8165
▁Singing	-13.8165
▁attempt	-13.8166
▁flowed	-13.8166
True	-13.818
▁dialed	-13.8188
▁curved	-13.8188
▁zigzags	-13.8208
▁glimpse	-13.8209
▁Anya	-13.8209
▁nursery	-13.821
▁hurrying	-13.8219
▁Maxine	-13.822
▁chicks	-13.8228
▁rattle	-13.823
ino	-13.8232
▁West	-13.8233
▁crunching	-13.8233
▁detective	-13.8234
eyed	-13.825
▁swoop	-13.8252
▁moderation	-13.8254
▁numbered	-13.8254
▁Catty	-13.8254
▁unfolded	-13.8254
▁cigarette	-13.8256
▁strolling	-13.8256
▁sealed	-13.826
▁wrappers	-13.827
▁approval	-13.8276
▁fading	-13.8276
▁liar	-13.8276
▁raincoats	-13.8276
▁Nathan	-13.8277
▁showers	-13.8282
▁stitched	-13.8284
▁importantly	-13.8286
va	-13.8289
Whenever	-13.8291
▁conversations	-13.8293
▁Bethany	-13.8301
œMama	-13.8307
py	-13.8319
▁favor	-13.8321
▁overflowing	-13.8321
▁skate	-13.8322
▁Piper	-13.8323
▁Diana	-13.8324
▁Sister	-13.8326
free	-13.8335
▁hopeless	-13.8335
Close	-13.8336
fi	-13.834
▁bleeds	-13.8341
▁speck	-13.8343
▁flakes	-13.8343
▁Nellie	-13.8345
▁bruise	-13.8346
▁dodge	-13.8346
▁cutter	-13.8351
▁flippers	-13.8352
▁envy	-13.8366
▁staircase	-13.8366
▁packet	-13.8366
Careful	-13.8366
▁scooted	-13.8366
▁trunks	-13.8367
▁Juice	-13.8371
▁Mister	-13.8379
▁Marty	-13.8388
▁fourth	-13.8389
▁Music	-13.8393
▁Shall	-13.8403
▁Peek	-13.8404
good	-13.8408
mi	-13.841
▁chugged	-13.8411
▁shuffled	-13.8411
▁posters	-13.8413
▁de	-13.8414
▁Prune	-13.8415
▁coconut	-13.8415
▁strikes	-13.8416
▁layer	-13.8417
▁Should	-13.8419
▁playfully	-13.8419
▁motions	-13.8427
▁brighten	-13.8427
▁crust	-13.8429
▁Ding	-13.843
▁grumbling	-13.8434
▁pickles	-13.8446
▁whisk	-13.8455
▁sandals	-13.8456
▁Monica	-13.8459
Dan	-13.846
ward	-13.8467
▁Spider	-13.8473
Bunny	-13.8473
▁Land	-13.8478
ant	-13.8478
▁Simba	-13.8479
▁Stephanie	-13.8479
▁nephew	-13.8479
▁clucked	-13.848
▁leaping	-13.8482
nie	-13.849
▁grownups	-13.8492
▁lectures	-13.8497
▁honor	-13.8501
▁farewell	-13.8502
▁contentedly	-13.8502
▁streak	-13.8502
▁rustled	-13.8503
▁Ernie	-13.8505
▁Toni	-13.8514
▁forced	-13.8518
Three	-13.8519
▁contents	-13.8522
▁thirst	-13.8524
▁cinnamon	-13.8525
▁boomed	-13.8531
▁owls	-13.8535
▁vitamins	-13.8535
▁snatch	-13.8537
Ella	-13.8542
▁kneels	-13.8543
▁passion	-13.8548
Lilly	-13.8565
▁streams	-13.8569
▁glide	-13.857
▁biscuits	-13.8582
come	-13.8584
▁Jade	-13.8594
▁Crystal	-13.8594
▁collage	-13.8594
▁firewood	-13.8594
▁seated	-13.8609
car	-13.8613
▁smash	-13.8615
▁snore	-13.8616
mon	-13.8616
▁ecstatic	-13.8617
▁elder	-13.8622
▁stalks	-13.8625
ho	-13.8628
▁Anything	-13.8629
▁dodges	-13.8636
▁orchard	-13.864
▁Bright	-13.864
▁Angela	-13.864
▁switches	-13.8641
▁setup	-13.8647
▁loser	-13.8652
▁events	-13.8656
May	-13.8658
Mimi	-13.8658
▁warming	-13.8658
▁Stretch	-13.8662
▁Sal	-13.8663
▁aisles	-13.8663
▁timidly	-13.8663
▁spades	-13.8675
▁curls	-13.8684
Say	-13.8686
▁Gradually	-13.8686
▁fists	-13.8689
▁tiptoes	-13.8691
bi	-13.87
▁limits	-13.8702
▁guilt	-13.8709
▁timid	-13.871
▁excellent	-13.871
▁ogre	-13.871
▁snipped	-13.871
▁tiara	-13.871
▁stems	-13.8714
▁training	-13.8715
▁surrendering	-13.8728
▁requests	-13.8728
Mmmm	-13.8732
▁stunned	-13.8733
▁bled	-13.8733
epeat	-13.8733
iest	-13.8734
▁Small	-13.8735
▁crumb	-13.8739
▁obstacle	-13.8739
▁missiles	-13.8748
▁sleeves	-13.8753
▁cheesy	-13.8757
▁stunning	-13.8757
▁wondrous	-13.8757
▁inspected	-13.8757
▁hardworking	-13.8759
œyou	-13.8759
▁outer	-13.8763
▁Eat	-13.8777
▁appears	-13.8778
▁Skelly	-13.878
▁bobbing	-13.878
▁begging	-13.878
▁thinner	-13.878
▁fulfilled	-13.878
▁bead	-13.878
œDaddy	-13.8785
▁goo	-13.8798
Sophie	-13.8798
nderneath	-13.8804
▁cities	-13.8804
▁nanny	-13.8804
▁Marcus	-13.8804
▁descended	-13.8804
▁Emmie	-13.8804
ian	-13.8804
▁fitting	-13.8805
▁Manny	-13.8808
ru	-13.8818
lu	-13.8822
œJust	-13.883
▁neigh	-13.8838
ak	-13.8845
▁zippers	-13.8846
▁Dina	-13.8851
▁banks	-13.8853
▁newly	-13.8853
▁Imagine	-13.8853
▁combing	-13.886
▁guidance	-13.8874
▁behold	-13.8874
▁surprisingly	-13.8875
Ahh	-13.8881
ound	-13.8894
Lia	-13.8897
aylee	-13.8898
▁tickly	-13.8899
▁Amen	-13.8908
▁slither	-13.892
▁exact	-13.8922
▁Dizzy	-13.8922
▁clothesline	-13.8924
▁antennae	-13.8946
▁Erin	-13.8949
▁guarded	-13.8952
▁screech	-13.8968
Writing	-13.897
▁Hour	-13.897
▁Pup	-13.8971
▁deeds	-13.8977
▁anxiously	-13.8977
hand	-13.8985
▁Beary	-13.8985
▁unlike	-13.8994
▁Burt	-13.8994
hy	-13.8994
▁None	-13.8996
▁Jelly	-13.8997
▁drags	-13.9013
▁Michelle	-13.9018
▁confusing	-13.9018
▁wobbling	-13.9018
▁resumed	-13.9018
▁shoreline	-13.9018
▁mustaches	-13.9021
▁ballet	-13.9021
▁cracking	-13.9026
▁poles	-13.9029
uit	-13.9029
▁promising	-13.9042
▁tablecloth	-13.9042
▁cursed	-13.9043
▁pastor	-13.9044
▁skating	-13.9045
▁experiments	-13.9045
▁climber	-13.9053
▁melts	-13.9053
▁Believe	-13.9056
gi	-13.9062
▁chatter	-13.9064
▁Paige	-13.9066
▁balcony	-13.9066
▁salsa	-13.9066
▁unzip	-13.9066
▁greater	-13.907
Got	-13.9073
▁options	-13.9085
▁shields	-13.9087
placing	-13.909
▁stylish	-13.909
▁tippy	-13.9091
▁ironing	-13.9091
▁roasted	-13.9091
▁securely	-13.9092
cu	-13.9096
Momma	-13.9099
▁Win	-13.9101
▁Drop	-13.9102
ated	-13.9103
▁acrobats	-13.9105
▁targets	-13.9106
▁Hanna	-13.9115
aitlyn	-13.9115
ec	-13.9116
▁sicker	-13.9134
▁Fran	-13.9134
▁toothpaste	-13.9139
▁adventurer	-13.914
▁background	-13.9141
▁Bean	-13.9143
indness	-13.916
▁emergencies	-13.9163
▁sprung	-13.9163
▁delaying	-13.9181
wow	-13.9184
▁vacuum	-13.9187
▁replacing	-13.9188
▁parrots	-13.9191
coloured	-13.9208
▁Thanksgiving	-13.9212
▁captivated	-13.9212
▁Carlos	-13.9212
▁phones	-13.9221
▁releasing	-13.9237
▁Ginny	-13.9237
▁Grandad	-13.9237
▁pricked	-13.9237
▁Cream	-13.924
▁Doing	-13.9254
ny	-13.9255
▁heated	-13.9256
▁Meow	-13.9261
▁fanciest	-13.9261
▁Barky	-13.9262
▁fixes	-13.9274
▁Dove	-13.9276
▁choke	-13.9285
▁Surprisingly	-13.9286
▁barbecue	-13.9286
▁Edward	-13.9286
▁recovered	-13.9286
▁guitars	-13.9308
▁lens	-13.9311
▁Nell	-13.9312
▁Jenn	-13.9312
▁glimmered	-13.9312
ance	-13.9312
ya	-13.9314
▁Sugar	-13.9316
▁props	-13.9317
ake	-13.932
▁Promise	-13.9327
▁Mason	-13.9336
▁hint	-13.9336
Found	-13.9337
▁lace	-13.9352
▁yielding	-13.9354
▁v	-13.9358
▁arrest	-13.936
▁destruction	-13.9361
▁Mi	-13.9362
▁cucumbers	-13.9384
▁fool	-13.9385
Blech	-13.9386
▁Phoebe	-13.9386
▁smoky	-13.9386
▁islands	-13.9387
▁lately	-13.9388
▁mold	-13.9396
▁flavours	-13.9397
▁pe	-13.9398
▁Bees	-13.94
▁mac	-13.9403
▁channel	-13.9411
▁Gertie	-13.9411
▁Mollie	-13.9411
▁cornfield	-13.9411
▁Bobbi	-13.9416
Fly	-13.9432
▁infection	-13.9436
side	-13.9446
welcome	-13.9457
Josh	-13.9457
▁caf	-13.9459
▁squatted	-13.9461
▁Louie	-13.9461
▁Bones	-13.9479
▁howling	-13.9481
▁praises	-13.9485
▁Mindy	-13.9486
▁Stacy	-13.9487
oot	-13.9488
print	-13.9495
▁grain	-13.9499
▁skates	-13.9508
With	-13.9508
▁roast	-13.9509
▁innocent	-13.9511
▁Silver	-13.9511
▁ponytail	-13.9511
▁foreshadowed	-13.9511
▁appetite	-13.9511
▁perked	-13.9511
▁slithering	-13.9512
▁cooks	-13.9527
▁Co	-13.9528
ok	-13.9532
▁unwrap	-13.9536
▁blurry	-13.9536
▁Wa	-13.9537
▁cables	-13.955
Eat	-13.9558
▁wrists	-13.956
▁crooked	-13.9562
ving	-13.9563
▁bubbled	-13.9566
▁fixer	-13.9575
ga	-13.9582
▁potential	-13.9587
▁session	-13.9587
▁whirled	-13.9588
▁oink	-13.959
▁clu	-13.9596
▁carelessly	-13.9596
▁outing	-13.9602
▁Wiggles	-13.9609
La	-13.9609
▁Bubble	-13.9609
Bear	-13.9611
▁conquer	-13.9612
▁Jesus	-13.9613
▁haystack	-13.9613
▁pinches	-13.9614
▁classes	-13.9615
▁Three	-13.9619
▁weed	-13.9622
ail	-13.9625
▁gaining	-13.9629
▁bills	-13.9631
▁Alicia	-13.9638
▁advantage	-13.9638
▁goblin	-13.9638
▁Jackson	-13.9639
▁Barney	-13.964
▁suck	-13.9662
▁challenging	-13.9664
▁victorious	-13.9664
▁snuggly	-13.9664
▁Wink	-13.9664
▁dirtier	-13.9665
now	-13.9666
arl	-13.9672
Car	-13.9677
▁ducked	-13.9679
œJack	-13.9685
Annie	-13.9687
▁report	-13.9687
▁arrives	-13.9689
▁Intrigued	-13.969
▁cloak	-13.969
▁involved	-13.969
▁Whistle	-13.9693
▁Bloom	-13.9694
▁bangs	-13.97
pi	-13.9702
▁quality	-13.9715
▁Stephen	-13.9716
▁sweating	-13.9717
der	-13.9723
▁hobby	-13.9741
▁retrieved	-13.9742
▁embraced	-13.9743
▁selfishness	-13.9745
▁lunged	-13.9748
work	-13.9757
▁shaker	-13.9758
Imagine	-13.9764
▁receiving	-13.9767
▁tastier	-13.9767
▁combs	-13.9768
▁Harriet	-13.9769
▁Bugs	-13.9769
▁useless	-13.978
pped	-13.978
gy	-13.9785
▁pee	-13.9789
Climb	-13.979
Phew	-13.979
▁disappoint	-13.9792
▁Lacey	-13.9793
▁bruised	-13.9794
Aw	-13.9799
▁Whee	-13.9811
dog	-13.9816
▁Plus	-13.9819
▁fifty	-13.9819
▁creaked	-13.9821
▁Dancing	-13.9824
▁Cake	-13.9829
▁rarely	-13.9831
ev	-13.9833
▁Helping	-13.9843
▁gulp	-13.9844
▁bask	-13.9845
▁raisins	-13.9855
▁coolness	-13.9858
▁silk	-13.9871
▁heaviest	-13.9872
▁bullies	-13.9872
▁Ed	-13.9875
▁Brave	-13.9875
▁greeting	-13.9875
▁sunk	-13.9876
who	-13.988
Ten	-13.9896
▁Melanie	-13.9898
▁awaited	-13.9898
▁carts	-13.9911
▁accessories	-13.9924
▁injury	-13.9924
▁magpie	-13.9924
j	-13.9925
▁slime	-13.9926
▁miner	-13.993
▁Tuesdays	-13.9943
▁clam	-13.995
▁whirring	-13.9951
▁marvel	-13.9968
▁dim	-13.997
x	-13.9971
▁stump	-13.9976
▁thirty	-13.9977
▁storybook	-13.9978
▁Debbie	-13.9978
▁shades	-13.9982
▁Number	-13.9986
▁Isabel	-14.0003
▁construction	-14.0003
▁Sad	-14.0004
▁summertime	-14.0004
▁starry	-14.0006
▁Annabel	-14.0012
▁elbows	-14.0022
▁Pingu	-14.003
Eww	-14.003
▁hurriedly	-14.0033
▁feared	-14.0033
▁howled	-14.0035
▁bending	-14.004
Ellie	-14.0055
Alex	-14.0055
▁scrunch	-14.0056
▁Becca	-14.0057
▁obliged	-14.0057
▁spotless	-14.0058
Brrr	-14.0062
▁walkie	-14.0064
▁repairs	-14.0065
od	-14.0074
keeper	-14.008
▁rises	-14.0082
▁trails	-14.0082
▁Beatrice	-14.0083
▁ungrateful	-14.0083
▁broomstick	-14.0083
▁embarrassment	-14.0083
▁eyeshadow	-14.0083
▁admitted	-14.0084
▁cleverness	-14.0088
▁Butter	-14.01
saw	-14.0101
Grace	-14.0108
▁Gloria	-14.011
▁dragging	-14.011
▁glinting	-14.0111
Young	-14.0121
ber	-14.0123
▁Joel	-14.0124
eal	-14.0127
▁Dinner	-14.0128
▁gleaming	-14.0137
▁Club	-14.0139
▁Juliet	-14.0139
▁School	-14.0143
▁yelps	-14.0144
▁Mild	-14.0145
talkie	-14.0145
Congratulations	-14.0162
▁looped	-14.0162
▁Jet	-14.0164
▁Marco	-14.0164
▁hooked	-14.0165
▁homemade	-14.0168
▁risen	-14.0169
▁raw	-14.0171
▁pointer	-14.018
▁prices	-14.018
▁afloat	-14.0191
▁crashes	-14.0192
▁warns	-14.0193
▁Merry	-14.0203
▁War	-14.0211
▁remaining	-14.0211
▁Buttons	-14.0212
▁erupt	-14.0216
Ta	-14.0218
▁excuse	-14.0218
▁suggesting	-14.0222
▁Steal	-14.0224
▁Moe	-14.0228
Mrs	-14.0232
ki	-14.024
▁Pizza	-14.024
▁Alfred	-14.0245
▁eleven	-14.0245
▁surfer	-14.0266
Twinkle	-14.0271
▁handled	-14.0272
▁teddies	-14.0273
▁bandaged	-14.0282
▁driven	-14.029
ger	-14.0291
for	-14.0301
friend	-14.0301
▁Spotty	-14.0301
Her	-14.0302
▁Cora	-14.0307
▁Wake	-14.0313
▁stalk	-14.0318
▁Brooke	-14.0327
▁Winnie	-14.0327
▁Stripey	-14.0328
▁Junior	-14.0329
▁fired	-14.0332
▁views	-14.0333
Freeze	-14.0354
Adam	-14.0354
just	-14.0354
▁marveling	-14.0356
▁chattering	-14.0356
Being	-14.0367
▁coo	-14.037
▁Drink	-14.0381
▁breadcrumbs	-14.0382
▁rejoiced	-14.0382
▁Eli	-14.0388
ud	-14.0388
ira	-14.0405
▁meets	-14.042
▁remains	-14.0435
▁sniffling	-14.0438
▁silky	-14.0438
▁limped	-14.0438
dle	-14.0439
▁tossing	-14.0445
pon	-14.0456
Free	-14.0465
Surrender	-14.0465
▁Ethan	-14.0466
▁disobedient	-14.0466
▁grazing	-14.0466
▁Standing	-14.0466
▁erupted	-14.0466
▁frames	-14.0467
▁tending	-14.0467
▁mended	-14.0467
▁Lady	-14.047
▁plump	-14.047
rch	-14.0476
!'"	-14.0479
▁blond	-14.048
▁earthquakes	-14.048
era	-14.0483
iding	-14.0483
▁remov	-14.0486
▁luxurious	-14.0493
▁sundae	-14.0493
▁Nearby	-14.0493
▁cranky	-14.0493
▁wilted	-14.0494
board	-14.0496
▁Asked	-14.0497
where	-14.0501
my	-14.0503
▁hoot	-14.0511
▁Abbi	-14.052
▁Cody	-14.0521
▁Hippy	-14.0521
▁crackling	-14.0522
▁preventing	-14.0544
▁drown	-14.0547
▁crisp	-14.0549
▁trousers	-14.0549
▁fondly	-14.055
▁con	-14.0564
▁Animals	-14.057
▁contented	-14.057
ging	-14.0576
▁gnome	-14.0577
▁imaginative	-14.0577
▁private	-14.0577
▁combined	-14.0578
▁coaster	-14.0578
▁birdies	-14.0579
▁grownup	-14.0584
▁ladybugs	-14.0586
▁Trees	-14.0595
▁snails	-14.0601
▁coast	-14.0605
ary	-14.0605
▁murky	-14.0606
▁flipping	-14.0606
▁whizzed	-14.0606
▁urges	-14.0613
▁Him	-14.0623
Poor	-14.0633
Woo	-14.0641
▁blinks	-14.066
▁adopt	-14.0661
▁assured	-14.0662
▁principal	-14.0662
▁creaking	-14.0664
▁enjoys	-14.0674
eggie	-14.0691
▁Tabby	-14.0691
▁impact	-14.0691
▁lawyers	-14.0691
▁Tippy	-14.0692
▁plus	-14.0709
▁yelp	-14.071
▁popsicles	-14.0713
▁affect	-14.0718
▁Piggie	-14.0719
▁mustard	-14.0719
upert	-14.0719
▁Dawn	-14.0722
▁drifting	-14.0724
▁colouring	-14.0738
▁wasteful	-14.0739
▁mini	-14.0742
▁plank	-14.0744
▁Salt	-14.0744
Grab	-14.0747
▁reins	-14.0748
▁trimmed	-14.0748
hoo	-14.0748
rr	-14.0753
▁Winter	-14.0754
ite	-14.0758
king	-14.076
▁Puff	-14.0776
▁Agnes	-14.0776
▁album	-14.0776
▁quitting	-14.0783
▁booming	-14.0787
▁caves	-14.0791
▁stubb	-14.0796
▁Madeline	-14.0805
▁tiredness	-14.0821
ever	-14.0825
▁Donna	-14.0825
▁trophies	-14.0834
▁oohed	-14.0834
▁existed	-14.0834
▁nightlight	-14.0839
▁forwards	-14.0843
rex	-14.0861
▁pluck	-14.0862
▁Melinda	-14.0863
▁whining	-14.0863
▁Jesse	-14.0864
▁cawed	-14.0865
Catch	-14.0865
Ted	-14.0867
▁buds	-14.0868
▁replies	-14.0892
▁Cherry	-14.0892
itten	-14.0892
▁disturbance	-14.0892
Miss	-14.0892
▁Owen	-14.0892
▁uniting	-14.0921
▁skateboard	-14.0921
▁spiral	-14.0921
▁resolved	-14.0921
▁apartment	-14.0921
▁sucked	-14.0922
▁Jose	-14.0929
ump	-14.093
▁gobble	-14.0938
▁chaos	-14.095
▁liking	-14.095
ipper	-14.0951
▁Park	-14.0967
▁kill	-14.0977
▁wriggle	-14.0978
▁amusement	-14.0979
▁frantically	-14.0979
ictory	-14.0979
▁copies	-14.098
▁friendships	-14.0981
▁resources	-14.0983
▁forming	-14.0984
▁notices	-14.0991
▁Butterfly	-14.0995
▁grandparent	-14.1003
▁achieving	-14.1008
▁adored	-14.1008
▁foreshadowing	-14.1009
handed	-14.101
▁pea	-14.1011
▁feeder	-14.1012
▁clearer	-14.1021
œBye	-14.1022
ened	-14.1027
bu	-14.1028
▁locking	-14.1033
▁glory	-14.1038
▁storing	-14.1038
▁Sylvia	-14.1039
▁gestures	-14.1039
▁nuzzles	-14.1041
▁Sweetie	-14.1052
▁stalls	-14.1056
▁crumble	-14.1067
▁lolly	-14.1067
▁huffed	-14.1068
nowing	-14.1069
▁messing	-14.107
▁folders	-14.1078
aya	-14.1088
▁dial	-14.1091
▁scurry	-14.1096
▁emptied	-14.1097
▁Pole	-14.1097
▁Harold	-14.1099
▁Hippo	-14.11
▁mastered	-14.1102
▁Pickles	-14.1111
ooh	-14.1112
▁cocked	-14.1127
▁Ask	-14.1127
▁Lara	-14.1127
▁sharpen	-14.1132
▁impatiently	-14.1135
▁crackle	-14.1136
▁cutters	-14.1152
▁Biscuit	-14.1156
▁stumbling	-14.1156
▁Learning	-14.1157
everse	-14.1157
▁squealing	-14.1158
▁Tooth	-14.1158
▁messier	-14.116
▁Coal	-14.1168
Ann	-14.1171
well	-14.1178
end	-14.118
▁jingle	-14.1185
▁Aaron	-14.1186
▁Seth	-14.1186
▁dice	-14.1187
Drink	-14.1187
▁Lynn	-14.119
▁leopards	-14.1191
▁Stripes	-14.1196
▁owe	-14.1196
▁grounded	-14.1196
rays	-14.1204
lung	-14.1208
▁due	-14.121
▁announcement	-14.1216
▁hungrier	-14.1216
▁rosy	-14.1216
Cindy	-14.1218
ide	-14.1218
ze	-14.122
▁squeaking	-14.1222
sky	-14.1228
▁dis	-14.123
▁barrels	-14.1242
iv	-14.1246
▁regretful	-14.1246
▁runners	-14.1253
Tell	-14.1257
▁snort	-14.127
▁patients	-14.1272
fish	-14.1273
▁doorknob	-14.1276
▁Mika	-14.1279
▁Goose	-14.1279
▁fastened	-14.1281
▁Chew	-14.1282
▁Beef	-14.1284
▁paste	-14.1297
Ch	-14.1303
ouch	-14.1306
▁equal	-14.1306
▁drummer	-14.1307
Milly	-14.1308
▁Trevor	-14.1308
▁Sami	-14.1313
▁cr	-14.1316
ner	-14.1324
▁rung	-14.1327
▁sounding	-14.1331
▁attract	-14.1336
how	-14.1336
▁plunge	-14.1337
▁rash	-14.1337
▁lighthouse	-14.1338
▁cupped	-14.1338
▁squeaks	-14.1362
▁desire	-14.1363
▁brake	-14.1363
▁opportunities	-14.1367
mie	-14.1378
▁diver	-14.1381
œThey	-14.1386
▁fairly	-14.1391
▁sc	-14.1394
▁figur	-14.1396
▁belief	-14.1398
▁dazzling	-14.1398
▁explosion	-14.1398
▁flamingo	-14.1398
▁Gently	-14.1398
▁Pingo	-14.1398
▁dials	-14.1403
▁Sale	-14.1407
▁Work	-14.1408
▁insistent	-14.141
▁shrimps	-14.1423
▁banner	-14.1425
▁Fuzz	-14.1428
▁clambered	-14.1428
▁tighten	-14.143
▁pistols	-14.1433
▁itches	-14.1436
ane	-14.1445
▁dishonest	-14.1459
▁sledding	-14.1459
▁croaking	-14.1461
▁Th	-14.1461
uacky	-14.1463
▁outdoor	-14.1466
▁turkeys	-14.1468
▁salads	-14.1471
haw	-14.1482
▁retrieve	-14.1489
▁stray	-14.1489
▁Fanny	-14.149
▁zone	-14.149
▁Isabelle	-14.149
▁gumball	-14.149
▁sharpened	-14.1492
▁thoughtfulness	-14.1492
Push	-14.1494
▁Bug	-14.1498
▁cords	-14.1499
▁jacks	-14.1512
▁Bell	-14.1513
▁paddles	-14.1516
▁pinecone	-14.1518
▁records	-14.1519
▁Caleb	-14.1521
▁Officer	-14.1521
▁Lillie	-14.1521
▁blended	-14.1521
▁Wonder	-14.1523
▁shaken	-14.1532
que	-14.1545
Big	-14.1549
▁bless	-14.155
▁fluff	-14.155
▁Smiling	-14.1552
▁unstuck	-14.1552
▁described	-14.1552
▁piglet	-14.1555
▁Truck	-14.1556
▁traveler	-14.1556
▁Henny	-14.1565
▁deepest	-14.1568
ena	-14.1569
▁boost	-14.157
▁paramedics	-14.1572
▁hammers	-14.158
▁rectangle	-14.1581
▁sentence	-14.1581
▁Giant	-14.1583
▁Grandmother	-14.1583
▁outstretched	-14.1583
▁similar	-14.1583
▁Lacy	-14.1583
▁runway	-14.1586
▁closest	-14.159
▁eater	-14.159
▁thousands	-14.1596
▁whil	-14.1613
not	-14.1614
▁bumblebee	-14.1614
▁crumpled	-14.1614
▁unsafe	-14.1614
▁jay	-14.1614
▁donate	-14.1616
▁Curiosity	-14.1616
▁goalie	-14.1616
Even	-14.1616
Baby	-14.1616
œSometimes	-14.1618
woo	-14.162
▁recordings	-14.1622
immy	-14.1625
▁Mars	-14.1627
ebra	-14.1632
▁catcher	-14.164
▁detail	-14.1643
▁padlock	-14.1645
▁Lana	-14.1645
▁motors	-14.1652
▁engineer	-14.166
▁compliments	-14.1664
ded	-14.1664
▁propeller	-14.1676
▁rattling	-14.1676
▁sprinted	-14.1676
▁Claw	-14.1676
Clara	-14.1679
▁snorts	-14.168
night	-14.1683
Ma	-14.1686
▁secretly	-14.1707
▁flush	-14.1707
▁blessing	-14.1708
▁fingertips	-14.1708
Stir	-14.1708
▁comfortably	-14.1708
▁blessings	-14.1709
▁Soup	-14.1717
▁flick	-14.1737
▁Celia	-14.1739
▁unnecessary	-14.1739
▁Mei	-14.174
▁jogs	-14.1742
▁Speed	-14.1747
▁normally	-14.1752
▁Silly	-14.1753
▁sorrow	-14.1754
▁endless	-14.176
ocks	-14.1769
▁skeletons	-14.177
▁diaper	-14.177
▁Fluff	-14.1771
▁slurped	-14.1772
toed	-14.1773
▁mooing	-14.1775
▁tend	-14.1792
wa	-14.1794
▁dam	-14.1797
▁trace	-14.1802
▁Archie	-14.1803
▁privacy	-14.1803
▁waddling	-14.1803
▁ridden	-14.1803
▁Chewy	-14.1803
David	-14.1806
ler	-14.1807
Ho	-14.1808
▁Print	-14.1815
▁kernels	-14.1816
ile	-14.1817
▁Herb	-14.1824
▁layed	-14.1825
ft	-14.1826
▁hamburger	-14.1834
▁pry	-14.1835
ise	-14.1836
▁vows	-14.1836
Shut	-14.1838
Caw	-14.1838
▁bedside	-14.1839
▁Pine	-14.186
▁dandelion	-14.1866
Stupid	-14.1867
▁Disappointed	-14.1867
▁Gaby	-14.1867
▁childhood	-14.1867
▁revenge	-14.1867
▁shaving	-14.1867
▁tacos	-14.1867
▁coiled	-14.1867
▁sipping	-14.1867
▁Socky	-14.1867
▁protective	-14.1868
People	-14.187
▁Cookie	-14.1872
▁pal	-14.1881
fully	-14.1887
▁postcard	-14.1898
▁Lying	-14.1899
▁Sabrina	-14.1899
▁horrified	-14.1899
▁tangy	-14.1899
▁echoing	-14.19
▁mailboxes	-14.1902
▁fate	-14.1903
▁Oat	-14.1905
▁dearly	-14.1905
▁spoilt	-14.1906
▁recommending	-14.1914
boos	-14.1917
▁critters	-14.1928
▁reel	-14.193
▁daddies	-14.1931
▁mower	-14.1931
▁bun	-14.1942
▁spine	-14.1948
ink	-14.1949
ush	-14.195
▁jealousy	-14.1957
▁Tracy	-14.1963
▁Boris	-14.1963
▁Sari	-14.1963
Hoo	-14.1963
▁seahorse	-14.1963
▁yanked	-14.1963
▁Jed	-14.1965
▁hopefully	-14.1965
▁Tad	-14.1966
▁Samuel	-14.1967
▁arriving	-14.1987
ure	-14.1994
▁electric	-14.1995
▁brag	-14.1995
▁supper	-14.1995
▁digger	-14.1996
▁sprinkler	-14.1997
▁cob	-14.2004
▁trumpets	-14.2005
Bl	-14.2009
▁beeps	-14.202
▁whimper	-14.2026
▁sugary	-14.2026
▁flicker	-14.2026
▁Sissy	-14.2028
▁harshly	-14.2036
▁springs	-14.2039
▁Money	-14.204
▁Ball	-14.2043
ew	-14.2055
▁cigarettes	-14.2056
▁brats	-14.206
▁shiniest	-14.206
▁talons	-14.206
▁volunteer	-14.206
▁ladies	-14.206
▁squawking	-14.2063
▁Crocodile	-14.2064
Greetings	-14.2064
▁Twist	-14.2067
▁overnight	-14.2068
Bobo	-14.2072
▁sighing	-14.2077
▁Lucie	-14.2083
▁Fun	-14.2084
▁gr	-14.2088
zoom	-14.2088
▁Priscilla	-14.2093
▁assistant	-14.2093
▁preferred	-14.2093
▁unwell	-14.2093
▁halo	-14.2094
▁capable	-14.2094
maker	-14.2096
▁notebooks	-14.2098
ab	-14.2107
▁Sheila	-14.2119
▁measurements	-14.212
▁sunburn	-14.2125
▁Lego	-14.2126
▁grumpiness	-14.2126
▁unforgettable	-14.2126
▁surge	-14.2127
Children	-14.213
hop	-14.2138
▁New	-14.214
▁Great	-14.215
▁Loop	-14.2159
▁matchbox	-14.2159
▁interests	-14.2162
▁spitting	-14.2162
Cheese	-14.2163
▁sips	-14.2173
▁surfed	-14.2175
▁tilts	-14.2177
▁dong	-14.2186
▁dart	-14.2191
▁Pedro	-14.2192
▁Tigger	-14.2192
▁flopped	-14.2192
▁Flying	-14.2194
▁cucumber	-14.2194
▁chunk	-14.2194
Love	-14.2196
▁Black	-14.2196
▁Everytime	-14.2202
▁Patience	-14.2203
▁thankfully	-14.2212
▁struggles	-14.2212
lie	-14.2217
▁tackle	-14.2224
▁reassuring	-14.2225
▁chugging	-14.2225
▁distress	-14.2225
▁drape	-14.2225
Want	-14.2229
▁survived	-14.2229
▁Think	-14.223
Mar	-14.223
▁flashlights	-14.2232
▁rhythms	-14.2235
▁tumble	-14.2247
▁Navy	-14.2258
▁alphabet	-14.2258
Bee	-14.226
▁yay	-14.2277
▁wildly	-14.2282
▁confront	-14.2291
▁hairstyle	-14.2291
▁terror	-14.2291
▁lamps	-14.2292
▁swingset	-14.2292
▁hesitantly	-14.2293
▁thrilling	-14.2294
▁critter	-14.2294
ris	-14.2301
mmy	-14.2307
▁waddle	-14.2324
▁collapse	-14.2324
▁uncover	-14.2324
▁rent	-14.2324
▁uneasy	-14.2325
▁cents	-14.2325
▁Biggy	-14.2325
▁playmate	-14.2329
▁hiked	-14.233
▁grade	-14.2331
▁Sea	-14.2333
whooshing	-14.2348
▁groan	-14.2357
▁chuckle	-14.2358
▁Cleo	-14.2359
freeze	-14.2363
▁tiles	-14.2372
▁heater	-14.2375
▁Goodnight	-14.2391
▁dizziness	-14.2392
▁benefit	-14.2392
▁keyboard	-14.2393
▁Horse	-14.2397
▁Adventure	-14.2399
▁Making	-14.2404
▁Apple	-14.2411
▁farms	-14.2417
▁mitts	-14.2425
▁Louis	-14.2425
▁steadily	-14.2426
▁tidier	-14.2426
▁Step	-14.2429
▁attacking	-14.2431
lan	-14.2434
▁wetness	-14.2439
▁gadgets	-14.244
down	-14.2455
▁territory	-14.246
▁unzipped	-14.246
▁replacement	-14.246
▁spinner	-14.246
▁Clown	-14.2463
▁forgetful	-14.2464
Buddy	-14.2465
qui	-14.2468
▁Ne	-14.2468
▁fighters	-14.2475
▁potions	-14.2493
▁High	-14.2494
▁valuing	-14.2494
▁unlucky	-14.2494
▁Thinking	-14.2495
Frank	-14.2499
pilot	-14.2499
Lion	-14.2499
▁roles	-14.2502
Sir	-14.2521
▁faithful	-14.2528
▁beanstalk	-14.2528
▁bay	-14.2528
▁droopy	-14.2528
▁snowed	-14.253
▁toughest	-14.2533
long	-14.2533
air	-14.2536
▁Faster	-14.2541
▁Shark	-14.2544
▁poisoned	-14.2546
▁curse	-14.2561
▁Bibi	-14.2562
▁Petal	-14.2562
▁loss	-14.2563
▁Dara	-14.2563
▁ouchy	-14.2563
▁Ty	-14.2565
reverse	-14.2568
▁Flowers	-14.2574
▁pouts	-14.2581
▁Yummy	-14.2584
love	-14.2593
▁tradition	-14.2597
œhello	-14.2601
▁Tip	-14.2602
▁someplace	-14.2604
▁Milk	-14.2605
Tony	-14.2609
▁Doll	-14.261
▁stomps	-14.2624
▁ointment	-14.2631
▁Crane	-14.2631
▁Laila	-14.2631
▁pedalling	-14.2631
▁farmhouse	-14.2632
▁screens	-14.2638
▁El	-14.2643
▁slippers	-14.2643
▁buyer	-14.2643
▁bob	-14.2654
gh	-14.2663
▁adjust	-14.2665
▁Cassie	-14.2666
Thomas	-14.2672
▁snatche	-14.2714
▁stitching	-14.2717
▁pawed	-14.2722
▁Slow	-14.2727
▁sizzle	-14.2734
▁Mustache	-14.2735
▁headphones	-14.2735
▁spatula	-14.2735
▁volume	-14.2735
▁attracted	-14.2736
▁beaten	-14.2737
▁marshmallow	-14.2741
▁clicking	-14.2744
ough	-14.2747
▁March	-14.2753
▁protects	-14.2755
▁encounter	-14.2769
▁moist	-14.277
▁Mitch	-14.277
▁register	-14.277
▁windmill	-14.277
▁squirm	-14.277
œAlright	-14.2772
▁cactuses	-14.2773
▁Wednesdays	-14.2774
▁weave	-14.2782
▁Flap	-14.2791
▁scribbles	-14.2793
niversity	-14.2805
▁unison	-14.2805
▁China	-14.2805
▁screeched	-14.2807
▁calmness	-14.2811
▁everytime	-14.2818
▁Oxygen	-14.2819
▁floaties	-14.2822
zz	-14.2842
wee	-14.2846
Pick	-14.2863
▁ga	-14.2872
▁prick	-14.2875
▁Wanda	-14.2876
▁appointment	-14.2876
▁Dare	-14.2876
▁permitting	-14.288
▁Heather	-14.288
▁Achoo	-14.288
▁Philip	-14.288
top	-14.2882
Pass	-14.2883
bang	-14.2883
▁appearing	-14.2895
▁gleefully	-14.2911
▁trim	-14.2911
▁reflecting	-14.2912
▁Walter	-14.2915
▁arc	-14.2915
uck	-14.293
▁roofs	-14.2931
▁demands	-14.2934
▁bandaid	-14.2941
ut	-14.2941
▁Moment	-14.2941
▁Toot	-14.2943
▁actor	-14.2945
ddled	-14.2946
▁guacamole	-14.2947
▁guiding	-14.2947
▁wavy	-14.2947
▁Loyal	-14.2947
▁jiggled	-14.2947
▁endings	-14.2948
▁shyness	-14.2952
Sweet	-14.2954
Pizza	-14.2954
Jamie	-14.2954
▁tougher	-14.296
day	-14.2969
▁moles	-14.2977
▁bacon	-14.2983
▁cacti	-14.2983
▁scoring	-14.2983
▁swipe	-14.2983
▁slope	-14.2983
Bill	-14.299
▁option	-14.299
▁ski	-14.3015
▁swell	-14.3018
▁Miranda	-14.3018
▁cannon	-14.3018
▁mash	-14.3021
away	-14.3023
œWhen	-14.3025
Five	-14.3026
▁villain	-14.3026
▁Dodo	-14.3027
▁Lions	-14.3028
▁mostly	-14.303
stand	-14.3031
▁surfers	-14.3032
two	-14.3045
▁speeds	-14.3048
▁doubt	-14.3048
▁lavender	-14.3054
▁obedience	-14.3054
▁phrase	-14.3054
▁moss	-14.3054
▁pure	-14.3054
▁gemstone	-14.3055
▁Misty	-14.3055
▁Lastly	-14.3055
▁wildlife	-14.3055
▁Judge	-14.3057
NO	-14.3067
▁Mack	-14.3069
bble	-14.3078
▁Nikki	-14.3091
▁SNAP	-14.3091
▁firetruck	-14.3091
▁Climbing	-14.3091
▁Dennis	-14.3094
Steve	-14.3098
▁sibling	-14.3099
▁Around	-14.3104
rry	-14.3112
▁torch	-14.3119
▁bands	-14.3124
▁pruning	-14.3127
▁strutted	-14.3127
▁Biff	-14.3127
▁buzzes	-14.3127
▁bid	-14.3127
▁hooted	-14.3128
▁Bessy	-14.3128
▁beekeeper	-14.3128
▁somersaults	-14.3129
▁stubbornness	-14.313
▁unlocks	-14.3133
Over	-14.3133
▁Whale	-14.3133
ching	-14.3134
▁Bud	-14.314
aw	-14.3149
▁Cole	-14.3154
▁Four	-14.3155
▁Best	-14.3156
▁Miraculously	-14.3163
▁clinic	-14.3163
▁pasture	-14.3163
▁partied	-14.3164
▁flicked	-14.3164
▁Giraffe	-14.317
▁includes	-14.317
az	-14.3173
▁ruby	-14.3181
▁strap	-14.3187
▁hesitate	-14.3199
▁produce	-14.3199
▁witness	-14.3199
▁Trina	-14.32
▁Trixie	-14.32
▁surgery	-14.32
▁zigzagging	-14.32
▁prey	-14.32
iya	-14.32
Four	-14.3208
▁sniffles	-14.3213
▁inspect	-14.3214
ied	-14.322
are	-14.3224
▁dates	-14.3224
▁wheeled	-14.3229
Bravo	-14.3236
▁loaf	-14.3236
▁stroking	-14.3236
▁death	-14.3236
▁Connie	-14.3236
▁grasped	-14.3237
▁Caterpillar	-14.3241
Mother	-14.3244
match	-14.3245
▁pucker	-14.325
▁chances	-14.3258
io	-14.326
ph	-14.3261
▁Sheep	-14.3266
▁arranging	-14.3273
▁remarkable	-14.3273
▁sprinkling	-14.3273
▁variety	-14.3273
▁Scruffy	-14.3273
▁swished	-14.3274
our	-14.3274
▁pang	-14.3276
▁sprouted	-14.3276
▁warriors	-14.3279
happy	-14.3281
▁habits	-14.3286
▁greed	-14.331
eluctantly	-14.331
▁basil	-14.331
▁confetti	-14.331
▁kettle	-14.331
▁bustling	-14.331
▁considered	-14.3311
▁puffy	-14.3312
▁simplest	-14.3315
▁plea	-14.3316
Milo	-14.3318
▁pathway	-14.332
new	-14.3321
▁vanishing	-14.3324
▁scraps	-14.3326
▁tailor	-14.3326
▁Yay	-14.3337
▁rounded	-14.3339
▁spelled	-14.3343
▁Grump	-14.3347
▁Genie	-14.3347
▁arrival	-14.3347
▁repay	-14.3347
▁recognised	-14.3348
▁punched	-14.3348
▁mopping	-14.3348
ize	-14.3351
▁teaspoons	-14.3353
▁insists	-14.3362
▁newest	-14.3373
▁Dogs	-14.3373
elax	-14.3383
▁trot	-14.3384
▁Gizmo	-14.3384
▁muttered	-14.3384
▁Moley	-14.3385
ico	-14.3386
▁Far	-14.3388
▁Chocolate	-14.3409
▁carpenter	-14.3421
▁persisted	-14.3422
▁Sebastian	-14.3423
▁refuses	-14.3423
▁helpfulness	-14.3428
▁Hot	-14.3428
mine	-14.3432
▁jack	-14.3432
▁Jellyfish	-14.3432
▁outrun	-14.3438
ple	-14.3439
ious	-14.3439
▁Spicy	-14.3443
▁chalks	-14.3452
▁coconuts	-14.3453
▁whinnied	-14.3459
▁flitting	-14.3459
▁goldfish	-14.3459
▁blend	-14.3462
Frog	-14.3468
▁carving	-14.3472
▁Juan	-14.3478
▁beams	-14.3482
▁dying	-14.3496
▁hula	-14.3496
▁twinkly	-14.3496
▁fetches	-14.3498
▁froggy	-14.35
▁THE	-14.3502
Ba	-14.3508
œHe	-14.3511
▁gown	-14.3512
▁Monday	-14.3534
▁craziest	-14.3534
▁yummier	-14.3534
ana	-14.3542
Nobody	-14.3543
▁Hav	-14.3543
Slow	-14.3548
tie	-14.3557
▁shooter	-14.3561
▁duckie	-14.3563
▁ticklish	-14.3572
▁tingly	-14.3572
▁whizzing	-14.3572
▁grunted	-14.3573
▁Macy	-14.3573
▁Georgie	-14.3574
▁crafted	-14.3575
œAh	-14.358
œThese	-14.3585
hu	-14.3598
bag	-14.3603
▁gardeners	-14.3604
▁incident	-14.361
▁oval	-14.361
▁grandad	-14.361
▁wonderland	-14.3611
▁agreeing	-14.3611
▁peeling	-14.3623
Wheee	-14.3642
ind	-14.3646
▁meetings	-14.3646
▁echo	-14.3646
▁Blake	-14.3648
▁House	-14.3648
▁dangling	-14.3648
▁disbelief	-14.3648
▁uncertain	-14.3648
▁Muffy	-14.3648
▁zigzagged	-14.3648
▁tweeting	-14.3653
there	-14.3654
ollie	-14.3656
once	-14.3668
▁vendors	-14.367
▁grasp	-14.3686
▁Friday	-14.3687
▁luckier	-14.3687
boat	-14.3696
Frankie	-14.3696
Jo	-14.3699
▁bullet	-14.3699
▁sis	-14.3701
▁bullets	-14.3712
nce	-14.3719
▁recogniz	-14.3723
▁Hazel	-14.3725
▁perseverance	-14.3725
▁tinkling	-14.3725
▁Dale	-14.3725
▁Phillip	-14.3725
▁rowboat	-14.3725
▁pumped	-14.3728
▁cultures	-14.373
▁coughs	-14.3746
▁ABCs	-14.3753
▁scrapes	-14.3756
▁cranes	-14.3761
▁applied	-14.3764
▁handkerchief	-14.3764
▁zap	-14.3764
Glad	-14.3764
▁stressed	-14.3764
▁hamburgers	-14.3764
▁divided	-14.3764
▁approaching	-14.3767
Freddy	-14.3774
▁scribble	-14.3776
▁Higher	-14.3781
jo	-14.3788
eg	-14.38
▁roundabout	-14.3802
▁therapist	-14.3802
▁Lyla	-14.3802
▁Sprinkles	-14.3802
▁juggled	-14.3804
▁Diane	-14.3805
▁collector	-14.3807
▁gentleman	-14.3808
▁Deer	-14.3809
check	-14.3813
iff	-14.3828
▁markings	-14.3838
▁compost	-14.3841
▁bendy	-14.3847
▁forty	-14.3853
▁pound	-14.3853
▁minty	-14.3855
▁Butterflies	-14.3855
▁diet	-14.3857
ged	-14.386
Lost	-14.3873
▁bathrobes	-14.3879
▁react	-14.388
▁cash	-14.388
▁Puffy	-14.3881
▁wisest	-14.3887
▁fearless	-14.3891
▁skulls	-14.3891
▁teammates	-14.3893
▁littlest	-14.3895
▁spinach	-14.3899
▁golfer	-14.3902
mb	-14.3911
▁Gr	-14.3912
▁suitable	-14.3921
▁eagerness	-14.3924
▁spa	-14.3942
ries	-14.3942
▁trained	-14.3946
Son	-14.3947
▁Lilah	-14.3957
▁exist	-14.3958
▁Felicity	-14.3959
▁pyjamas	-14.3959
▁sheepishly	-14.3959
▁syringe	-14.3959
▁latch	-14.3959
▁photographer	-14.396
om	-14.3964
œYum	-14.3966
▁Home	-14.3969
minded	-14.397
yum	-14.3971
▁chug	-14.3974
tra	-14.398
▁threats	-14.3988
▁difficulty	-14.3991
moo	-14.3994
▁limp	-14.3997
ence	-14.3998
▁English	-14.3999
▁milkshake	-14.3999
▁Amazingly	-14.3999
▁moose	-14.3999
▁Waffle	-14.4003
av	-14.4014
▁cabinets	-14.4017
OA	-14.403
▁rhyme	-14.4031
▁sons	-14.4032
▁punch	-14.4037
▁rust	-14.4038
▁Jemima	-14.4038
▁Shirley	-14.4038
▁official	-14.4038
▁personality	-14.4038
▁diligently	-14.4038
▁Addy	-14.4038
▁snarling	-14.4039
▁frighten	-14.4039
▁Gorilla	-14.4042
▁weaving	-14.4043
▁fewer	-14.406
▁stations	-14.4064
▁laps	-14.4065
▁Lili	-14.4068
▁losers	-14.407
▁forces	-14.4076
▁directly	-14.4078
▁Meena	-14.4078
ang	-14.4081
Play	-14.4088
▁Swan	-14.41
▁sobs	-14.4114
▁Jeffrey	-14.4118
▁aquarium	-14.4118
▁chief	-14.4118
▁koala	-14.4118
▁parcel	-14.4118
▁rummage	-14.4118
▁quickest	-14.4122
▁needing	-14.4125
▁leafy	-14.4127
Gina	-14.413
Snowy	-14.413
men	-14.4132
▁Carrot	-14.4134
▁splinter	-14.4141
ooo	-14.4149
▁shimmer	-14.4156
Enough	-14.4158
▁scarier	-14.4158
Gotcha	-14.4158
▁adjusted	-14.4159
▁reeled	-14.4159
▁Brady	-14.416
▁r	-14.4161
▁Wild	-14.4164
▁sinks	-14.4169
pitched	-14.417
three	-14.417
Davey	-14.4171
▁finest	-14.4178
▁greener	-14.4179
▁Boat	-14.4182
▁gloom	-14.4186
▁sl	-14.4187
▁fortunate	-14.4198
▁Dorothy	-14.4199
▁Leila	-14.4199
▁perspective	-14.4199
▁whirred	-14.4199
▁Greeny	-14.4201
▁Aren	-14.4207
▁picky	-14.4209
▁citizens	-14.4209
Turn	-14.421
Jessie	-14.421
œDid	-14.4211
▁Broccoli	-14.4211
▁cheery	-14.4219
▁wagons	-14.422
▁gaps	-14.4239
▁fifteen	-14.4239
▁clipboard	-14.4239
▁silverware	-14.4239
▁entertained	-14.4239
▁bleated	-14.4239
ship	-14.4239
▁woodland	-14.424
▁launched	-14.4241
▁mango	-14.4242
▁erased	-14.4244
sized	-14.4248
▁battles	-14.4248
▁fruity	-14.4256
▁serves	-14.4264
▁villains	-14.4271
baa	-14.4275
▁wilt	-14.4278
▁fortune	-14.428
▁gigantic	-14.428
▁dew	-14.428
▁foil	-14.428
▁nibbles	-14.4281
rap	-14.4287
▁Cut	-14.4289
Buzz	-14.4292
▁errands	-14.43
▁sunsets	-14.4307
▁bins	-14.4308
cha	-14.4317
▁bonfire	-14.432
▁motorbike	-14.432
▁spectacular	-14.432
▁chime	-14.4321
▁Peach	-14.4321
▁Micky	-14.4322
▁judged	-14.4325
flower	-14.4328
bear	-14.4335
▁Coffee	-14.4335
gly	-14.4337
▁safest	-14.4342
came	-14.4359
▁slurp	-14.4359
▁Clover	-14.4361
▁Aiden	-14.4361
▁Halfway	-14.4361
▁Woolly	-14.4362
▁pounded	-14.4362
Warning	-14.4362
▁octopuses	-14.4365
covered	-14.4374
Splash	-14.4374
▁tilt	-14.4379
ering	-14.4385
▁slaps	-14.4388
▁meanie	-14.4393
▁Belinda	-14.4403
▁Glass	-14.4403
▁cockpit	-14.4403
▁professional	-14.4403
▁underestimate	-14.4403
▁passage	-14.4404
▁whimpering	-14.4404
God	-14.4409
▁nighttime	-14.4412
Jerry	-14.4415
œOne	-14.4415
▁Match	-14.4419
▁meaner	-14.4427
pick	-14.4428
▁duckies	-14.4437
▁ch	-14.4437
▁aims	-14.4441
▁blacksmith	-14.4444
▁despair	-14.4444
▁snooze	-14.4444
▁sideways	-14.4444
▁pressure	-14.4444
▁unscrewed	-14.4444
▁Somewhere	-14.4445
▁daydreaming	-14.4445
▁flickered	-14.4445
▁De	-14.4449
Soup	-14.4458
▁grave	-14.4458
▁tulips	-14.4463
▁Move	-14.4463
▁History	-14.4464
▁g	-14.4467
▁handfuls	-14.4473
▁carrier	-14.4485
▁shifted	-14.4485
▁spool	-14.4485
▁spout	-14.4485
▁ditch	-14.4485
▁drumming	-14.4486
▁Pen	-14.4486
▁peaked	-14.4489
Boom	-14.449
Jackie	-14.4501
▁villager	-14.4522
▁persuade	-14.4526
▁Wool	-14.4527
▁Gill	-14.4527
▁harbour	-14.4527
▁Flip	-14.4527
▁savannah	-14.4527
ASH	-14.4527
▁smeared	-14.4527
▁mopped	-14.4528
▁limit	-14.4531
urt	-14.4534
œGoodbye	-14.4535
▁Mari	-14.4535
▁heap	-14.4537
▁Cocoa	-14.4537
▁watchful	-14.454
▁copying	-14.4542
Fun	-14.4545
▁Luca	-14.4547
▁Stu	-14.4557
▁Snake	-14.4565
▁lo	-14.4565
▁Sydney	-14.4569
▁inserted	-14.4569
▁professor	-14.4569
▁ashore	-14.4569
▁inspiration	-14.4569
œToday	-14.4575
▁areas	-14.4577
way	-14.4577
▁mermaids	-14.4577
kin	-14.4579
▁Ja	-14.458
▁oar	-14.4586
▁brightness	-14.4595
▁sliced	-14.4595
▁dribble	-14.461
▁swift	-14.4611
▁Sharon	-14.4611
▁tournament	-14.4611
Yippee	-14.4611
▁hummingbird	-14.4611
▁Light	-14.4611
▁Smiley	-14.4611
▁Last	-14.4611
▁poof	-14.4612
▁Smokey	-14.4612
▁hideaway	-14.4613
▁Jessy	-14.462
some	-14.4622
▁Gra	-14.4623
Tomorrow	-14.4624
▁evenly	-14.4628
œMax	-14.4633
lapped	-14.4641
▁huff	-14.4652
▁farmyard	-14.4653
▁melodies	-14.4653
▁reeds	-14.4653
▁subtract	-14.4653
▁Glow	-14.4653
▁Month	-14.4653
▁longingly	-14.4653
▁silliest	-14.4653
▁richest	-14.4655
▁Trouble	-14.4656
▁pouting	-14.4657
▁Cr	-14.466
Suzie	-14.4667
▁pi	-14.4674
erry	-14.4676
▁watery	-14.4677
▁exercised	-14.4681
▁nailed	-14.4686
▁attend	-14.4694
ran	-14.4695
▁fizz	-14.4695
▁Ferris	-14.4696
▁console	-14.4696
▁fascination	-14.4696
▁galaxies	-14.4696
▁hobbies	-14.4696
▁majesty	-14.4696
▁Luisa	-14.4696
Sounds	-14.4696
▁pranced	-14.4696
▁former	-14.4697
ami	-14.4702
▁Benji	-14.4703
▁licenses	-14.4708
▁wary	-14.4708
▁brilliantly	-14.4712
pu	-14.4717
iko	-14.4733
▁transform	-14.4737
▁comment	-14.4737
▁Frisky	-14.4738
▁jigsaw	-14.4738
▁stash	-14.4738
▁unplugged	-14.4738
Aww	-14.4738
▁scanned	-14.4738
▁Casey	-14.4738
die	-14.4739
▁Freckles	-14.4745
▁alas	-14.4747
▁patched	-14.4754
gu	-14.4755
▁Gas	-14.4762
▁Dreams	-14.4776
▁dismay	-14.478
▁concern	-14.478
Toys	-14.478
▁Bossy	-14.4781
▁breathtaking	-14.4781
▁heartbeat	-14.4781
▁internet	-14.4781
▁sensible	-14.4781
▁various	-14.4781
▁Otter	-14.4781
▁Laser	-14.4781
▁Clucky	-14.4781
▁locket	-14.4781
▁Joyce	-14.4781
▁main	-14.4783
Millie	-14.4795
Star	-14.4795
▁Joke	-14.4806
▁Nap	-14.481
▁containers	-14.4815
▁Seal	-14.4818
▁suppose	-14.4823
▁Bull	-14.4823
▁medium	-14.4824
▁elves	-14.4824
▁July	-14.4824
▁Evan	-14.4825
▁Forest	-14.4825
▁rattled	-14.4826
▁Chicken	-14.4829
▁policemen	-14.4833
ingo	-14.4838
Chocolate	-14.4838
Shall	-14.4838
because	-14.4838
▁command	-14.4845
▁raindrop	-14.4847
▁Su	-14.4854
bb	-14.4857
▁typing	-14.4867
▁speechless	-14.4868
▁Congratulations	-14.487
▁posed	-14.487
œyes	-14.4871
œGreat	-14.4871
▁fellow	-14.4875
they	-14.4877
pie	-14.4885
▁tons	-14.489
▁punishing	-14.4893
▁artists	-14.4905
zing	-14.4905
cent	-14.491
▁neater	-14.492
Life	-14.4925
▁accomplishments	-14.4934
house	-14.494
▁wrinkles	-14.4952
▁clang	-14.4952
▁Trudy	-14.4954
▁obvious	-14.4954
▁policy	-14.4954
▁visible	-14.4954
▁limping	-14.4955
▁app	-14.4957
▁posts	-14.4963
▁Cluck	-14.4966
ib	-14.4968
▁meanings	-14.498
▁trainer	-14.4985
bra	-14.4986
ix	-14.4992
▁Brandy	-14.4997
▁Elisa	-14.4997
▁Evie	-14.4997
▁barnyard	-14.4997
▁glorious	-14.4997
▁unharmed	-14.4997
▁Jada	-14.4997
▁lioness	-14.4997
▁wailed	-14.4998
▁paintbrushes	-14.4998
▁Pauline	-14.4998
▁addressed	-14.5002
▁leftover	-14.5005
▁total	-14.5008
▁Mar	-14.5009
rip	-14.5011
▁features	-14.5021
zy	-14.5026
Ahhh	-14.5029
▁Anthony	-14.5041
alue	-14.5041
▁cork	-14.5041
▁dandelions	-14.5041
▁boldly	-14.5042
▁peering	-14.5042
▁Bit	-14.5045
▁Amie	-14.5048
lar	-14.5049
▁collections	-14.505
▁Scarlett	-14.5052
▁festivals	-14.5054
eating	-14.5055
Dinner	-14.5056
▁menus	-14.5058
▁casting	-14.506
▁beaches	-14.5064
▁maths	-14.5075
▁emotions	-14.5076
▁Guess	-14.508
▁Marc	-14.5082
▁Han	-14.5084
œTom	-14.5084
▁Pixie	-14.5085
▁parlor	-14.5085
▁handyman	-14.5085
Sun	-14.5086
▁squashed	-14.5089
▁smoothness	-14.5092
▁croaks	-14.5095
Promise	-14.5101
Ollie	-14.5101
▁effect	-14.5109
▁tulip	-14.5109
▁breathes	-14.5113
ale	-14.5116
▁Sharks	-14.5124
▁Lemon	-14.5124
ear	-14.5128
▁Pumpkin	-14.5129
▁eldest	-14.5129
▁underwear	-14.5129
▁Margo	-14.5129
azor	-14.513
Ca	-14.5131
▁giddy	-14.5133
▁displays	-14.5133
▁bales	-14.5134
▁neared	-14.5135
meow	-14.5145
▁flooding	-14.5157
▁Children	-14.5168
▁layers	-14.5172
▁lightbulb	-14.5174
▁illness	-14.5174
▁brim	-14.5177
▁doghouse	-14.5185
▁cheeky	-14.5187
Fish	-14.519
▁recite	-14.5202
Find	-14.5202
▁brow	-14.5217
▁speech	-14.5217
▁soothe	-14.5218
▁describe	-14.5218
Blood	-14.5219
▁Clarissa	-14.5219
▁steamy	-14.5232
▁showered	-14.5233
▁crop	-14.5244
▁rinses	-14.5254
▁Mill	-14.5258
▁grumpier	-14.5263
▁crows	-14.5264
▁pleading	-14.5264
▁Especially	-14.5267
treating	-14.5272
▁su	-14.5296
ook	-14.5306
▁bound	-14.5308
▁bristles	-14.5308
▁funnier	-14.5308
▁imitate	-14.5308
▁title	-14.5308
▁waggy	-14.5308
▁washcloth	-14.5309
▁outsmart	-14.531
▁crumbled	-14.531
▁dreamland	-14.5311
▁mightiest	-14.5311
▁plums	-14.5319
▁hasn	-14.5323
▁thousand	-14.5335
par	-14.5348
▁numb	-14.5353
▁betrayed	-14.5354
▁porcupine	-14.5354
shift	-14.5354
▁twitching	-14.5355
▁dares	-14.5358
Dead	-14.5362
▁razors	-14.5369
▁bared	-14.537
Pretty	-14.537
help	-14.537
goodbye	-14.5371
Show	-14.5376
▁flipper	-14.5381
Cheers	-14.5384
▁scenes	-14.5386
▁performances	-14.5394
▁Push	-14.5396
ending	-14.5399
▁Amelie	-14.5399
▁Derek	-14.5399
▁Foreshadowing	-14.5399
▁Naomi	-14.5399
▁flagpole	-14.5399
▁Hard	-14.5399
▁weaved	-14.54
▁Donny	-14.5402
▁Swimming	-14.5404
▁suggestions	-14.541
▁Scissors	-14.5417
Mo	-14.5417
▁steaks	-14.543
▁braids	-14.543
▁Happiness	-14.5445
▁curry	-14.5445
▁eerie	-14.5445
▁recently	-14.5445
▁swarm	-14.5445
▁blender	-14.5445
▁reflected	-14.5446
▁smudged	-14.5446
▁harvested	-14.5447
▁Miguel	-14.5447
▁dumps	-14.545
rrr	-14.5451
Order	-14.5453
▁Listening	-14.5455
▁woolly	-14.5455
▁Celery	-14.5459
▁blossoms	-14.5461
▁chore	-14.5472
yo	-14.5482
▁pickle	-14.5485
▁Natalie	-14.5491
▁referee	-14.5491
▁Clay	-14.5491
▁sixty	-14.5491
▁peddled	-14.5491
▁Connor	-14.5493
▁Sit	-14.5507
maybe	-14.5508
▁helplessly	-14.5515
▁toasty	-14.552
▁smoothed	-14.5522
▁Sing	-14.5524
▁cabbage	-14.5537
▁massive	-14.5537
▁Dean	-14.5537
▁shoebox	-14.5537
▁Said	-14.5541
▁Flea	-14.5542
▁upcoming	-14.5543
Jazz	-14.5554
▁pom	-14.556
▁earring	-14.5566
▁lad	-14.5572
▁painters	-14.5582
▁bubblegum	-14.5583
▁trustworthy	-14.5583
▁Jenkins	-14.5583
▁tagged	-14.5584
▁Different	-14.559
▁pew	-14.5591
▁hunted	-14.5597
▁Ducks	-14.5606
onny	-14.5608
▁Throw	-14.561
▁trader	-14.5613
▁grasses	-14.5619
pic	-14.5627
▁public	-14.563
▁Franny	-14.563
▁meaningful	-14.563
▁treetops	-14.563
▁Purr	-14.5633
▁Danger	-14.5644
▁pits	-14.5645
Luke	-14.5648
▁com	-14.5672
▁practise	-14.5675
▁cooperative	-14.5676
▁lure	-14.5676
▁splattered	-14.5677
▁armour	-14.5677
▁produced	-14.5678
▁continues	-14.5678
▁skated	-14.5678
▁racecar	-14.5679
den	-14.5682
▁Dolls	-14.569
▁Count	-14.5691
low	-14.5695
▁bossed	-14.5695
▁sooo	-14.5697
▁Mu	-14.5709
▁canary	-14.5714
▁slim	-14.5719
▁Paddy	-14.5723
▁fabulous	-14.5723
▁observant	-14.5723
▁pigtails	-14.5723
▁recycle	-14.5723
▁storyteller	-14.5723
▁chessboard	-14.5724
▁chalkboard	-14.5724
▁Pasta	-14.5728
▁Ten	-14.573
▁teases	-14.5732
pop	-14.5736
Mister	-14.5742
Math	-14.5744
▁heavens	-14.5748
▁France	-14.5753
▁shoelace	-14.5753
rench	-14.5757
▁apologizing	-14.577
▁slingshot	-14.577
▁Nala	-14.577
▁Della	-14.577
lit	-14.5776
▁ruins	-14.578
▁cleverest	-14.5784
▁Set	-14.5795
ocket	-14.5811
▁plugs	-14.5817
▁Story	-14.5818
▁hired	-14.5819
▁Mind	-14.582
hole	-14.5825
▁j	-14.5826
ola	-14.5826
oll	-14.5834
Wisdom	-14.5837
organize	-14.5837
▁blossom	-14.5847
▁sparked	-14.5853
▁stumbles	-14.5853
▁Start	-14.5859
eddy	-14.5859
œSorry	-14.5864
▁involve	-14.5865
▁Frightened	-14.5865
▁client	-14.5865
▁croissant	-14.5865
▁revved	-14.5865
▁violet	-14.5865
▁mid	-14.5866
▁demonstrated	-14.5866
▁Flower	-14.5867
▁seaside	-14.5868
▁clucking	-14.5868
▁BEEP	-14.5868
▁mattresses	-14.5868
▁Feather	-14.5869
▁blasted	-14.5873
▁Crazy	-14.5877
▁begins	-14.5881
▁fro	-14.5884
Park	-14.5884
▁Whatever	-14.5885
▁whistler	-14.5895
▁cure	-14.5905
▁daydream	-14.5911
▁frost	-14.5912
▁Tanya	-14.5913
▁boundaries	-14.5913
▁merrily	-14.5913
▁Wind	-14.5918
œDad	-14.5923
q	-14.5925
▁freeing	-14.5925
▁Oil	-14.5932
Fi	-14.5932
Could	-14.5933
Jonny	-14.5933
Mikey	-14.5934
▁pre	-14.5943
▁grilled	-14.5948
▁manner	-14.5958
▁seatbelts	-14.5959
fu	-14.5959
▁Lilli	-14.596
▁Snowflake	-14.5961
▁Stacey	-14.5961
▁butcher	-14.5961
Woah	-14.5961
▁Shawn	-14.5961
▁transformation	-14.5961
▁Marla	-14.5961
▁Lizard	-14.5961
▁clubhouse	-14.5962
▁Berry	-14.5962
▁heeded	-14.5963
pp	-14.5973
▁Wine	-14.5975
Yield	-14.5981
Mind	-14.5981
Tree	-14.5981
Water	-14.5981
eith	-14.5981
iver	-14.5994
▁gods	-14.5994
▁Potato	-14.6002
▁cartwheels	-14.6003
▁grilling	-14.6006
▁Titi	-14.601
▁anniversary	-14.601
▁eachother	-14.601
▁extinguisher	-14.601
▁fancier	-14.601
▁hilarious	-14.601
▁speckled	-14.601
▁glossy	-14.601
▁Miller	-14.601
ylie	-14.601
▁judgement	-14.601
▁creaky	-14.6011
Exit	-14.6011
▁cooing	-14.6012
▁Dotty	-14.6012
▁swooping	-14.6012
▁sentences	-14.6013
▁Yuck	-14.6016
▁prouder	-14.6017
▁planks	-14.6022
Ding	-14.6024
▁Besides	-14.6033
▁Five	-14.6049
▁cleverly	-14.6049
▁badges	-14.6055
▁Cautiously	-14.6058
▁Pierre	-14.6058
▁convincing	-14.6058
▁disease	-14.6058
▁responsibly	-14.6058
▁fairytale	-14.6058
▁smashing	-14.6061
Grape	-14.6062
▁politeness	-14.6065
Wheeee	-14.6067
Throw	-14.6078
Share	-14.6078
▁rancher	-14.6079
▁Bring	-14.6079
▁Stripe	-14.6092
▁generations	-14.6098
▁smudge	-14.6106
▁ruff	-14.6107
▁document	-14.6107
▁grizzly	-14.6107
▁toppled	-14.6107
▁beady	-14.6108
▁mow	-14.6108
ware	-14.6109
▁Pigeon	-14.611
▁donut	-14.611
▁Beetle	-14.6113
▁Sail	-14.6116
▁fished	-14.6117
working	-14.6122
▁delicately	-14.6126
▁Pie	-14.6127
▁weakly	-14.6129
ax	-14.613
▁Stand	-14.6138
▁gallop	-14.6154
▁creep	-14.6155
▁Flame	-14.6156
▁honour	-14.6156
▁Easter	-14.6157
▁soothed	-14.6157
▁rushes	-14.6158
▁conflicts	-14.6165
▁East	-14.6166
▁avoiding	-14.617
▁ladle	-14.6172
boom	-14.6175
give	-14.6175
▁Onion	-14.618
▁prisoner	-14.619
▁ooh	-14.6203
▁chant	-14.6203
▁buck	-14.6205
▁avail	-14.6205
▁Cooking	-14.6205
▁fiery	-14.6205
▁tart	-14.6205
▁untidy	-14.6205
▁Dani	-14.6207
▁snored	-14.6207
▁sharpening	-14.6208
▁ripest	-14.621
▁stamping	-14.6211
ign	-14.6212
œthank	-14.6213
▁Mop	-14.6214
▁skilled	-14.6218
yla	-14.623
▁numbering	-14.6232
▁Soap	-14.6236
▁briefcase	-14.6255
▁furthest	-14.6255
▁research	-14.6255
▁Lula	-14.6255
▁bandana	-14.6256
▁lowest	-14.6261
here	-14.6274
Teacher	-14.6276
Mail	-14.6276
Hmmm	-14.6278
▁w	-14.6296
▁speakers	-14.6296
▁reflect	-14.6302
▁Fast	-14.6304
▁Porky	-14.6304
▁Beaky	-14.6305
▁exception	-14.6305
▁Chad	-14.6305
▁scowling	-14.6305
▁Counting	-14.6306
▁Climb	-14.6309
▁Paper	-14.631
▁Lazy	-14.6311
▁youths	-14.6314
back	-14.6324
Believe	-14.6326
▁Pinch	-14.6338
Left	-14.6354
▁perhaps	-14.6354
▁Bumble	-14.6355
Plane	-14.6355
▁flowerbed	-14.6357
▁complaints	-14.6362
▁handling	-14.637
ready	-14.6381
yay	-14.6383
▁ripple	-14.639
▁unravel	-14.6404
▁Barkley	-14.6405
▁hiking	-14.6405
▁threatening	-14.6405
▁boredom	-14.6406
▁shoved	-14.6406
▁overcoming	-14.6407
▁Skeleton	-14.6407
▁beats	-14.6417
▁Lunch	-14.642
▁Popcorn	-14.6422
▁doze	-14.6427
▁fighter	-14.6437
▁Pirate	-14.645
▁prefer	-14.6455
▁huh	-14.6455
▁mumbled	-14.6455
▁French	-14.6455
▁Marvin	-14.6455
▁uneven	-14.6455
▁Boots	-14.6457
▁Lori	-14.6457
œLucy	-14.646
▁Skye	-14.6461
box	-14.6464
unning	-14.6464
▁Ink	-14.6469
Spicy	-14.6477
four	-14.6477
run	-14.6497
iz	-14.6506
▁frilly	-14.6506
▁memorable	-14.6506
▁system	-14.6506
▁ducky	-14.6507
▁madder	-14.6508
œlet	-14.651
▁Alligator	-14.651
lf	-14.6512
onnie	-14.6519
Hannah	-14.6528
Pay	-14.6529
▁deliciousness	-14.653
ye	-14.6541
▁pathways	-14.6544
▁swish	-14.6555
occo	-14.6557
▁Buttercup	-14.6557
▁Daughter	-14.6557
▁cooperation	-14.6557
▁courtyard	-14.6557
▁eternity	-14.6557
▁hungrily	-14.6557
▁Maggy	-14.6557
▁unroll	-14.6557
▁ferri	-14.6557
▁devoured	-14.6557
▁Pippy	-14.6557
▁payment	-14.6558
▁fluffed	-14.6558
œThose	-14.6562
▁searches	-14.6563
▁Paint	-14.6564
▁products	-14.6565
▁Shrimp	-14.6566
▁fishies	-14.6572
ade	-14.6572
▁Frances	-14.6576
▁poorly	-14.6585
▁prop	-14.659
▁strongly	-14.6603
▁Fierce	-14.6608
▁Georgia	-14.6608
▁choking	-14.6608
▁downstream	-14.6608
▁flesh	-14.6608
▁Mixy	-14.6609
▁sulked	-14.6609
▁tender	-14.6609
▁straightened	-14.6609
▁nook	-14.661
▁leashes	-14.6613
▁Hunter	-14.6613
œit	-14.6617
▁stubbornly	-14.6628
▁grades	-14.6656
responsibilities	-14.666
▁inquisitive	-14.666
▁backseat	-14.666
▁Taffy	-14.666
▁crate	-14.666
▁persevered	-14.666
▁flickering	-14.6662
▁snacking	-14.6669
▁core	-14.6674
▁Watching	-14.6678
▁ramps	-14.6681
Marry	-14.6683
Gas	-14.6683
ead	-14.6687
making	-14.669
▁plum	-14.6691
ggle	-14.6694
▁darkest	-14.6699
▁combination	-14.6699
▁role	-14.6699
play	-14.6709
eb	-14.6711
▁Fritz	-14.6712
▁appreciating	-14.6712
▁quarter	-14.6712
▁Bart	-14.6712
▁daycare	-14.6712
▁Lala	-14.6712
▁Tu	-14.6713
nd	-14.6717
▁Tam	-14.6717
bed	-14.6721
▁Learn	-14.6725
▁Penguin	-14.6726
Aha	-14.6729
▁pondered	-14.6731
Maddie	-14.6735
Monkey	-14.6735
cross	-14.6739
▁flowery	-14.6743
Pat	-14.6753
▁quench	-14.6763
▁crevice	-14.6764
▁Dark	-14.6764
▁cafeteria	-14.6764
▁sidelines	-14.6764
▁galloping	-14.6765
▁Mousey	-14.6768
▁Gold	-14.6777
▁souvenirs	-14.6779
▁Julian	-14.6784
Mix	-14.6787
Almost	-14.6787
▁strangely	-14.6795
▁strive	-14.6797
▁bolts	-14.6801
Maria	-14.6806
hhh	-14.6807
emi	-14.6809
▁fabrics	-14.6812
▁altogether	-14.6816
▁passerby	-14.6816
▁tattered	-14.6816
▁tragedy	-14.6816
▁teacup	-14.6816
▁adventuring	-14.6816
▁Blackie	-14.6816
▁Duckie	-14.6816
▁tv	-14.6817
▁priceless	-14.6817
œNot	-14.6821
▁fitted	-14.6821
Arr	-14.6833
▁mmm	-14.6834
▁boatman	-14.6835
grandma	-14.684
Snow	-14.6842
Bo	-14.6851
▁Elliot	-14.6869
▁Hilda	-14.6869
▁Stuart	-14.6869
▁raspberry	-14.6869
▁recycling	-14.6869
▁virus	-14.6869
▁dashboard	-14.6869
▁gut	-14.6869
▁lane	-14.6869
▁trotting	-14.6869
▁outsmarted	-14.687
▁sh	-14.6872
▁Jumping	-14.6872
▁Bald	-14.6873
œTime	-14.6874
wing	-14.6875
▁Steph	-14.6877
▁peep	-14.6882
?''	-14.6906
▁misbehave	-14.6921
▁coax	-14.6921
▁Blocks	-14.6922
▁duty	-14.6922
▁radiat	-14.6922
Excellent	-14.6922
▁racket	-14.6922
▁Dinah	-14.6922
▁Sack	-14.6922
▁relaxation	-14.6923
œwhat	-14.6925
▁ticked	-14.6926
▁justice	-14.6941
▁replying	-14.6942
Chirp	-14.6946
Anything	-14.6946
Spider	-14.6946
yield	-14.6946
▁tiptoe	-14.6963
▁blind	-14.6974
▁Lewis	-14.6975
▁Nicole	-14.6975
▁scariest	-14.6975
▁slug	-14.6975
▁Somehow	-14.6976
▁truthful	-14.6979
▁tucking	-14.6982
œYeah	-14.6982
▁Painting	-14.6984
▁Deep	-14.6988
Six	-14.7001
▁tadpoles	-14.7005
nock	-14.7008
▁rudely	-14.7014
▁disc	-14.7019
▁raged	-14.7023
ches	-14.7025
▁decrease	-14.7027
▁drunk	-14.7028
▁fragrance	-14.7028
▁shaping	-14.7028
▁temper	-14.7028
abracadabra	-14.7028
▁yeah	-14.7028
▁Lord	-14.7028
▁dozen	-14.7029
▁Guard	-14.7031
▁leaders	-14.704
▁meantime	-14.7041
▁Success	-14.7042
▁dents	-14.705
Gus	-14.7053
woof	-14.7053
▁miners	-14.7055
▁Teacher	-14.706
▁Grab	-14.706
▁recommendations	-14.7066
▁onboard	-14.707
▁grind	-14.7073
Sit	-14.7078
▁Sa	-14.7078
▁consider	-14.708
▁photograph	-14.7081
▁Bozo	-14.7082
▁Majesty	-14.7082
▁grime	-14.7082
▁ringmaster	-14.7082
▁sample	-14.7082
▁failure	-14.7082
▁Dilly	-14.7082
▁drumstick	-14.7082
▁angle	-14.7083
▁Mattie	-14.7083
▁looping	-14.7091
Yo	-14.7093
sometimes	-14.7107
mores	-14.712
ahh	-14.7122
sure	-14.7123
wed	-14.7129
ep	-14.713
▁unfold	-14.7134
▁protest	-14.7135
▁thaw	-14.7135
▁dragonflies	-14.7136
▁Lance	-14.7136
▁menacing	-14.7136
▁Bingo	-14.7136
▁Shop	-14.7136
▁satisfying	-14.7137
▁hopper	-14.7139
▁Sc	-14.715
▁wildest	-14.715
▁Cop	-14.7153
Jeff	-14.7162
Aunt	-14.7163
▁bossing	-14.7163
▁pity	-14.7169
▁rescuer	-14.7181
▁Nat	-14.719
▁Cotton	-14.719
▁Margie	-14.719
▁unfreeze	-14.7191
irsty	-14.7193
▁aiming	-14.7193
▁posted	-14.7196
▁Barber	-14.7196
▁brownies	-14.7196
▁Fruit	-14.72
▁questioning	-14.7211
▁Hide	-14.7212
▁Lin	-14.7212
▁thundering	-14.7222
Beth	-14.7228
star	-14.7239
▁shove	-14.7241
▁clicks	-14.7241
▁knead	-14.7244
▁Bunbun	-14.7245
▁fragrant	-14.7245
▁headband	-14.7245
▁shepherd	-14.7245
▁snout	-14.7245
▁vain	-14.7245
▁blossomed	-14.7246
▁hospitality	-14.7247
Winning	-14.7251
zip	-14.7253
▁orderly	-14.7261
Sh	-14.7264
cake	-14.7271
Butterfly	-14.7271
green	-14.7271
▁walker	-14.728
ase	-14.7281
▁itching	-14.7282
eight	-14.7286
mail	-14.7299
▁pranks	-14.7299
▁Lancelot	-14.73
▁parachute	-14.73
aking	-14.73
▁roasting	-14.7303
▁shutting	-14.7318
▁award	-14.7336
▁Min	-14.7343
▁classmate	-14.7347
▁improvement	-14.7347
▁Apples	-14.735
▁belonging	-14.7351
six	-14.7351
▁fulfill	-14.7354
ING	-14.7355
Marriage	-14.7355
▁infected	-14.7355
▁jersey	-14.7355
▁overalls	-14.7355
▁jingled	-14.7357
▁squishing	-14.7359
door	-14.7362
▁Sign	-14.7365
Baking	-14.7366
▁cleanest	-14.737
▁Tomi	-14.7376
Doggy	-14.7382
eek	-14.7383
▁drained	-14.7395
▁Blossom	-14.7411
▁Jordan	-14.7411
▁Mallory	-14.7411
▁Scared	-14.7411
▁feat	-14.7411
▁garlic	-14.7411
STOP	-14.7411
▁Tucker	-14.7411
▁tipping	-14.7412
▁Minty	-14.7412
con	-14.7415
▁Worms	-14.7416
▁Deaf	-14.7424
▁intentions	-14.7436
Liz	-14.7436
Luna	-14.7438
isa	-14.7445
▁Catch	-14.7447
wn	-14.7452
hair	-14.7453
▁sharper	-14.7453
▁Ama	-14.7457
▁product	-14.7458
▁oblige	-14.7466
▁moan	-14.7466
▁triumphant	-14.7467
▁vivid	-14.7467
▁kilos	-14.7467
▁pretzel	-14.7467
▁Bumpy	-14.7467
▁tosses	-14.7467
▁choked	-14.7469
▁sucking	-14.7469
▁Pin	-14.747
▁Steam	-14.7471
▁competed	-14.7473
œExc	-14.7475
▁Stick	-14.7478
Trying	-14.7487
▁ached	-14.7495
yuck	-14.7495
▁whirl	-14.7498
▁span	-14.7499
Whoever	-14.75
oss	-14.75
gl	-14.7502
tty	-14.7503
mit	-14.751
▁buttery	-14.7515
read	-14.7515
▁Hal	-14.752
▁jingling	-14.7523
▁rainstorm	-14.7523
▁wheelchair	-14.7523
▁qualities	-14.7523
▁choppy	-14.7523
▁Cory	-14.7523
▁baaed	-14.7526
▁Food	-14.7536
nknown	-14.7537
▁stormed	-14.7539
ella	-14.7545
▁cargo	-14.7547
Banana	-14.7551
▁encourages	-14.7552
ila	-14.7553
Squ	-14.7559
ette	-14.7564
▁Em	-14.7574
▁glint	-14.7577
▁divide	-14.7578
▁Morty	-14.7579
▁ahhed	-14.7579
▁barbershop	-14.7579
▁kiwi	-14.7579
▁virtue	-14.7579
▁Peaches	-14.758
▁wealthier	-14.758
▁Bucky	-14.758
▁rooftop	-14.758
▁Tick	-14.758
▁vacuumed	-14.7581
▁Parrot	-14.759
▁dusting	-14.7593
zi	-14.7594
Spray	-14.7607
▁Ping	-14.7613
▁graze	-14.7635
angaroo	-14.7636
▁fifth	-14.7636
▁mould	-14.7636
▁Napping	-14.7636
▁Lolly	-14.7636
▁Acorn	-14.7637
▁crunched	-14.7639
take	-14.7641
▁treating	-14.7654
▁darken	-14.766
behaved	-14.7665
Larry	-14.7665
shrink	-14.7665
nine	-14.7665
Dolly	-14.7666
▁Cate	-14.7674
Candy	-14.7675
▁culture	-14.7686
▁wonderfully	-14.7692
▁Above	-14.7693
▁Arnold	-14.7693
▁intense	-14.7693
▁recital	-14.7693
▁entirely	-14.7698
▁housework	-14.7712
▁ya	-14.7716
▁pauses	-14.7717
▁leaked	-14.7727
ue	-14.7744
▁twitch	-14.7749
ction	-14.7751
▁Curly	-14.7751
▁compartment	-14.7751
▁flexibility	-14.7751
▁cancelled	-14.7751
▁antics	-14.7751
▁swatted	-14.7751
▁stranded	-14.7751
Ti	-14.7754
▁raging	-14.7759
▁shortly	-14.7761
▁Fill	-14.7762
ank	-14.7773
▁fasten	-14.7775
Perfect	-14.778
▁honestly	-14.7785
lessly	-14.7801
▁nuzzle	-14.7801
▁overflow	-14.7807
elease	-14.7809
▁hydrated	-14.7809
▁origami	-14.7809
▁unhealthy	-14.7809
▁Sunflower	-14.7809
▁Elise	-14.7809
▁Maia	-14.7809
▁Blinky	-14.781
▁swimmers	-14.7812
aj	-14.7821
▁Mya	-14.7827
seven	-14.7827
▁cowgirls	-14.7834
▁Tonight	-14.7837
piece	-14.7838
elderly	-14.7838
ttle	-14.7846
▁celebrations	-14.7854
▁bale	-14.7861
▁swor	-14.7866
▁Barb	-14.7866
▁Dash	-14.7867
hinoceros	-14.7867
▁Square	-14.7867
▁certificate	-14.7867
▁colony	-14.7867
▁hammock	-14.7867
▁snoozing	-14.7867
▁tennis	-14.7867
▁Lottie	-14.7867
▁marvelous	-14.7867
▁shrugging	-14.7867
Yep	-14.7867
▁Honesty	-14.7867
ali	-14.7867
▁glinted	-14.7868
▁Ahead	-14.7868
▁Band	-14.7868
pom	-14.7873
Sweetheart	-14.7896
see	-14.7901
aise	-14.7902
ule	-14.7905
▁neighs	-14.7909
olo	-14.7915
▁nudge	-14.7919
▁Worm	-14.7919
▁speeded	-14.7924
▁apologise	-14.7924
eliable	-14.7925
▁Novel	-14.7925
▁email	-14.7925
▁Missile	-14.7926
▁Pia	-14.7926
▁shrieked	-14.7926
▁Sour	-14.7928
▁Harvey	-14.7929
▁gracefulness	-14.793
▁Guns	-14.7931
▁Golf	-14.7934
lip	-14.7935
œLittle	-14.7936
▁eyebrows	-14.7936
▁angles	-14.7937
▁chemicals	-14.7944
▁bursting	-14.7945
oice	-14.795
ater	-14.7952
▁stinging	-14.7952
blue	-14.7955
each	-14.796
▁holder	-14.7968
▁stinger	-14.7977
▁Pee	-14.798
▁Emi	-14.7981
▁Opal	-14.7984
▁Sonia	-14.7984
▁Teresa	-14.7984
Circus	-14.7984
▁Lucia	-14.7984
▁reporter	-14.7988
▁disobeying	-14.7988
▁owie	-14.8009
ked	-14.8013
Coco	-14.8014
Samantha	-14.8015
snap	-14.8016
Abby	-14.8019
▁Pay	-14.8019
▁amazingly	-14.8026
▁weekends	-14.803
▁pil	-14.8038
▁Cal	-14.8041
▁require	-14.8042
▁Madison	-14.8043
▁opponent	-14.8043
▁Perry	-14.8043
▁north	-14.8043
▁Bertha	-14.8043
▁gentlemen	-14.8045
▁Gerald	-14.8046
▁Clouds	-14.8047
▁fr	-14.8049
▁rhymes	-14.8053
▁Spaghetti	-14.8062
▁Delicious	-14.8068
water	-14.8069
▁coldness	-14.8073
▁doggies	-14.8073
Jacob	-14.8074
Spring	-14.8074
▁amounts	-14.808
▁Pri	-14.8089
win	-14.81
▁stink	-14.8102
atrina	-14.8103
▁Francis	-14.8103
▁receptionist	-14.8103
▁ninety	-14.8103
▁seventy	-14.8103
▁extended	-14.8103
▁campers	-14.8104
▁flushed	-14.8104
▁Jana	-14.8105
▁portal	-14.8105
▁Mushroom	-14.8108
Johny	-14.8109
▁freshest	-14.8109
▁Soft	-14.812
▁eyed	-14.8125
Da	-14.8125
▁beavers	-14.8133
Books	-14.8134
▁Bri	-14.8139
Mumma	-14.8145
▁hating	-14.8151
▁Whe	-14.8156
Neigh	-14.8156
▁preparation	-14.8158
▁noodle	-14.8159
ien	-14.8159
▁Had	-14.8159
▁scuttl	-14.816
▁Nevertheless	-14.8163
▁dribbling	-14.8163
▁rollercoaster	-14.8163
▁Witch	-14.8163
▁ensure	-14.8163
▁dipping	-14.8163
▁marketplace	-14.8163
▁Cally	-14.8163
▁invented	-14.8163
▁pleasantly	-14.8164
▁cur	-14.8165
▁Turkey	-14.8166
▁Cloud	-14.8169
▁splashy	-14.8171
▁Shake	-14.8174
▁token	-14.8179
▁Clean	-14.8182
face	-14.8192
▁Fr	-14.8202
Po	-14.8209
▁engulf	-14.8223
▁handiwork	-14.8223
▁realising	-14.8223
▁sizzling	-14.8223
▁stooped	-14.8223
▁townsfolk	-14.8223
▁Elena	-14.8223
▁waft	-14.8223
▁dread	-14.8223
▁Andrea	-14.8223
Yup	-14.8226
▁Mon	-14.8227
▁Jac	-14.823
▁Bark	-14.8237
▁scan	-14.8238
drop	-14.8253
History	-14.8255
Mouse	-14.8255
▁Snakes	-14.8255
▁basics	-14.8263
March	-14.8264
Ball	-14.8278
▁vow	-14.8279
▁reasons	-14.828
▁somersault	-14.828
anger	-14.8281
▁smirk	-14.8283
▁Elmer	-14.8284
▁chorus	-14.8284
▁daffodil	-14.8284
▁judging	-14.8284
▁chomped	-14.8284
nite	-14.8286
œYummy	-14.8289
▁Cricket	-14.8289
▁thumping	-14.829
▁forms	-14.8293
▁eighty	-14.8293
▁swallows	-14.8297
▁Browny	-14.8301
cal	-14.8302
▁dec	-14.8308
AC	-14.8312
Drop	-14.8316
Daniel	-14.8316
Claire	-14.8316
Sunny	-14.8316
repeat	-14.8316
▁Liv	-14.8318
▁Swans	-14.8321
▁wilder	-14.8322
open	-14.8337
Buy	-14.8345
▁Angus	-14.8345
▁drawbridge	-14.8345
▁drenched	-14.8345
▁jewellery	-14.8345
▁strumming	-14.8345
▁Fern	-14.8345
▁Skipping	-14.8345
▁Night	-14.8345
▁traveller	-14.8345
▁cooling	-14.8346
▁snugly	-14.8346
▁banners	-14.8351
▁Flexible	-14.8351
▁growth	-14.8351
▁nervousness	-14.8352
▁Leopard	-14.8353
book	-14.8358
▁fisher	-14.8359
▁Fuel	-14.836
nyone	-14.8368
▁flyers	-14.8378
▁lightest	-14.838
Tonight	-14.8392
▁pier	-14.8399
▁quiver	-14.8404
▁prison	-14.8406
▁previous	-14.8406
▁supervision	-14.8406
▁limeade	-14.8406
Lemonade	-14.8406
▁advised	-14.8406
▁Alina	-14.8406
▁rubble	-14.8407
▁hotdog	-14.8407
▁adopted	-14.8408
▁Strong	-14.8409
▁Ghost	-14.841
▁Iris	-14.8413
▁puffing	-14.8414
trapped	-14.8414
▁Steak	-14.8414
Mabel	-14.8439
▁Prunes	-14.8457
▁antennas	-14.846
▁dash	-14.8467
uffy	-14.8467
Strike	-14.8468
▁ignorance	-14.8468
▁impatience	-14.8468
▁pausing	-14.8468
▁snorkel	-14.8468
▁snowstorm	-14.8468
▁unpleasant	-14.8468
▁unity	-14.8468
▁selected	-14.8468
▁moldy	-14.8469
▁puckered	-14.8469
▁Magnet	-14.847
▁elsewhere	-14.8472
▁expressing	-14.8473
▁regretting	-14.8474
▁marrying	-14.8479
▁Clap	-14.8488
▁Mee	-14.849
Duck	-14.8501
▁Tap	-14.8507
▁Teach	-14.852
Win	-14.8528
▁Saturn	-14.853
▁safekeeping	-14.853
▁vigorously	-14.853
▁smack	-14.853
▁controller	-14.853
▁Jem	-14.853
▁clasped	-14.853
▁shimmery	-14.853
▁protested	-14.8531
▁polishes	-14.8534
▁Chester	-14.8535
▁Wheat	-14.8536
▁rev	-14.8536
▁cheapest	-14.8537
Bees	-14.8544
▁per	-14.8551
▁Spin	-14.8561
Maddy	-14.8563
tasting	-14.8563
Apple	-14.8563
Sweetie	-14.8564
▁Tobi	-14.8572
ainbows	-14.8572
Closed	-14.8574
▁Pass	-14.8582
▁Crow	-14.859
▁superpowers	-14.8591
▁Allowed	-14.8592
▁renewed	-14.8592
▁slumped	-14.8592
▁thirteen	-14.8592
▁reddest	-14.8592
▁curb	-14.8592
▁Brain	-14.8592
▁knitted	-14.8592
▁boop	-14.8593
▁quarrelled	-14.8594
œbut	-14.8596
▁fainted	-14.8599
▁Train	-14.8607
▁modestly	-14.8608
▁rafting	-14.8611
▁Words	-14.8614
▁Willa	-14.8614
▁obeying	-14.8621
▁commands	-14.8623
urn	-14.8642
▁scowl	-14.8653
▁Pastel	-14.8655
▁Sylvester	-14.8655
▁handcuffs	-14.8655
▁kindergarten	-14.8655
▁kitties	-14.8655
▁skeptical	-14.8655
▁storeowner	-14.8655
Easy	-14.8655
▁Amaya	-14.8655
▁Ariel	-14.8655
▁coward	-14.8655
▁postbox	-14.8655
▁treatment	-14.8658
▁Corn	-14.866
▁medic	-14.866
▁Someday	-14.8671
▁predators	-14.868
▁Poison	-14.8682
ron	-14.8695
▁Spi	-14.8698
ivi	-14.8705
▁soften	-14.8706
▁Bananas	-14.8706
▁relationships	-14.8715
▁caretaker	-14.8718
▁clumsily	-14.8718
▁ferocious	-14.8718
▁aahed	-14.8719
▁Fireman	-14.8719
▁reassuringly	-14.8719
▁attempted	-14.8721
▁Dana	-14.8728
Li	-14.8731
▁Stars	-14.8732
▁opener	-14.8736
Feed	-14.8743
inny	-14.8748
Again	-14.8753
Tara	-14.8754
rk	-14.8755
▁sacked	-14.8763
Pam	-14.8767
Merry	-14.8771
▁possibl	-14.8781
▁Fay	-14.8782
▁taco	-14.8782
▁Grandfather	-14.8782
▁Troy	-14.8782
▁Wilson	-14.8782
▁concentration	-14.8782
▁receipt	-14.8782
▁signature	-14.8782
▁selection	-14.8782
▁trolley	-14.8782
Crawl	-14.8785
▁blackbird	-14.8786
▁pinecones	-14.8787
▁sparkler	-14.8788
▁trumpeted	-14.8788
▁spines	-14.8791
Pray	-14.8794
▁feasted	-14.8795
▁multipl	-14.8796
▁mentioning	-14.8801
▁jumpy	-14.881
Peace	-14.8817
eat	-14.8828
len	-14.8831
▁detectives	-14.8839
▁recover	-14.8845
▁Gertrude	-14.8846
▁instructed	-14.8846
▁constantly	-14.8846
Oink	-14.8847
▁trespassing	-14.8847
awr	-14.8847
▁deliveries	-14.8847
▁Surrender	-14.8848
▁awoken	-14.8848
▁Sharp	-14.8853
▁inner	-14.8865
ppy	-14.8888
fashioned	-14.8899
nny	-14.8905
▁chunks	-14.8907
▁grunt	-14.891
▁Mario	-14.8911
▁Puss	-14.8911
▁fame	-14.8911
▁grumpily	-14.8911
▁paradise	-14.8911
▁poodle	-14.8911
▁preferences	-14.8911
▁raspberries	-14.8911
▁version	-14.8911
▁Debby	-14.8911
▁Driver	-14.8911
ou	-14.8912
▁dribbled	-14.8912
▁Octopus	-14.8918
▁Police	-14.8919
Sing	-14.8924
▁toasted	-14.8936
▁br	-14.8945
Choose	-14.8948
▁Yield	-14.8949
▁Carrots	-14.895
▁towering	-14.8962
▁Jin	-14.8973
▁invent	-14.8974
nives	-14.8976
▁Eager	-14.8976
▁Game	-14.8976
▁Shiny	-14.8976
▁bellowed	-14.8976
▁clumsiness	-14.8976
▁corridor	-14.8976
▁mercy	-14.8976
▁scribbling	-14.8976
▁scruffy	-14.8976
▁summit	-14.8976
▁haunted	-14.8976
▁Lumber	-14.898
▁marches	-14.8982
▁Exercise	-14.8988
▁Slide	-14.8994
▁healer	-14.8998
▁lack	-14.9003
Elephant	-14.9012
would	-14.9012
Brownie	-14.9012
wash	-14.9016
fives	-14.9017
▁Spiders	-14.9029
aja	-14.9037
▁link	-14.904
eindeer	-14.9041
▁Brett	-14.9041
▁Street	-14.9041
▁blaring	-14.9041
▁disrespectful	-14.9041
▁fidget	-14.9041
▁pyramid	-14.9041
▁hue	-14.9041
▁Jayden	-14.9041
▁Nation	-14.9041
▁sunbeam	-14.9042
▁foolishness	-14.9047
▁superpower	-14.9047
▁Twin	-14.9051
anna	-14.9067
iri	-14.9067
thing	-14.9069
Meet	-14.907
▁explodes	-14.9071
▁stuffy	-14.9073
▁camels	-14.9077
Snake	-14.9078
Tiny	-14.9078
Ducky	-14.9078
▁brat	-14.9105
Whoosh	-14.9107
▁Blaze	-14.9107
▁Charley	-14.9107
▁drool	-14.9107
▁duties	-14.9107
▁fourteen	-14.9107
▁junkyard	-14.9107
▁severe	-14.9107
▁accessory	-14.9107
▁boing	-14.9107
▁alleyway	-14.9107
Studying	-14.9107
▁wrinkle	-14.9108
▁claimed	-14.9108
▁Jewel	-14.911
▁nor	-14.9113
▁curling	-14.9115
▁Long	-14.9121
œwe	-14.9122
▁secured	-14.9125
za	-14.9133
▁Allen	-14.9136
loop	-14.9137
Higher	-14.9144
Lucky	-14.9144
Janie	-14.9144
quack	-14.9146
▁Mal	-14.9153
late	-14.9159
œBob	-14.9159
wo	-14.9162
▁advisor	-14.9173
▁assistance	-14.9173
▁navigate	-14.9173
▁occurred	-14.9173
▁tusks	-14.9173
▁unknowingly	-14.9173
Aaaah	-14.9173
▁Bridget	-14.9173
▁Bathing	-14.9174
▁cancel	-14.9174
▁mitt	-14.9175
▁difficulties	-14.9175
▁arf	-14.9191
▁playdough	-14.9194
▁dozing	-14.9195
▁Goat	-14.9209
Work	-14.9211
Avery	-14.9211
Chloe	-14.9211
Before	-14.9211
tell	-14.922
▁Call	-14.923
▁snarl	-14.9238
▁crush	-14.9238
▁duo	-14.924
▁elated	-14.924
▁frolicked	-14.924
▁discount	-14.924
ictoria	-14.924
▁ripping	-14.924
ssssssssssssssss	-14.9241
▁Triangle	-14.9244
▁fairness	-14.9252
▁Sand	-14.9256
leaf	-14.9278
New	-14.9278
ized	-14.9282
▁arguments	-14.9289
au	-14.9294
▁maple	-14.9302
▁recognise	-14.9306
▁boar	-14.9306
▁buns	-14.9306
▁reluctant	-14.9307
▁erasing	-14.9307
▁hydrant	-14.9307
▁sensitive	-14.9307
▁stabbed	-14.9307
▁unattended	-14.9307
▁Jacklyn	-14.9307
▁toucan	-14.9307
▁Elmo	-14.9307
▁Angelina	-14.9307
▁Woody	-14.9307
▁drooping	-14.9308
▁gatekeeper	-14.9308
▁witnessed	-14.9308
Pop	-14.9309
▁schoolwork	-14.931
▁shaved	-14.9312
▁Store	-14.9312
▁crest	-14.9314
▁Ju	-14.9323
▁nooks	-14.9324
ric	-14.9327
œLily	-14.9327
▁Save	-14.933
▁whir	-14.9332
▁Foo	-14.9334
Wasn	-14.9337
Poison	-14.9346
Bring	-14.9346
▁scents	-14.9361
▁squint	-14.9372
▁cycle	-14.9373
Fragile	-14.9374
▁BOOM	-14.9374
▁Casper	-14.9374
▁Clever	-14.9374
▁Eagle	-14.9374
▁crazier	-14.9374
▁tiniest	-14.9374
▁Miley	-14.9375
▁Slimy	-14.9375
ichie	-14.9375
Dangerous	-14.9376
▁rainwater	-14.9377
▁screeching	-14.9378
▁hooting	-14.9378
▁Honest	-14.9382
▁Gum	-14.9388
ctor	-14.9388
▁Mai	-14.9402
nut	-14.9404
Snap	-14.9414
▁feathery	-14.9415
een	-14.9418
▁ironed	-14.9429
lock	-14.9432
▁whee	-14.9437
Ladies	-14.9442
Strawberry	-14.9442
▁Drawing	-14.9442
▁Greed	-14.9442
▁coyote	-14.9442
▁galaxy	-14.9442
▁iceberg	-14.9442
▁Eddy	-14.9442
▁sillier	-14.9442
▁Hairy	-14.9443
▁tame	-14.9443
▁archery	-14.9443
▁seedling	-14.9444
▁inspiring	-14.9446
▁icicle	-14.9446
▁relationship	-14.9446
œListen	-14.9447
▁Original	-14.9454
▁joggers	-14.9455
▁Cell	-14.9459
▁Cam	-14.9463
▁Marry	-14.948
Mmmmm	-14.9481
Paula	-14.9483
eeping	-14.9488
Nick	-14.949
▁pests	-14.95
▁NO	-14.9502
fast	-14.9505
ual	-14.9505
▁mateys	-14.951
▁construct	-14.9511
▁rosemary	-14.9511
▁tambourine	-14.9511
Indeed	-14.9511
▁Louisa	-14.9511
▁issue	-14.9511
▁restful	-14.9513
rge	-14.9517
▁darkened	-14.9517
▁cradle	-14.9525
▁afterward	-14.9526
gle	-14.953
▁makers	-14.9533
▁Join	-14.9533
▁Fee	-14.9533
?'"	-14.9537
œno	-14.9544
Yoga	-14.9551
▁Hat	-14.9553
▁gentler	-14.956
Hot	-14.9561
▁saucers	-14.9565
▁program	-14.9578
▁congratulate	-14.9579
▁Wood	-14.9579
▁Tiffany	-14.958
▁elegant	-14.958
▁wriggly	-14.958
▁clatter	-14.958
▁unfroze	-14.958
▁Port	-14.958
▁Scout	-14.958
▁swerved	-14.9581
▁sparklers	-14.9581
▁squirming	-14.9582
▁steeper	-14.9585
pan	-14.9588
œAnd	-14.9591
▁fla	-14.9593
▁Touch	-14.9597
▁boarding	-14.9597
▁Salad	-14.9598
▁twine	-14.9601
ently	-14.9615
Delicious	-14.962
Simon	-14.9621
Penny	-14.9621
Behave	-14.9623
▁Scratch	-14.9649
▁Anchor	-14.9649
▁intricate	-14.9649
▁schedule	-14.9649
▁toothache	-14.9649
▁Trunk	-14.9649
▁humbly	-14.9649
▁arose	-14.965
▁snorting	-14.9652
▁fatter	-14.9653
▁Toast	-14.9658
▁footing	-14.966
▁artifacts	-14.966
▁Power	-14.9661
bby	-14.9662
▁playmates	-14.9662
▁Child	-14.9668
Pink	-14.969
lantern	-14.969
Whiskers	-14.969
click	-14.969
grow	-14.9691
▁poo	-14.9705
▁fossils	-14.971
▁sulk	-14.9718
▁Happily	-14.9719
▁Sully	-14.9719
▁crannies	-14.9719
▁Jude	-14.9719
Blast	-14.9719
ingdom	-14.9719
▁Moira	-14.9719
▁marvelled	-14.972
▁strained	-14.972
▁responding	-14.9724
rie	-14.9725
▁BANG	-14.9726
▁Plant	-14.9728
▁Spinning	-14.9729
▁sa	-14.9733
▁Aly	-14.9738
▁Swing	-14.9742
▁Freda	-14.9743
œMolly	-14.9747
found	-14.9747
han	-14.9755
Things	-14.9761
Weigh	-14.9762
Pow	-14.9762
Betty	-14.9767
▁heroic	-14.9769
Girls	-14.9784
▁shatter	-14.9789
▁Delilah	-14.979
▁Fireworks	-14.979
▁Jupiter	-14.979
▁frills	-14.979
▁untouched	-14.979
▁Gilda	-14.979
▁Swimmy	-14.979
▁dune	-14.979
▁affection	-14.979
▁webbed	-14.979
Coming	-14.979
▁hairbrush	-14.979
▁Town	-14.9791
▁Hay	-14.9792
▁kiddo	-14.9793
ko	-14.9795
▁brightening	-14.9795
▁germ	-14.9797
Seven	-14.9799
▁Honk	-14.9818
▁mis	-14.9824
▁coil	-14.9825
Green	-14.9832
tweet	-14.9832
eke	-14.9846
▁na	-14.9854
▁fuller	-14.986
▁favour	-14.9861
▁Olaf	-14.9861
▁jolt	-14.9861
▁submarine	-14.9861
▁yolk	-14.9861
▁Nanny	-14.9861
▁password	-14.9861
▁Bally	-14.9862
▁mowing	-14.9862
Bike	-14.9864
▁roaming	-14.9864
▁Sidney	-14.9864
▁achievements	-14.9865
▁pod	-14.9868
▁rudeness	-14.9873
▁Art	-14.9873
▁bombs	-14.9881
acing	-14.9883
▁drips	-14.9889
▁parting	-14.9901
Papa	-14.9903
will	-14.9903
▁Aria	-14.9904
Was	-14.9905
Le	-14.9906
own	-14.9908
cut	-14.992
▁Care	-14.9926
▁smoked	-14.9929
▁tangle	-14.9931
▁splat	-14.9932
▁Contest	-14.9932
▁Frisbee	-14.9932
▁clank	-14.9932
▁cranny	-14.9932
▁granddad	-14.9932
▁passageway	-14.9932
▁spiciest	-14.9932
▁Hood	-14.9932
▁Shade	-14.9932
▁balm	-14.9932
▁gummies	-14.9932
▁Logan	-14.9932
▁Grey	-14.9932
▁inspection	-14.9932
▁hamper	-14.9932
▁Dusty	-14.9932
▁swordfish	-14.9933
▁Pal	-14.994
estore	-14.9945
place	-14.9946
erri	-14.9949
▁Any	-14.995
bee	-14.9953
▁Smile	-14.9956
▁trinkets	-14.9958
proving	-14.9959
▁exited	-14.9963
▁Grant	-14.9964
▁leftovers	-14.9966
▁squiggles	-14.9969
press	-14.9975
Auntie	-14.9975
Shoot	-14.9977
Pear	-14.9991
▁Add	-14.9994
Sell	-14.9995
▁Jog	-15.0001
▁disgust	-15.0002
▁Canada	-15.0004
▁Clive	-15.0004
▁Graham	-15.0004
▁Modest	-15.0004
▁Safety	-15.0004
▁Steel	-15.0004
▁Walking	-15.0004
▁chandelier	-15.0004
▁friendlier	-15.0004
▁mural	-15.0004
▁prodded	-15.0004
▁squiggly	-15.0004
Hurray	-15.0004
▁apologetic	-15.0004
▁tentatively	-15.0004
▁Snappy	-15.0004
▁Haley	-15.0004
▁swiftly	-15.0004
▁matchstick	-15.0004
▁cookbook	-15.0005
▁clinked	-15.0005
▁connecting	-15.001
▁fo	-15.0011
▁Ancient	-15.0014
fall	-15.0037
▁Marian	-15.0041
Nap	-15.0047
Honk	-15.0048
ified	-15.0049
wait	-15.005
key	-15.0051
Wash	-15.0073
▁archer	-15.0076
▁Stevie	-15.0076
▁appropriate	-15.0076
▁lazily	-15.0076
▁location	-15.0076
▁messenger	-15.0076
▁salesperson	-15.0076
▁sprite	-15.0076
▁strung	-15.0076
▁Shelby	-15.0076
▁Week	-15.0076
▁Lamb	-15.0076
▁according	-15.0077
▁doughnut	-15.0077
▁swishing	-15.0078
▁oinked	-15.0079
▁successes	-15.0081
▁crackled	-15.0081
▁mending	-15.0082
▁claim	-15.0082
▁antenna	-15.0084
Bra	-15.0087
ju	-15.0087
▁Tonya	-15.009
▁Ace	-15.009
rain	-15.0101
▁independently	-15.0102
ica	-15.0106
▁Dream	-15.0113
œTommy	-15.0115
Old	-15.0121
Lot	-15.0121
▁embark	-15.0123
dong	-15.0124
cre	-15.013
▁coldest	-15.0132
▁filth	-15.0149
▁triumph	-15.0149
▁Granddad	-15.0149
▁backstage	-15.0149
▁bargain	-15.0149
▁complex	-15.0149
▁gluing	-15.0149
▁hesitating	-15.0149
▁muffled	-15.0149
▁stammered	-15.0149
▁sapling	-15.0149
▁deliveryman	-15.015
œSarah	-15.0153
▁Bouncing	-15.0153
▁crafting	-15.0156
▁Jogging	-15.0159
▁stingy	-15.0161
▁ju	-15.0164
▁range	-15.0173
▁Perfect	-15.0186
Flower	-15.0194
▁Dolphins	-15.0202
▁cuter	-15.0204
▁straps	-15.0204
Coo	-15.0213
œSam	-15.0218
▁glare	-15.0222
Balloon	-15.0223
▁Castle	-15.0223
▁Delighted	-15.0223
▁Joshua	-15.0223
▁Noelle	-15.0223
▁Spud	-15.0223
▁chart	-15.0223
▁instructor	-15.0223
▁loveliest	-15.0223
▁participate	-15.0223
▁Chubby	-15.0223
▁fried	-15.0223
▁Gear	-15.0223
▁Marge	-15.0223
▁triumphantly	-15.0223
▁ahold	-15.0223
▁sharpener	-15.0224
▁chanted	-15.0224
▁slurping	-15.0225
▁Fancy	-15.0229
▁Brush	-15.023
▁Phew	-15.0231
▁travelers	-15.0232
▁cartwheel	-15.0233
▁Pirates	-15.0243
ON	-15.0248
Smell	-15.0251
▁bumper	-15.0257
▁Wren	-15.0262
Animal	-15.0268
Dream	-15.0268
through	-15.0268
▁Bath	-15.0269
▁cradl	-15.0282
▁rounder	-15.0282
▁lasting	-15.0283
Hide	-15.0284
▁Brenda	-15.0297
▁Eleanor	-15.0297
▁Stinky	-15.0297
▁ambition	-15.0297
▁awkward	-15.0297
▁nerves	-15.0297
▁pegs	-15.0297
▁sheriff	-15.0297
▁operator	-15.0297
▁fangs	-15.0297
▁Barbara	-15.0297
▁scooting	-15.0298
▁Late	-15.0299
▁checkup	-15.0301
▁ouchie	-15.0302
▁charmed	-15.0303
▁fossil	-15.0307
illa	-15.0311
▁zagged	-15.0312
▁pitched	-15.0312
▁lapping	-15.0315
▁Len	-15.0319
Co	-15.0324
▁Lil	-15.0324
▁topping	-15.0327
chug	-15.0343
▁golfers	-15.0347
▁Tea	-15.0365
▁Gordon	-15.0372
▁Harper	-15.0372
▁clogged	-15.0372
▁disguise	-15.0372
▁energised	-15.0372
▁proposed	-15.0372
Woohoo	-15.0372
▁flowerpot	-15.0372
▁swoosh	-15.0372
▁cling	-15.0372
▁Sleepy	-15.0374
▁sizzled	-15.0374
▁peer	-15.0375
▁disagreements	-15.0378
▁yo	-15.0378
▁breakable	-15.0382
▁Blow	-15.0382
org	-15.0384
▁jeweler	-15.039
▁Squawk	-15.0393
ably	-15.04
ala	-15.0416
Oxygen	-15.0418
tocked	-15.0422
Oooh	-15.0437
œS	-15.044
▁flex	-15.0446
▁Alyssa	-15.0447
▁Garden	-15.0447
▁doomed	-15.0447
▁fertilizer	-15.0447
▁grouchy	-15.0447
▁sixteen	-15.0447
▁triceratops	-15.0447
▁Ladybug	-15.0447
▁Further	-15.0447
▁Baker	-15.0447
▁immensely	-15.0447
▁Starry	-15.0447
▁Jared	-15.0447
▁Miki	-15.0447
▁Bertie	-15.0447
▁gleamed	-15.0447
uthie	-15.0448
▁projector	-15.0448
▁rhinoceroses	-15.0451
▁Sonny	-15.0456
▁Wiggle	-15.0458
▁Matches	-15.0461
▁upsetting	-15.0462
▁Fli	-15.0462
▁Mud	-15.0463
Nope	-15.0481
▁Iron	-15.0488
▁molds	-15.049
whoosh	-15.0494
Squirrel	-15.0494
Squeak	-15.0494
Bubble	-15.0494
oof	-15.05
▁strands	-15.05
Spin	-15.0501
▁meter	-15.0514
ealizing	-15.0523
Ignorant	-15.0523
▁Gabe	-15.0523
▁crime	-15.0523
▁width	-15.0523
▁suds	-15.0523
▁jig	-15.0523
▁Leon	-15.0525
▁threaded	-15.0529
▁Fix	-15.0532
▁Luis	-15.0533
▁chilli	-15.0534
▁habitat	-15.0534
▁mewed	-15.0537
mber	-15.0539
▁Book	-15.0542
▁Dance	-15.055
▁appearances	-15.0552
rich	-15.0554
abi	-15.0555
legged	-15.056
▁pest	-15.0563
Print	-15.057
poison	-15.057
toes	-15.0589
▁clink	-15.0597
▁Chelsea	-15.0599
▁Floyd	-15.0599
▁Marta	-15.0599
▁cavities	-15.0599
▁misbehaving	-15.0599
YES	-15.0599
▁earthworm	-15.0599
▁Fizzy	-15.0599
zagging	-15.06
▁Freeze	-15.0603
▁simpler	-15.0604
▁preparations	-15.0604
▁Mail	-15.0645
Faster	-15.0647
▁jailer	-15.065
Anne	-15.065
▁Croc	-15.0669
▁brew	-15.0675
Measure	-15.0676
▁Jungle	-15.0676
▁Nico	-15.0676
▁Washing	-15.0676
▁anxiety	-15.0676
▁dusk	-15.0676
▁festive	-15.0676
▁overwhelming	-15.0676
▁pelican	-15.0676
▁wreath	-15.0676
Fetch	-15.0676
▁tarp	-15.0676
Answer	-15.0676
▁Blueberry	-15.0676
▁creeping	-15.0678
▁Curiously	-15.0679
▁whisked	-15.0679
▁neighing	-15.0679
▁Hang	-15.0686
▁sob	-15.0686
aff	-15.0688
shirts	-15.0699
▁Inch	-15.0703
ocking	-15.0709
▁donation	-15.0712
Money	-15.0725
Suddenly	-15.0725
Patty	-15.0725
try	-15.0733
Cake	-15.0735
Friend	-15.0738
▁unscrew	-15.0752
▁savanna	-15.0753
Click	-15.0753
▁centimeters	-15.0753
▁Humble	-15.0753
▁Treat	-15.0753
▁Also	-15.0753
▁Callie	-15.0753
▁courageously	-15.0754
▁desired	-15.0756
▁unloading	-15.0758
▁CDs	-15.0759
▁woo	-15.0761
▁generation	-15.0767
ried	-15.0769
Lea	-15.0778
▁Perhaps	-15.0778
▁spotting	-15.0787
ically	-15.0788
▁Fall	-15.079
▁labeled	-15.0802
Granny	-15.0803
special	-15.0803
bing	-15.0805
▁Socks	-15.0814
did	-15.0819
step	-15.0825
▁reassure	-15.083
Organizing	-15.0831
▁biking	-15.0831
▁bookshelves	-15.0831
▁folk	-15.0831
▁nozzle	-15.0831
▁unaware	-15.0831
▁shack	-15.0832
▁distraction	-15.0832
▁Lung	-15.0832
▁Denny	-15.0832
▁Forever	-15.0832
▁whirling	-15.0833
▁diapers	-15.0834
▁traced	-15.0834
▁Stories	-15.0836
umble	-15.0837
▁Free	-15.0839
Matt	-15.0841
▁dollies	-15.085
pay	-15.0856
▁Camp	-15.0857
these	-15.0859
▁apply	-15.0867
▁Lemons	-15.0867
▁Spray	-15.0871
Thunder	-15.0881
arla	-15.0894
▁Pill	-15.091
▁unfortunate	-15.091
▁monk	-15.091
▁Desperate	-15.091
▁Leslie	-15.091
▁Worry	-15.091
▁cavity	-15.091
▁circling	-15.091
▁initial	-15.091
▁jellybean	-15.091
▁prickles	-15.091
▁Chippy	-15.091
▁impression	-15.091
▁Balloons	-15.091
▁Below	-15.0911
▁director	-15.0912
▁Squeeze	-15.0925
▁couches	-15.0926
▁upright	-15.0929
▁slowest	-15.0929
▁leaky	-15.0932
▁motionless	-15.0937
▁hens	-15.0944
▁flitte	-15.0948
berries	-15.0956
Gabby	-15.0961
Lulu	-15.0961
Mila	-15.0961
even	-15.0969
▁Toy	-15.097
patter	-15.0972
▁wa	-15.0973
anessa	-15.0976
▁assemble	-15.0989
Dinosaur	-15.0989
▁Horsy	-15.099
▁Sisi	-15.099
▁diner	-15.099
▁lounging	-15.099
Supply	-15.099
▁entry	-15.099
▁sunhat	-15.099
▁twittered	-15.099
▁Danielle	-15.099
▁batted	-15.099
▁Greenie	-15.099
▁lightening	-15.0991
▁cawing	-15.0996
▁dinnertime	-15.1001
▁measurement	-15.1007
œAll	-15.1007
▁Choose	-15.1026
▁Jena	-15.104
Making	-15.1041
▁Banana	-15.1046
ised	-15.105
fire	-15.1055
▁Cheryl	-15.107
▁Clyde	-15.107
▁Jumbo	-15.107
▁Malcolm	-15.107
▁Slinky	-15.107
▁experiencing	-15.107
▁relative	-15.107
▁drooped	-15.107
▁tinkering	-15.107
▁tended	-15.1072
▁purchased	-15.1075
onald	-15.1082
chi	-15.11
▁Ear	-15.1107
weigh	-15.1111
▁rep	-15.1114
Butterflies	-15.1121
Spike	-15.1121
Suzy	-15.1121
Lizzy	-15.1122
Nana	-15.1122
Aye	-15.1123
œTo	-15.1123
Owl	-15.1129
▁Abe	-15.1136
▁Wizard	-15.115
▁bulldozer	-15.115
▁drier	-15.115
▁exotic	-15.115
▁genius	-15.115
▁grease	-15.115
▁lollies	-15.115
▁omelette	-15.115
▁organization	-15.115
▁pulp	-15.115
▁robbed	-15.115
▁sketch	-15.115
Class	-15.115
▁Suki	-15.115
▁bragging	-15.115
▁awaiting	-15.115
▁ferry	-15.115
adish	-15.115
▁gingerly	-15.115
▁transported	-15.1151
▁crumbly	-15.1151
▁portion	-15.1151
▁troublemaker	-15.1152
epair	-15.1153
▁pooped	-15.1155
▁unexpectedly	-15.1157
▁mightier	-15.1158
▁emotion	-15.1167
▁twirly	-15.117
▁Fake	-15.1171
▁ledge	-15.1182
bly	-15.1184
▁Six	-15.1194
▁powered	-15.1199
worm	-15.1203
Michael	-15.1203
grandpa	-15.1203
Grrr	-15.1205
▁polisher	-15.1205
▁sap	-15.1217
▁icicles	-15.1227
▁reunite	-15.1231
▁Christopher	-15.1232
▁Fisherman	-15.1232
▁astounded	-15.1232
▁luxuries	-15.1232
▁pulse	-15.1232
▁stuttered	-15.1232
▁hull	-15.1232
▁Denise	-15.1232
▁slink	-15.1232
▁Gem	-15.1232
▁Colors	-15.1232
▁Needle	-15.1232
▁array	-15.1232
▁boasted	-15.1232
▁carelessness	-15.1237
enus	-15.124
▁Glue	-15.1241
anish	-15.1263
▁Oysters	-15.1272
▁generously	-15.1278
▁Mat	-15.1282
ced	-15.1283
lish	-15.1284
get	-15.1284
▁willow	-15.1285
jump	-15.1285
œJoe	-15.1302
▁soot	-15.1303
▁descend	-15.1313
▁represent	-15.1313
uring	-15.1313
▁Celeste	-15.1313
▁Gavin	-15.1313
▁laziness	-15.1313
▁brewing	-15.1315
▁Jeep	-15.1316
▁Sly	-15.1318
▁Cactus	-15.1319
▁Anny	-15.132
▁Whistling	-15.1322
▁tr	-15.1325
▁Hill	-15.1327
Pull	-15.1329
▁rage	-15.1331
▁foolishly	-15.1345
Jail	-15.1351
▁mu	-15.1357
▁knowingly	-15.136
ible	-15.1361
▁croc	-15.1366
splash	-15.1367
Lemon	-15.1367
▁Sock	-15.1369
▁attache	-15.1383
▁Caw	-15.1388
▁scamper	-15.1394
▁Chick	-15.1396
▁contagious	-15.1396
▁motivated	-15.1396
▁gazelle	-15.1396
▁trio	-15.1396
▁Guardian	-15.1396
▁Catherine	-15.1396
▁gang	-15.1396
▁lair	-15.1396
▁combine	-15.1396
▁illuminated	-15.1396
▁Jumper	-15.1397
▁scampering	-15.1397
▁Bam	-15.1398
▁hotdogs	-15.14
▁Sauce	-15.1402
▁nudges	-15.1404
▁Omar	-15.1404
▁Sorting	-15.1408
▁chords	-15.1412
▁Swinging	-15.1412
▁subject	-15.1415
▁Button	-15.1417
uiet	-15.1421
▁entranced	-15.1422
▁Seek	-15.1424
▁splint	-15.1432
▁Chee	-15.1433
▁duster	-15.1434
Olive	-15.1451
Coffee	-15.1451
stupid	-15.1451
value	-15.1451
Whatever	-15.1452
▁largest	-15.1456
▁qu	-15.1457
▁hire	-15.1469
▁annoy	-15.1477
▁Allison	-15.1479
▁Hundreds	-15.1479
▁Isaac	-15.1479
▁Nadia	-15.1479
▁Petunia	-15.1479
▁examination	-15.1479
▁observation	-15.1479
▁yipped	-15.1479
▁sleek	-15.1479
▁Emilia	-15.1479
▁spew	-15.148
nderstand	-15.148
▁Jonas	-15.148
▁locker	-15.148
▁cackled	-15.148
▁mansion	-15.148
▁installed	-15.148
▁overflowed	-15.1481
▁Butch	-15.1483
▁defended	-15.1483
▁Sim	-15.1483
▁highway	-15.1486
▁Squash	-15.1487
▁Egg	-15.1489
▁mouthful	-15.1492
nee	-15.1492
▁Tiki	-15.1496
▁tricking	-15.1496
▁competitors	-15.1499
guine	-15.1504
▁dye	-15.1517
eful	-15.1531
bling	-15.1534
Popcorn	-15.1535
Patience	-15.1535
Dance	-15.1535
record	-15.1535
yummy	-15.1535
Smile	-15.1536
Bow	-15.1538
▁dreamy	-15.1543
▁strangest	-15.1545
▁forked	-15.155
whee	-15.1553
▁straighten	-15.1556
▁blister	-15.1563
▁bridle	-15.1563
▁caboose	-15.1563
▁hairdryer	-15.1563
▁ignition	-15.1563
▁nutritious	-15.1563
▁quartz	-15.1563
▁shipwreck	-15.1563
▁women	-15.1563
▁educational	-15.1564
▁Mammy	-15.1564
▁Jonah	-15.1564
▁yank	-15.1564
▁braked	-15.1566
▁looser	-15.1568
▁mar	-15.1571
▁Flour	-15.1572
▁Blu	-15.1576
▁jaw	-15.1584
▁docked	-15.1585
▁booed	-15.1588
MY	-15.1593
▁saucer	-15.1602
ictor	-15.1606
Best	-15.1616
Count	-15.1619
By	-15.1621
Any	-15.1625
▁fullest	-15.1632
▁Cooper	-15.1636
▁wetting	-15.1639
▁ripen	-15.164
▁investigated	-15.1641
▁Hana	-15.1641
▁Air	-15.1645
▁interrupt	-15.1646
▁jiggle	-15.1647
olcano	-15.1648
Exploring	-15.1648
▁Flynn	-15.1648
▁Monty	-15.1648
▁Mountain	-15.1648
▁Pieces	-15.1648
▁Smudge	-15.1648
▁exhaustion	-15.1648
▁practical	-15.1648
▁saddened	-15.1648
▁expand	-15.1648
▁regardless	-15.1648
▁wading	-15.1648
▁Gracy	-15.1648
▁beckoned	-15.1649
▁savoured	-15.1649
▁honeybee	-15.1649
▁Tape	-15.165
▁chanting	-15.165
▁loosened	-15.1652
▁juggler	-15.1652
▁rectangles	-15.1654
▁focusing	-15.1664
▁mysteriously	-15.1696
Clean	-15.1704
Jess	-15.1705
Susan	-15.1705
Bug	-15.1705
magic	-15.1705
cracker	-15.1706
neel	-15.1707
Swing	-15.1711
▁Tin	-15.1711
EE	-15.172
▁droop	-15.1731
▁surround	-15.1732
egular	-15.1734
Deliver	-15.1734
▁Terrified	-15.1734
▁adamant	-15.1734
▁terrific	-15.1734
▁vibrate	-15.1734
▁clump	-15.1734
▁Amos	-15.1734
▁wilderness	-15.1734
obyn	-15.1734
▁attentively	-15.1734
▁Cassy	-15.1734
▁Twig	-15.1734
▁accused	-15.1734
▁Pepe	-15.1735
▁Blacky	-15.1735
▁Fit	-15.1735
▁Tank	-15.1735
Amen	-15.1738
[...]
