[PAD]	0
[UNK]	0
[BOS]	0
[EOS]	0
▁t	-0
▁s	-1
▁a	-2
er	-3
on	-4
▁d	-5
▁c	-6
re	-7
he	-8
in	-9
om	-10
▁p	-11
▁T	-12
at	-13
▁l	-14
an	-15
▁m	-16
ou	-17
▁I	-18
▁2	-19
▁h	-20
en	-21
is	-22
▁3	-23
▁1	-24
▁Tom	-25
▁w	-26
or	-27
▁f	-28
ar	-29
▁n	-30
es	-31
to	-32
ll	-33
▁b	-34
▁to	-35
▁y	-36
▁di	-37
te	-38
▁you	-39
▁6	-40
ve	-41
ia	-42
▁u	-43
▁5	-44
▁i	-45
as	-46
os	-47
▁v	-48
▁the	-49
▁g	-50
▁S	-51
▁in	-52
ta	-53
▁4	-54
ol	-55
▁7	-56
ed	-57
ing	-58
▁H	-59
ti	-60
ri	-61
▁th	-62
▁ha	-63
▁un	-64
ere	-65
▁8	-66
et	-67
ra	-68
90	-69
ro	-70
91	-71
▁L	-72
▁an	-73
▁M	-74
▁che	-75
ic	-76
ato	-77
le	-78
qu	-79
▁è	-80
▁N	-81
▁o	-82
▁is	-83
54	-84
▁W	-85
01	-86
73	-87
02	-88
72	-89
82	-90
53	-91
92	-92
li	-93
▁qu	-94
are	-95
▁la	-96
▁D	-97
51	-98
52	-99
71	-100
74	-101
96	-102
94	-103
ch	-104
86	-105
▁11	-106
▁non	-107
76	-108
ot	-109
▁e	-110
56	-111
93	-112
▁do	-113
03	-114
81	-115
▁su	-116
83	-117
it	-118
no	-119
84	-120
06	-121
ono	-122
▁me	-123
am	-124
04	-125
ell	-126
al	-127
▁st	-128
do	-129
▁Non	-130
▁per	-131
▁A	-132
▁P	-133
▁con	-134
▁C	-135
▁He	-136
us	-137
▁il	-138
id	-139
el	-140
ei	-141
one	-142
ess	-143
▁be	-144
im	-145
ut	-146
▁li	-147
▁Y	-148
ay	-149
io	-150
ver	-151
mo	-152
▁You	-153
ce	-154
▁re	-155
ary	-156
▁Io	-157
▁of	-158
▁he	-159
64	-160
95	-161
▁The	-162
00	-163
98	-164
▁that	-165
24	-166
11	-167
75	-168
▁Mary	-169
▁was	-170
▁Wh	-171
ke	-172
▁se	-173
ld	-174
▁and	-175
ate	-176
cc	-177
▁com	-178
23	-179
78	-180
ad	-181
63	-182
pp	-183
70	-184
ent	-185
▁le	-186
21	-187
▁for	-188
44	-189
▁ver	-190
ente	-191
▁ne	-192
▁ri	-193
88	-194
se	-195
▁She	-196
bb	-197
66	-198
oi	-199
55	-200
ost	-201
all	-202
gli	-203
▁al	-204
ter	-205
▁sa	-206
▁go	-207
ci	-208
un	-209
▁una	-210
▁sono	-211
▁lo	-212
ant	-213
43	-214
▁k	-215
77	-216
61	-217
ow	-218
gh	-219
▁Do	-220
▁ch	-221
▁her	-222
mp	-223
va	-224
▁it	-225
▁have	-226
99	-227
58	-228
▁can	-229
22	-230
so	-231
vo	-232
ai	-233
ata	-234
▁V	-235
▁sp	-236
iamo	-237
▁as	-238
▁mi	-239
ui	-240
▁pi	-241
33	-242
gg	-243
▁did	-244
arl	-245
50	-246
▁pre	-247
zi	-248
ith	-249
▁We	-250
ando	-251
▁È	-252
▁are	-253
97	-254
▁him	-255
▁Q	-256
▁Qu	-257
▁si	-258
26	-259
41	-260
▁with	-261
▁31	-262
▁all	-263
▁er	-264
ok	-265
08	-266
▁not	-267
ome	-268
▁sc	-269
etto	-270
ano	-271
▁B	-272
▁want	-273
▁da	-274
▁391	-275
▁Th	-276
ould	-277
▁your	-278
▁don	-279
si	-280
ir	-281
▁Ha	-282
▁ques	-283
31	-284
▁pro	-285
▁sta	-286
ati	-287
ght	-288
▁on	-289
▁They	-290
▁mol	-291
▁at	-292
▁de	-293
▁cos	-294
▁te	-295
ac	-296
gn	-297
57	-298
▁wh	-299
▁ho	-300
ran	-301
out	-302
▁10	-303
▁so	-304
34	-305
▁my	-306
80	-307
▁them	-308
oro	-309
now	-310
end	-311
▁like	-312
▁22	-313
▁Per	-314
▁Mi	-315
▁know	-316
▁pia	-317
ole	-318
▁this	-319
ill	-320
▁E	-321
ora	-322
▁r	-323
62	-324
ted	-325
▁F	-326
od	-327
▁73	-328
▁am	-329
▁his	-330
ff	-331
ur	-332
▁sh	-333
▁390	-334
ly	-335
ust	-336
ink	-337
▁man	-338
▁G	-339
▁La	-340
85	-341
79	-342
di	-343
▁ab	-344
▁24	-345
za	-346
uto	-347
▁gi	-348
th	-349
▁comp	-350
▁detto	-351
ché	-352
mb	-353
▁molto	-354
▁74	-355
▁33	-356
▁us	-357
anno	-358
05	-359
▁dis	-360
▁sol	-361
mi	-362
enti	-363
ella	-364
vi	-365
87	-366
glio	-367
co	-368
res	-369
▁wor	-370
42	-371
ry	-372
▁Sono	-373
▁era	-374
▁ad	-375
13	-376
▁stu	-377
and	-378
▁23	-379
89	-380
ap	-381
ma	-382
▁What	-383
▁It	-384
bi	-385
▁par	-386
ese	-387
▁Il	-388
▁ar	-389
07	-390
nd	-391
▁Lei	-392
▁9	-393
▁fa	-394
14	-395
▁didn	-396
▁think	-397
▁vero	-398
▁said	-399
▁she	-400
▁imp	-401
ul	-402
▁fin	-403
▁Perché	-404
▁Why	-405
▁chi	-406
59	-407
esso	-408
▁j	-409
▁ra	-410
▁suo	-411
▁we	-412
▁Ho	-413
▁44	-414
16	-415
▁fr	-416
▁tut	-417
09	-418
▁ess	-419
ag	-420
▁vi	-421
▁più	-422
uo	-423
32	-424
ble	-425
sa	-426
▁come	-427
▁very	-428
la	-429
▁pen	-430
▁del	-431
ca	-432
ami	-433
▁po	-434
▁fi	-435
ero	-436
▁here	-437
▁any	-438
▁fat	-439
ice	-440
▁has	-441
eri	-442
68	-443
▁essere	-444
osa	-445
▁isn	-446
ard	-447
▁84	-448
est	-449
67	-450
▁cas	-451
ved	-452
▁lei	-453
ak	-454
▁sua	-455
▁tro	-456
▁pr	-457
tare	-458
ina	-459
▁ai	-460
oston	-461
▁Boston	-462
▁will	-463
▁parl	-464
▁pos	-465
▁see	-466
20	-467
gi	-468
▁mo	-469
▁254	-470
ori	-471
▁about	-472
▁ci	-473
alc	-474
▁questo	-475
bbe	-476
pe	-477
lp	-478
36	-479
▁anc	-480
▁mai	-481
28	-482
ello	-483
ren	-484
▁av	-485
vete	-486
▁Lui	-487
▁help	-488
▁qui	-489
▁loro	-490
her	-491
mente	-492
lia	-493
▁they	-494
ame	-495
ort	-496
ten	-497
▁26	-498
▁ever	-499
▁car	-500
zione	-501
zz	-502
▁bo	-503
ggi	-504
25	-505
de	-506
▁34	-507
▁21	-508
▁pl	-509
ga	-510
▁told	-511
▁vis	-512
▁fare	-513
▁Le	-514
▁ti	-515
▁28	-516
▁102	-517
▁were	-518
▁101	-519
▁R	-520
▁Ques	-521
▁ma	-522
day	-523
orn	-524
ete	-525
▁piace	-526
46	-527
▁90	-528
▁no	-529
▁lav	-530
▁Si	-531
alk	-532
27	-533
endo	-534
ally	-535
▁ancora	-536
▁ex	-537
lo	-538
▁tr	-539
▁casa	-540
▁O	-541
▁mio	-542
ase	-543
▁vo	-544
ct	-545
▁need	-546
ous	-547
▁bu	-548
▁does	-549
st	-550
red	-551
ang	-552
ass	-553
ast	-554
ays	-555
60	-556
▁lui	-557
ong	-558
era	-559
▁what	-560
▁going	-561
iare	-562
38	-563
ante	-564
▁This	-565
▁stud	-566
▁Don	-567
12	-568
35	-569
▁co	-570
▁Ch	-571
▁qualc	-572
der	-573
▁now	-574
30	-575
ura	-576
anto	-577
65	-578
▁lib	-579
▁25	-580
▁224	-581
▁264	-582
ven	-583
▁look	-584
ue	-585
▁pa	-586
▁gu	-587
▁Are	-588
▁Sami	-589
hing	-590
ica	-591
bbiamo	-592
▁should	-593
ici	-594
▁or	-595
▁62	-596
▁andare	-597
ine	-598
ene	-599
▁tim	-600
amente	-601
▁dov	-602
▁get	-603
riend	-604
▁32	-605
ino	-606
▁mia	-607
▁work	-608
lla	-609
▁così	-610
▁ta	-611
thing	-612
▁pu	-613
▁29	-614
iso	-615
ola	-616
▁J	-617
▁27	-618
69	-619
▁happ	-620
▁sti	-621
▁"	-622
15	-623
▁fatto	-624
▁Noi	-625
ck	-626
▁cosa	-627
▁from	-628
ne	-629
48	-630
up	-631
▁app	-632
arlo	-633
chi	-634
37	-635
▁18	-636
▁sto	-637
▁had	-638
▁How	-639
▁Tu	-640
39	-641
um	-642
▁Lo	-643
ni	-644
▁Pen	-645
▁dell	-646
ba	-647
ento	-648
10	-649
etter	-650
▁fo	-651
▁talk	-652
go	-653
40	-654
▁fe	-655
▁alla	-656
ave	-657
oni	-658
ist	-659
per	-660
▁pri	-661
ua	-662
▁chia	-663
olo	-664
18	-665
45	-666
▁sia	-667
47	-668
▁won	-669
▁never	-670
17	-671
▁one	-672
▁still	-673
gno	-674
ty	-675
▁up	-676
▁spe	-677
mbra	-678
▁Se	-679
▁time	-680
29	-681
▁read	-682
▁home	-683
▁every	-684
rei	-685
▁ca	-686
▁really	-687
▁Can	-688
ack	-689
▁some	-690
19	-691
▁tra	-692
▁inter	-693
▁ro	-694
▁53	-695
▁That	-696
▁della	-697
rebbe	-698
▁Voi	-699
cere	-700
▁tell	-701
▁good	-702
ried	-703
hen	-704
ree	-705
▁852	-706
▁mad	-707
▁there	-708
▁eat	-709
▁cont	-710
49	-711
ish	-712
ett	-713
our	-714
ought	-715
tion	-716
▁out	-717
▁by	-718
▁Did	-719
▁doesn	-720
▁dei	-721
ation	-722
▁bus	-723
lease	-724
ach	-725
▁been	-726
▁vost	-727
▁friend	-728
▁pers	-729
ep	-730
▁52	-731
ani	-732
▁ni	-733
fe	-734
ppo	-735
▁cap	-736
▁got	-737
uno	-738
▁ven	-739
zza	-740
▁42	-741
con	-742
▁stato	-743
▁vol	-744
▁too	-745
▁63	-746
bile	-747
▁ris	-748
▁sic	-749
ose	-750
▁My	-751
▁sei	-752
▁vu	-753
▁57	-754
▁proble	-755
▁51	-756
▁pres	-757
▁call	-758
▁dom	-759
▁mu	-760
che	-761
▁would	-762
▁gio	-763
▁book	-764
ona	-765
ccup	-766
▁45	-767
ge	-768
ves	-769
row	-770
▁fel	-771
▁30	-772
sel	-773
▁questa	-774
▁just	-775
▁61	-776
▁aiut	-777
▁nuo	-778
▁ved	-779
▁Have	-780
att	-781
ico	-782
▁16	-783
man	-784
▁semp	-785
▁vole	-786
▁cam	-787
▁bi	-788
▁gli	-789
▁lot	-790
▁acc	-791
▁parlare	-792
▁38	-793
▁66	-794
iss	-795
ranc	-796
oss	-797
erà	-798
ha	-799
▁Where	-800
▁Questo	-801
▁373	-802
▁50	-803
op	-804
▁ask	-805
▁than	-806
ers	-807
▁quello	-808
itt	-809
▁voglio	-810
▁trov	-811
▁Is	-812
▁solo	-813
▁play	-814
▁temp	-815
▁ave	-816
▁tre	-817
ound	-818
ind	-819
▁stan	-820
▁tutto	-821
ini	-822
▁71	-823
gni	-824
▁avete	-825
▁much	-826
▁fu	-827
▁senti	-828
▁off	-829
▁hai	-830
▁201	-831
me	-832
▁res	-833
▁nu	-834
▁dec	-835
ide	-836
▁went	-837
▁love	-838
▁conos	-839
▁pe	-840
ari	-841
▁35	-842
enza	-843
▁anything	-844
▁diff	-845
▁troppo	-846
▁Sta	-847
▁biso	-848
▁hanno	-849
ob	-850
▁Ci	-851
▁abb	-852
▁qualcosa	-853
▁tutti	-854
▁ve	-855
omet	-856
▁delle	-857
oney	-858
▁speak	-859
old	-860
▁bisogno	-861
po	-862
rench	-863
▁arri	-864
▁ora	-865
▁Che	-866
▁French	-867
▁nel	-868
▁asp	-869
oso	-870
▁sempre	-871
▁bene	-872
▁franc	-873
▁282	-874
▁far	-875
ggio	-876
▁382	-877
▁cl	-878
nt	-879
▁en	-880
glia	-881
▁43	-882
self	-883
▁es	-884
▁say	-885
gl	-886
▁francese	-887
wn	-888
▁106	-889
▁In	-890
▁36	-891
▁but	-892
▁223	-893
▁back	-894
ho	-895
▁vuole	-896
▁83	-897
▁las	-898
ure	-899
▁14	-900
etti	-901
▁De	-902
par	-903
▁new	-904
▁dav	-905
ista	-906
omething	-907
anted	-908
vero	-909
▁There	-910
▁41	-911
▁653	-912
▁money	-913
orta	-914
▁piacere	-915
orno	-916
uc	-917
▁cer	-918
▁Chi	-919
▁wanted	-920
tic	-921
▁sch	-922
ito	-923
▁voi	-924
▁chiam	-925
ways	-926
▁busy	-927
ars	-928
uro	-929
erò	-930
omo	-931
▁nella	-932
▁always	-933
▁68	-934
other	-935
▁dr	-936
▁Vi	-937
▁ries	-938
▁farlo	-939
ane	-940
▁af	-941
▁59	-942
▁lun	-943
▁lavoro	-944
ustra	-945
▁20	-946
▁wat	-947
ise	-948
▁something	-949
na	-950
▁visto	-951
▁sor	-952
ated	-953
▁posso	-954
arn	-955
▁could	-956
▁60	-957
▁davvero	-958
▁more	-959
▁teach	-960
▁sar	-961
▁tempo	-962
ft	-963
▁siete	-964
▁sembra	-965
▁libro	-966
▁12	-967
ustralia	-968
▁56	-969
▁cor	-970
rit	-971
▁wasn	-972
▁Vo	-973
segn	-974
arla	-975
▁dall	-976
▁94	-977
▁Come	-978
▁Sei	-979
▁Gli	-980
rato	-981
▁op	-982
▁Dov	-983
▁today	-984
▁qua	-985
bo	-986
ena	-987
▁happy	-988
ody	-989
▁only	-990
▁wa	-991
▁must	-992
▁oggi	-993
▁37	-994
▁ser	-995
▁77	-996
orrow	-997
uti	-998
▁100	-999
▁67	-1000
ful	-1001
▁pot	-1002
▁siamo	-1003
▁può	-1004
gry	-1005
mm	-1006
vano	-1007
▁Please	-1008
▁65	-1009
▁erano	-1010
pi	-1011
▁19	-1012
▁diver	-1013
▁mang	-1014
ool	-1015
▁Loro	-1016
▁49	-1017
▁91	-1018
col	-1019
▁their	-1020
▁92	-1021
▁find	-1022
▁lik	-1023
▁St	-1024
▁dire	-1025
▁comput	-1026
uta	-1027
▁88	-1028
▁inf	-1029
▁sm	-1030
▁64	-1031
▁Penso	-1032
▁271	-1033
▁dog	-1034
▁Dove	-1035
vore	-1036
▁86	-1037
▁favore	-1038
ord	-1039
ire	-1040
▁mar	-1041
▁last	-1042
etta	-1043
ore	-1044
▁noi	-1045
▁tuo	-1046
▁Let	-1047
▁buy	-1048
read	-1049
▁live	-1050
▁gran	-1051
▁ass	-1052
▁school	-1053
▁under	-1054
▁Ti	-1055
▁suoi	-1056
anti	-1057
▁Cosa	-1058
▁computer	-1059
ving	-1060
▁succ	-1061
zzo	-1062
▁744	-1063
▁right	-1064
▁15	-1065
▁pass	-1066
▁stata	-1067
▁Hanno	-1068
▁adesso	-1069
▁Australia	-1070
▁54	-1071
▁day	-1072
asi	-1073
▁mor	-1074
▁Era	-1075
▁star	-1076
esta	-1077
▁sal	-1078
▁Who	-1079
▁raga	-1080
tro	-1081
tra	-1082
▁ye	-1083
▁seem	-1084
▁ke	-1085
▁nost	-1086
▁Voglio	-1087
oli	-1088
use	-1089
▁272	-1090
▁col	-1091
▁quando	-1092
▁take	-1093
cci	-1094
ie	-1095
▁give	-1096
▁644	-1097
▁made	-1098
▁prima	-1099
ouse	-1100
ther	-1101
▁feel	-1102
pos	-1103
▁who	-1104
▁286	-1105
▁happen	-1106
▁gen	-1107
▁Questa	-1108
ità	-1109
▁stay	-1110
utto	-1111
▁wait	-1112
▁sure	-1113
rò	-1114
hed	-1115
▁bl	-1116
▁Sto	-1117
▁niente	-1118
▁55	-1119
▁fun	-1120
▁friends	-1121
▁ten	-1122
▁643	-1123
ment	-1124
▁abbiamo	-1125
▁tw	-1126
▁scu	-1127
edi	-1128
▁pic	-1129
▁prend	-1130
▁13	-1131
▁Hai	-1132
essuno	-1133
▁penso	-1134
▁bra	-1135
▁392	-1136
▁make	-1137
▁leave	-1138
vere	-1139
▁due	-1140
▁già	-1141
cia	-1142
▁tom	-1143
ople	-1144
▁bro	-1145
occup	-1146
▁saw	-1147
▁how	-1148
▁256	-1149
▁48	-1150
▁aff	-1151
▁aveva	-1152
▁study	-1153
age	-1154
▁tua	-1155
osso	-1156
▁lavor	-1157
armi	-1158
que	-1159
urn	-1160
▁many	-1161
▁felice	-1162
961	-1163
▁thing	-1164
▁scuola	-1165
▁letter	-1166
ardo	-1167
▁ent	-1168
▁when	-1169
▁571	-1170
▁2203	-1171
▁nulla	-1172
▁ide	-1173
▁117	-1174
ester	-1175
▁bot	-1176
ud	-1177
▁house	-1178
▁Di	-1179
▁mangi	-1180
gain	-1181
▁room	-1182
get	-1183
723	-1184
▁preoccup	-1185
amb	-1186
lle	-1187
▁giorno	-1188
▁if	-1189
rà	-1190
lie	-1191
ont	-1192
▁learn	-1193
▁851	-1194
▁wants	-1195
▁dove	-1196
cato	-1197
▁104	-1198
▁again	-1199
▁82	-1200
▁tomorrow	-1201
▁br	-1202
vent	-1203
ale	-1204
▁gra	-1205
▁thought	-1206
▁tele	-1207
▁mus	-1208
ence	-1209
▁96	-1210
▁221	-1211
▁cat	-1212
▁sw	-1213
ond	-1214
il	-1215
▁Tell	-1216
▁mac	-1217
ze	-1218
otto	-1219
▁insegn	-1220
very	-1221
▁283	-1222
▁impar	-1223
▁1172	-1224
▁well	-1225
▁Siete	-1226
▁70	-1227
leep	-1228
ult	-1229
▁child	-1230
bbi	-1231
▁lasci	-1232
▁disse	-1233
anza	-1234
▁fami	-1235
▁353	-1236
▁801	-1237
▁uno	-1238
▁So	-1239
cch	-1240
▁three	-1241
▁46	-1242
atto	-1243
▁guard	-1244
▁try	-1245
▁min	-1246
."	-1247
▁341	-1248
▁Ne	-1249
▁legg	-1250
841	-1251
▁long	-1252
▁533	-1253
▁58	-1254
▁our	-1255
▁voleva	-1256
▁prov	-1257
▁macch	-1258
761	-1259
zia	-1260
▁people	-1261
esti	-1262
▁drink	-1263
▁ter	-1264
▁pron	-1265
▁311	-1266
▁domani	-1267
▁Every	-1268
▁Avete	-1269
▁soldi	-1270
xt	-1271
▁fac	-1272
esto	-1273
▁arra	-1274
ress	-1275
▁cre	-1276
ich	-1277
essa	-1278
▁des	-1279
▁574	-1280
546	-1281
▁exp	-1282
ek	-1283
▁211	-1284
rong	-1285
erv	-1286
▁sare	-1287
▁cane	-1288
544	-1289
ali	-1290
▁perché	-1291
▁mon	-1292
▁veramente	-1293
912	-1294
▁teacher	-1295
isse	-1296
511	-1297
514	-1298
▁740	-1299
dio	-1300
▁401	-1301
741	-1302
▁466	-1303
▁aren	-1304
more	-1305
▁pref	-1306
▁vostro	-1307
▁112	-1308
▁says	-1309
▁252	-1310
▁sape	-1311
▁sent	-1312
tamente	-1313
▁problem	-1314
731	-1315
llo	-1316
▁ieri	-1317
▁bir	-1318
▁parte	-1319
▁Abbiamo	-1320
▁job	-1321
766	-1322
▁pad	-1323
▁alle	-1324
▁win	-1325
▁conf	-1326
▁better	-1327
▁lost	-1328
▁doing	-1329
mmo	-1330
iri	-1331
713	-1332
▁gir	-1333
944	-1334
943	-1335
▁hand	-1336
▁sing	-1337
▁belie	-1338
▁Lay	-1339
zio	-1340
▁old	-1341
▁left	-1342
▁tu	-1343
▁72	-1344
▁Layla	-1345
▁ero	-1346
cer	-1347
gra	-1348
561	-1349
▁ucc	-1350
033	-1351
▁And	-1352
▁hate	-1353
▁alone	-1354
816	-1355
722	-1356
▁ogni	-1357
▁deve	-1358
▁93	-1359
901	-1360
▁When	-1361
▁met	-1362
▁asked	-1363
531	-1364
733	-1365
024	-1366
aro	-1367
▁cui	-1368
724	-1369
▁ready	-1370
▁macchina	-1371
023	-1372
031	-1373
▁via	-1374
736	-1375
gu	-1376
▁354	-1377
▁621	-1378
▁fos	-1379
▁Sembra	-1380
ity	-1381
orm	-1382
904	-1383
926	-1384
742	-1385
▁week	-1386
ute	-1387
▁padre	-1388
zo	-1389
▁io	-1390
911	-1391
▁gr	-1392
▁ru	-1393
▁aw	-1394
ret	-1395
▁avere	-1396
516	-1397
▁kill	-1398
▁seen	-1399
▁ac	-1400
▁plan	-1401
763	-1402
▁rit	-1403
▁father	-1404
▁Siamo	-1405
orrei	-1406
▁chied	-1407
▁pensa	-1408
pr	-1409
▁118	-1410
534	-1411
body	-1412
▁vita	-1413
▁den	-1414
esterday	-1415
862	-1416
ick	-1417
▁40	-1418
▁girl	-1419
irst	-1420
▁vedere	-1421
563	-1422
▁yet	-1423
726	-1424
▁pens	-1425
stand	-1426
▁idea	-1427
ger	-1428
▁nuovo	-1429
861	-1430
▁sur	-1431
734	-1432
026	-1433
ccia	-1434
▁cou	-1435
721	-1436
740	-1437
958	-1438
▁meet	-1439
▁lì	-1440
▁mangiare	-1441
▁anni	-1442
▁sarà	-1443
▁284	-1444
pri	-1445
▁78	-1446
▁andato	-1447
ready	-1448
utare	-1449
▁already	-1450
▁used	-1451
▁occup	-1452
▁tired	-1453
513	-1454
955	-1455
921	-1456
isi	-1457
ting	-1458
▁hun	-1459
▁two	-1460
▁inc	-1461
▁arrabbi	-1462
963	-1463
541	-1464
cco	-1465
rare	-1466
▁243	-1467
▁115	-1468
▁En	-1469
813	-1470
814	-1471
▁everything	-1472
▁meglio	-1473
564	-1474
823	-1475
egn	-1476
▁volta	-1477
833	-1478
▁sul	-1479
isten	-1480
533	-1481
863	-1482
985	-1483
ised	-1484
903	-1485
erm	-1486
▁spos	-1487
941	-1488
▁114	-1489
768	-1490
▁85	-1491
▁gave	-1492
▁bamb	-1493
gione	-1494
pid	-1495
764	-1496
▁188	-1497
▁where	-1498
743	-1499
952	-1500
mber	-1501
▁down	-1502
▁torn	-1503
▁understand	-1504
resti	-1505
824	-1506
tà	-1507
▁80	-1508
712	-1509
▁night	-1510
▁stava	-1511
902	-1512
▁ins	-1513
866	-1514
ima	-1515
ance	-1516
▁dalla	-1517
732	-1518
931	-1519
▁296	-1520
▁letto	-1521
946	-1522
ittle	-1523
▁done	-1524
860	-1525
942	-1526
ough	-1527
▁Li	-1528
▁bought	-1529
034	-1530
022	-1531
▁presto	-1532
536	-1533
▁little	-1534
eno	-1535
▁comprato	-1536
▁arriv	-1537
512	-1538
762	-1539
036	-1540
064	-1541
ario	-1542
▁424	-1543
zioni	-1544
▁found	-1545
836	-1546
▁Pensa	-1547
▁nothing	-1548
916	-1549
▁Engl	-1550
▁738	-1551
▁prom	-1552
▁yesterday	-1553
▁spa	-1554
767	-1555
▁poss	-1556
lli	-1557
▁363	-1558
▁fid	-1559
711	-1560
▁even	-1561
758	-1562
566	-1563
738	-1564
737	-1565
▁847	-1566
▁scor	-1567
041	-1568
061	-1569
730	-1570
714	-1571
▁dim	-1572
838	-1573
▁bas	-1574
▁47	-1575
▁va	-1576
▁problema	-1577
▁vostra	-1578
▁please	-1579
013	-1580
▁sicuro	-1581
515	-1582
818	-1583
980	-1584
▁import	-1585
▁reg	-1586
▁Sp	-1587
▁miei	-1588
▁parti	-1589
▁studi	-1590
532	-1591
932	-1592
950	-1593
523	-1594
▁use	-1595
▁116	-1596
▁name	-1597
538	-1598
▁care	-1599
757	-1600
arti	-1601
▁sleep	-1602
834	-1603
▁Jo	-1604
elli	-1605
▁riesco	-1606
▁rec	-1607
wer	-1608
erb	-1609
568	-1610
?"	-1611
043	-1612
ote	-1613
046	-1614
▁tried	-1615
966	-1616
▁next	-1617
930	-1618
▁Qual	-1619
▁Disse	-1620
964	-1621
542	-1622
▁vin	-1623
▁quel	-1624
▁chang	-1625
922	-1626
▁stor	-1627
▁impegn	-1628
710	-1629
811	-1630
pt	-1631
▁Your	-1632
562	-1633
▁mal	-1634
▁aspett	-1635
mer	-1636
▁cal	-1637
da	-1638
735	-1639
934	-1640
▁Quando	-1641
ita	-1642
▁aver	-1643
044	-1644
oud	-1645
▁into	-1646
▁An	-1647
▁110	-1648
914	-1649
▁aiutare	-1650
▁took	-1651
923	-1652
867	-1653
care	-1654
▁ans	-1655
▁quella	-1656
821	-1657
933	-1658
945	-1659
ball	-1660
744	-1661
▁grande	-1662
▁cons	-1663
543	-1664
062	-1665
014	-1666
cchi	-1667
918	-1668
▁knows	-1669
▁ling	-1670
936	-1671
908	-1672
924	-1673
913	-1674
708	-1675
▁scri	-1676
906	-1677
fore	-1678
864	-1679
957	-1680
707	-1681
842	-1682
ely	-1683
▁pas	-1684
746	-1685
843	-1686
021	-1687
063	-1688
▁Con	-1689
fi	-1690
831	-1691
▁bre	-1692
526	-1693
748	-1694
826	-1695
▁39	-1696
745	-1697
▁Pu	-1698
011	-1699
sto	-1700
812	-1701
▁pag	-1702
▁paura	-1703
▁mom	-1704
521	-1705
▁dir	-1706
▁hur	-1707
inn	-1708
▁interess	-1709
517	-1710
739	-1711
▁gre	-1712
▁kne	-1713
727	-1714
765	-1715
anni	-1716
750	-1717
▁giorn	-1718
837	-1719
▁port	-1720
▁English	-1721
962	-1722
▁piano	-1723
▁persone	-1724
▁believe	-1725
780	-1726
960	-1727
▁sho	-1728
▁As	-1729
▁666	-1730
be	-1731
032	-1732
▁Gi	-1733
▁Posso	-1734
ys	-1735
728	-1736
▁17	-1737
066	-1738
▁senza	-1739
522	-1740
747	-1741
▁question	-1742
▁mat	-1743
▁rius	-1744
▁dal	-1745
▁Be	-1746
▁582	-1747
▁pes	-1748
▁died	-1749
▁cose	-1750
510	-1751
hn	-1752
asc	-1753
▁76	-1754
042	-1755
▁ban	-1756
cando	-1757
545	-1758
868	-1759
vin	-1760
▁81	-1761
▁after	-1762
▁madre	-1763
760	-1764
tr	-1765
▁sue	-1766
▁John	-1767
025	-1768
raid	-1769
725	-1770
705	-1771
▁came	-1772
▁likes	-1773
▁state	-1774
▁over	-1775
832	-1776
tenzione	-1777
028	-1778
▁Al	-1779
518	-1780
540	-1781
815	-1782
▁ph	-1783
709	-1784
▁before	-1785
720	-1786
787	-1787
844	-1788
927	-1789
▁Fa	-1790
▁open	-1791
▁disp	-1792
hi	-1793
528	-1794
▁setti	-1795
822	-1796
amo	-1797
▁ini	-1798
▁hear	-1799
lmente	-1800
938	-1801
846	-1802
845	-1803
▁253	-1804
▁poli	-1805
▁afraid	-1806
▁facendo	-1807
essi	-1808
▁settiman	-1809
▁years	-1810
▁mos	-1811
910	-1812
▁life	-1813
▁hope	-1814
865	-1815
iche	-1816
▁261	-1817
788	-1818
angu	-1819
000	-1820
016	-1821
925	-1822
▁knew	-1823
▁incon	-1824
012	-1825
820	-1826
915	-1827
020	-1828
840	-1829
reste	-1830
716	-1831
▁87	-1832
▁ind	-1833
848	-1834
▁stop	-1835
▁qualche	-1836
▁vic	-1837
ister	-1838
548	-1839
▁dovuto	-1840
▁die	-1841
▁first	-1842
817	-1843
869	-1844
arono	-1845
928	-1846
▁lat	-1847
ffe	-1848
▁late	-1849
vate	-1850
▁put	-1851
▁stanza	-1852
755	-1853
▁inv	-1854
847	-1855
935	-1856
▁watch	-1857
968	-1858
esse	-1859
▁proba	-1860
▁spesso	-1861
ared	-1862
▁107	-1863
▁331	-1864
▁piacci	-1865
937	-1866
565	-1867
▁let	-1868
▁often	-1869
▁party	-1870
585	-1871
qua	-1872
▁angry	-1873
▁89	-1874
▁visit	-1875
▁wrong	-1876
715	-1877
arsi	-1878
ittà	-1879
947	-1880
uri	-1881
830	-1882
948	-1883
uni	-1884
▁città	-1885
▁perso	-1886
rella	-1887
▁why	-1888
▁534	-1889
▁piacciono	-1890
▁disc	-1891
mas	-1892
▁married	-1893
▁fl	-1894
▁listen	-1895
560	-1896
989	-1897
▁fil	-1898
905	-1899
920	-1900
▁Vu	-1901
▁domand	-1902
030	-1903
907	-1904
▁dato	-1905
▁amici	-1906
ork	-1907
orse	-1908
vamo	-1909
▁333	-1910
▁113	-1911
▁fosse	-1912
785	-1913
900	-1914
▁hard	-1915
▁answer	-1916
▁telef	-1917
530	-1918
535	-1919
▁devo	-1920
▁739	-1921
038	-1922
▁pizza	-1923
▁343	-1924
▁323	-1925
▁mother	-1926
▁fuori	-1927
▁ric	-1928
▁ba	-1929
008	-1930
987	-1931
988	-1932
717	-1933
965	-1934
pa	-1935
uck	-1936
orning	-1937
718	-1938
▁morning	-1939
567	-1940
ciuto	-1941
828	-1942
959	-1943
524	-1944
849	-1945
▁chiesto	-1946
▁tran	-1947
027	-1948
▁Pre	-1949
810	-1950
orto	-1951
▁student	-1952
▁Com	-1953
▁festa	-1954
▁dri	-1955
inci	-1956
▁haven	-1957
peranto	-1958
▁comple	-1959
fic	-1960
▁111	-1961
035	-1962
eba	-1963
▁hungry	-1964
▁children	-1965
045	-1966
525	-1967
▁Tut	-1968
835	-1969
999	-1970
iste	-1971
zion	-1972
atoeba	-1973
▁called	-1974
▁denaro	-1975
819	-1976
997	-1977
940	-1978
▁proud	-1979
▁ascol	-1980
▁langu	-1981
▁241	-1982
▁May	-1983
▁possi	-1984
elle	-1985
▁cost	-1986
769	-1987
▁gl	-1988
917	-1989
vel	-1990
oy	-1991
▁sap	-1992
759	-1993
▁nerv	-1994
▁heard	-1995
elo	-1996
729	-1997
▁swim	-1998
▁male	-1999
839	-2000
▁nome	-2001
friend	-2002
▁75	-2003
▁walk	-2004
519	-2005
777	-2006
547	-2007
arly	-2008
▁way	-2009
939	-2010
929	-2011
▁fav	-2012
▁contin	-2013
▁things	-2014
010	-2015
▁persona	-2016
▁573	-2017
▁add	-2018
▁Give	-2019
▁veder	-2020
569	-2021
827	-2022
949	-2023
007	-2024
919	-2025
520	-2026
ider	-2027
▁Tatoeba	-2028
▁Pot	-2029
▁anymore	-2030
rite	-2031
▁looks	-2032
ana	-2033
ardi	-2034
ordo	-2035
749	-2036
▁settimana	-2037
ug	-2038
▁Devo	-2039
▁pare	-2040
▁Would	-2041
uttosto	-2042
065	-2043
▁seg	-2044
▁most	-2045
539	-2046
▁If	-2047
▁stanno	-2048
979	-2049
esi	-2050
▁Vole	-2051
549	-2052
969	-2053
▁piuttosto	-2054
▁251	-2055
lain	-2056
vers	-2057
▁successo	-2058
909	-2059
▁No	-2060
tim	-2061
glie	-2062
▁word	-2063
▁degli	-2064
▁bec	-2065
▁person	-2066
▁appena	-2067
037	-2068
719	-2069
iapp	-2070
▁riusci	-2071
utomo	-2072
▁stran	-2073
▁mangiato	-2074
les	-2075
▁711	-2076
▁bic	-2077
508	-2078
attina	-2079
▁studiare	-2080
779	-2081
527	-2082
▁altro	-2083
apan	-2084
▁pret	-2085
039	-2086
040	-2087
967	-2088
789	-2089
▁Japan	-2090
▁differ	-2091
017	-2092
▁foto	-2093
ette	-2094
▁tutte	-2095
▁looking	-2096
onight	-2097
029	-2098
▁663	-2099
▁Ri	-2100
▁255	-2101
▁sorp	-2102
▁anno	-2103
▁dice	-2104
529	-2105
▁amico	-2106
015	-2107
▁pote	-2108
▁Go	-2109
048	-2110
▁ferm	-2111
ada	-2112
▁youn	-2113
▁film	-2114
069	-2115
▁stra	-2116
▁prote	-2117
▁frat	-2118
825	-2119
▁porta	-2120
▁sentito	-2121
▁beg	-2122
▁contro	-2123
ced	-2124
▁prof	-2125
537	-2126
ara	-2127
▁away	-2128
▁186	-2129
▁molti	-2130
▁water	-2131
▁sulla	-2132
▁without	-2133
060	-2134
bili	-2135
▁trovato	-2136
▁notte	-2137
▁diffici	-2138
▁nessuno	-2139
▁244	-2140
829	-2141
▁miss	-2142
▁prendere	-2143
068	-2144
▁caff	-2145
imo	-2146
auto	-2147
887	-2148
▁tonight	-2149
▁273	-2150
▁best	-2151
▁soon	-2152
▁surpr	-2153
067	-2154
▁449	-2155
▁show	-2156
▁count	-2157
018	-2158
oman	-2159
▁Dice	-2160
▁774	-2161
▁sicura	-2162
uth	-2163
▁Vorrei	-2164
▁preferi	-2165
mit	-2166
ffee	-2167
▁TV	-2168
▁these	-2169
ake	-2170
▁caffè	-2171
ished	-2172
remmo	-2173
ettere	-2174
▁stupid	-2175
erman	-2176
▁sed	-2177
▁venire	-2178
▁el	-2179
yo	-2180
▁ragione	-2181
rano	-2182
▁preso	-2183
▁happened	-2184
▁birra	-2185
▁Pro	-2186
▁cle	-2187
▁beer	-2188
▁coffee	-2189
▁Nessuno	-2190
▁started	-2191
888	-2192
▁ciò	-2193
▁lavorare	-2194
▁other	-2195
▁sister	-2196
▁vino	-2197
▁himself	-2198
▁pun	-2199
▁looked	-2200
eme	-2201
ail	-2202
cause	-2203
mento	-2204
▁couldn	-2205
▁prepar	-2206
005	-2207
587	-2208
▁wine	-2209
▁324	-2210
▁Ero	-2211
▁med	-2212
▁being	-2213
▁German	-2214
▁Quanto	-2215
▁174	-2216
ather	-2217
gnor	-2218
isti	-2219
▁pross	-2220
▁Tutti	-2221
▁enj	-2222
049	-2223
▁ama	-2224
▁Does	-2225
▁mista	-2226
▁giov	-2227
880	-2228
▁nei	-2229
▁dimenti	-2230
utomobile	-2231
▁sola	-2232
▁abbia	-2233
047	-2234
580	-2235
▁Chr	-2236
▁274	-2237
aking	-2238
▁69	-2239
▁alc	-2240
▁son	-2241
▁1154	-2242
▁bea	-2243
▁ate	-2244
▁bad	-2245
▁Sh	-2246
▁risp	-2247
asti	-2248
▁sit	-2249
▁dispia	-2250
▁rispos	-2251
▁cercando	-2252
ite	-2253
ugh	-2254
▁dovrebbe	-2255
▁food	-2256
dere	-2257
▁dor	-2258
▁bar	-2259
tto	-2260
▁fine	-2261
sion	-2262
▁auto	-2263
▁finito	-2264
▁books	-2265
▁350	-2266
▁turn	-2267
▁worried	-2268
gna	-2269
used	-2270
ritto	-2271
▁kind	-2272
▁alm	-2273
▁may	-2274
▁154	-2275
▁working	-2276
razi	-2277
▁quasi	-2278
anz	-2279
cca	-2280
▁hurt	-2281
▁ag	-2282
pped	-2283
▁hi	-2284
ket	-2285
▁mie	-2286
▁Mon	-2287
▁boy	-2288
▁difficile	-2289
nts	-2290
▁lives	-2291
▁att	-2292
itori	-2293
557	-2294
usa	-2295
▁97	-2296
▁Gu	-2297
885	-2298
▁381	-2299
▁cook	-2300
641	-2301
▁572	-2302
▁same	-2303
550	-2304
inner	-2305
▁might	-2306
eren	-2307
▁conosce	-2308
arle	-2309
▁Pensavo	-2310
▁parlato	-2311
558	-2312
arli	-2313
iti	-2314
555	-2315
ins	-2316
▁202	-2317
▁molte	-2318
bli	-2319
▁334	-2320
▁cin	-2321
▁Yanni	-2322
sl	-2323
▁cuc	-2324
▁però	-2325
▁libri	-2326
ces	-2327
▁372	-2328
ested	-2329
nis	-2330
▁All	-2331
▁telefono	-2332
▁294	-2333
cchio	-2334
▁another	-2335
pect	-2336
▁phone	-2337
▁convin	-2338
▁inizi	-2339
▁quanto	-2340
▁libr	-2341
▁seems	-2342
▁volte	-2343
▁Sa	-2344
▁226	-2345
▁cibo	-2346
▁rich	-2347
▁able	-2348
▁leggere	-2349
▁break	-2350
astanza	-2351
sieme	-2352
▁1171	-2353
019	-2354
ually	-2355
▁talking	-2356
▁abbastanza	-2357
cri	-2358
hes	-2359
ctor	-2360
tili	-2361
▁276	-2362
▁sera	-2363
▁pay	-2364
▁stai	-2365
▁163	-2366
▁forg	-2367
▁ragazza	-2368
cle	-2369
▁ritardo	-2370
▁225	-2371
▁grado	-2372
805	-2373
▁guid	-2374
▁Las	-2375
▁498	-2376
▁nostro	-2377
▁302	-2378
ans	-2379
▁trust	-2380
bilmente	-2381
▁dist	-2382
▁felt	-2383
▁year	-2384
▁genitori	-2385
acc	-2386
▁His	-2387
▁enjoy	-2388
▁rep	-2389
▁vend	-2390
gether	-2391
▁456	-2392
▁door	-2393
▁Everyone	-2394
▁por	-2395
▁qualcuno	-2396
atemi	-2397
min	-2398
▁avuto	-2399
osp	-2400
atale	-2401
telli	-2402
tal	-2403
▁possiamo	-2404
▁1122	-2405
▁lunch	-2406
▁parents	-2407
085	-2408
579	-2409
▁invi	-2410
▁comprare	-2411
ath	-2412
ria	-2413
osi	-2414
▁626	-2415
▁weren	-2416
▁trovare	-2417
▁riesce	-2418
▁together	-2419
tanto	-2420
▁insegnante	-2421
▁1014	-2422
arò	-2423
utiful	-2424
▁lingua	-2425
▁imparare	-2426
ream	-2427
▁pran	-2428
gliato	-2429
▁because	-2430
▁early	-2431
▁waiting	-2432
▁tennis	-2433
▁544	-2434
▁sick	-2435
▁293	-2436
▁fort	-2437
▁andata	-2438
▁lettera	-2439
▁beautiful	-2440
bliote	-2441
889	-2442
llow	-2443
▁dopo	-2444
ettare	-2445
▁aiuto	-2446
▁bibliote	-2447
olog	-2448
vole	-2449
ccio	-2450
▁sen	-2451
▁real	-2452
ying	-2453
507	-2454
589	-2455
▁reme	-2456
505	-2457
▁dinner	-2458
▁faci	-2459
▁diffic	-2460
▁momento	-2461
cted	-2462
▁164	-2463
edì	-2464
inc	-2465
▁Natale	-2466
▁sarebbe	-2467
▁Es	-2468
▁amiche	-2469
▁cr	-2470
▁forgot	-2471
dia	-2472
ons	-2473
▁bed	-2474
633	-2475
▁z	-2476
▁634	-2477
▁sorella	-2478
▁truth	-2479
▁fortun	-2480
▁brother	-2481
▁vesti	-2482
009	-2483
▁decid	-2484
▁Christ	-2485
▁364	-2486
atti	-2487
▁95	-2488
▁pol	-2489
▁dormi	-2490
▁2111	-2491
dd	-2492
▁337	-2493
▁int	-2494
▁young	-2495
▁dic	-2496
▁perm	-2497
▁suon	-2498
▁music	-2499
▁pensi	-2500
▁pretty	-2501
▁Some	-2502
▁gius	-2503
zzi	-2504
▁family	-2505
▁keep	-2506
▁204	-2507
▁423	-2508
▁almost	-2509
lic	-2510
tel	-2511
vuto	-2512
▁743	-2513
▁write	-2514
▁nostra	-2515
tellig	-2516
▁bravo	-2517
▁sapere	-2518
▁coming	-2519
▁285	-2520
▁kiss	-2521
▁598	-2522
▁Christmas	-2523
▁rice	-2524
▁famiglia	-2525
ates	-2526
lace	-2527
▁doll	-2528
▁true	-2529
▁Qualc	-2530
▁292	-2531
du	-2532
▁290	-2533
▁big	-2534
▁704	-2535
▁rigu	-2536
▁remember	-2537
acqua	-2538
▁Will	-2539
▁tanto	-2540
▁train	-2541
▁fratello	-2542
▁321	-2543
▁383	-2544
ph	-2545
▁soltanto	-2546
▁scar	-2547
▁enough	-2548
int	-2549
▁351	-2550
ating	-2551
▁terri	-2552
▁alt	-2553
▁divent	-2554
tain	-2555
▁avrebbe	-2556
atura	-2557
▁supp	-2558
▁buona	-2559
▁cred	-2560
▁solamente	-2561
▁amm	-2562
631	-2563
▁comm	-2564
080	-2565
▁Av	-2566
cchia	-2567
636	-2568
▁hour	-2569
▁848	-2570
ede	-2571
een	-2572
▁vuoi	-2573
▁166	-2574
▁biblioteca	-2575
atta	-2576
▁anyone	-2577
als	-2578
▁ball	-2579
▁alcun	-2580
▁sorry	-2581
▁figlio	-2582
▁library	-2583
▁seri	-2584
▁295	-2585
▁imm	-2586
▁needs	-2587
▁wi	-2588
▁131	-2589
▁313	-2590
orite	-2591
▁both	-2592
▁cambi	-2593
▁questi	-2594
ile	-2595
▁sk	-2596
▁posto	-2597
estra	-2598
▁654	-2599
▁dent	-2600
bly	-2601
isco	-2602
▁620	-2603
▁nuova	-2604
akes	-2605
▁fam	-2606
▁Monday	-2607
ape	-2608
aria	-2609
▁344	-2610
▁camera	-2611
led	-2612
▁domanda	-2613
▁521	-2614
▁favorite	-2615
559	-2616
▁movi	-2617
▁adv	-2618
pra	-2619
▁verità	-2620
▁238	-2621
▁99	-2622
▁203	-2623
▁tardi	-2624
▁326	-2625
itato	-2626
▁change	-2627
▁serve	-2628
▁anche	-2629
▁spie	-2630
▁concer	-2631
mag	-2632
▁indi	-2633
▁cri	-2634
▁usci	-2635
▁300	-2636
233	-2637
iam	-2638
231	-2639
▁sba	-2640
▁smo	-2641
issero	-2642
▁giovane	-2643
▁trying	-2644
▁interested	-2645
▁mani	-2646
634	-2647
ffic	-2648
222	-2649
232	-2650
▁108	-2651
av	-2652
▁wouldn	-2653
not	-2654
▁386	-2655
▁451	-2656
▁Mio	-2657
▁utili	-2658
▁sb	-2659
▁cold	-2660
▁giocare	-2661
509	-2662
esa	-2663
ident	-2664
▁killed	-2665
▁lunedì	-2666
▁storia	-2667
616	-2668
▁281	-2669
▁sve	-2670
▁such	-2671
▁city	-2672
▁vive	-2673
▁intellig	-2674
altra	-2675
▁modo	-2676
▁182	-2677
▁606	-2678
▁musica	-2679
644	-2680
▁703	-2681
▁109	-2682
▁divert	-2683
632	-2684
ramb	-2685
▁bit	-2686
▁103	-2687
▁glass	-2688
ggiun	-2689
▁free	-2690
▁wear	-2691
234	-2692
809	-2693
▁356	-2694
▁picc	-2695
▁base	-2696
▁velo	-2697
▁hands	-2698
▁menti	-2699
▁forget	-2700
▁Dissero	-2701
▁intenzione	-2702
arvi	-2703
arm	-2704
tito	-2705
▁ingl	-2706
▁follow	-2707
book	-2708
▁arres	-2709
▁continu	-2710
alo	-2711
graf	-2712
▁surprised	-2713
▁575	-2714
▁language	-2715
zed	-2716
▁uomo	-2717
▁liked	-2718
▁parla	-2719
eremo	-2720
oke	-2721
tive	-2722
▁306	-2723
▁301	-2724
▁great	-2725
▁741	-2726
▁Ita	-2727
111	-2728
rate	-2729
▁worry	-2730
▁order	-2731
▁arrabbiato	-2732
▁853	-2733
▁nuotare	-2734
▁scritto	-2735
661	-2736
ber	-2737
ors	-2738
▁song	-2739
▁world	-2740
807	-2741
ggia	-2742
▁myself	-2743
ka	-2744
unk	-2745
▁sotto	-2746
▁canz	-2747
▁690	-2748
▁Deve	-2749
air	-2750
▁sin	-2751
▁riguardo	-2752
241	-2753
612	-2754
▁sec	-2755
▁ment	-2756
▁Vuole	-2757
lly	-2758
▁transl	-2759
▁est	-2760
▁Rima	-2761
▁892	-2762
▁stanco	-2763
▁236	-2764
uso	-2765
▁pop	-2766
▁run	-2767
▁mattina	-2768
▁sad	-2769
hai	-2770
230	-2771
ulti	-2772
king	-2773
▁vivere	-2774
asse	-2775
▁anim	-2776
▁rain	-2777
▁opini	-2778
▁doctor	-2779
▁playing	-2780
▁present	-2781
bus	-2782
▁du	-2783
▁ob	-2784
vono	-2785
▁842	-2786
olf	-2787
tti	-2788
arci	-2789
▁312	-2790
▁ste	-2791
▁provato	-2792
662	-2793
216	-2794
▁vac	-2795
▁Amer	-2796
▁631	-2797
▁pio	-2798
▁2202	-2799
▁place	-2800
sive	-2801
▁mondo	-2802
618	-2803
ressed	-2804
▁propri	-2805
▁andando	-2806
▁dare	-2807
859	-2808
▁Può	-2809
▁1103	-2810
▁fino	-2811
▁wonder	-2812
▁516	-2813
▁181	-2814
▁576	-2815
▁sorpre	-2816
243	-2817
246	-2818
643	-2819
▁ele	-2820
▁lasciato	-2821
▁153	-2822
▁class	-2823
accordo	-2824
here	-2825
ling	-2826
▁183	-2827
▁bambini	-2828
▁Tok	-2829
▁potrebbe	-2830
646	-2831
ank	-2832
▁consi	-2833
614	-2834
▁314	-2835
xi	-2836
▁Qualcuno	-2837
▁279	-2838
▁ref	-2839
rore	-2840
▁206	-2841
▁bag	-2842
erg	-2843
▁buon	-2844
▁692	-2845
▁cena	-2846
▁cominci	-2847
▁Forse	-2848
▁Spero	-2849
▁inglese	-2850
vol	-2851
osed	-2852
▁291	-2853
▁curi	-2854
▁start	-2855
▁arrived	-2856
▁cry	-2857
▁bella	-2858
etro	-2859
617	-2860
▁384	-2861
▁dep	-2862
▁ali	-2863
▁bere	-2864
213	-2865
▁511	-2866
▁tri	-2867
▁scorsa	-2868
tle	-2869
▁fece	-2870
▁shouldn	-2871
▁visi	-2872
▁own	-2873
inato	-2874
▁writ	-2875
gger	-2876
lice	-2877
642	-2878
▁Man	-2879
▁morto	-2880
087	-2881
ucky	-2882
▁245	-2883
▁inn	-2884
▁studying	-2885
630	-2886
▁vista	-2887
ught	-2888
▁Cos	-2889
▁nas	-2890
▁fame	-2891
▁Could	-2892
▁mind	-2893
▁nice	-2894
666	-2895
▁753	-2896
asy	-2897
idente	-2898
▁aspettando	-2899
bre	-2900
▁secon	-2901
▁treno	-2902
▁decisi	-2903
▁eating	-2904
zzato	-2905
▁aspettare	-2906
▁berb	-2907
work	-2908
▁Berb	-2909
▁lasc	-2910
▁puoi	-2911
▁decided	-2912
▁Ave	-2913
239	-2914
▁614	-2915
▁everyone	-2916
▁ir	-2917
▁admit	-2918
▁cannot	-2919
▁Sc	-2920
089	-2921
▁693	-2922
▁reading	-2923
▁442	-2924
▁chiamato	-2925
212	-2926
▁helped	-2927
▁parola	-2928
▁sembrava	-2929
cked	-2930
▁513	-2931
▁quite	-2932
▁resta	-2933
▁sento	-2934
244	-2935
▁528	-2936
▁gel	-2937
▁dica	-2938
▁stessa	-2939
▁453	-2940
▁miglio	-2941
▁Face	-2942
▁wish	-2943
116	-2944
▁691	-2945
▁Berber	-2946
▁country	-2947
▁450	-2948
▁1144	-2949
▁79	-2950
▁squ	-2951
▁ey	-2952
220	-2953
▁inno	-2954
olazione	-2955
268	-2956
▁275	-2957
▁bri	-2958
▁fall	-2959
rote	-2960
▁moglie	-2961
▁venuto	-2962
▁egg	-2963
▁migliore	-2964
▁673	-2965
▁days	-2966
247	-2967
613	-2968
▁pict	-2969
▁332	-2970
▁bet	-2971
▁impegnato	-2972
▁wife	-2973
uomo	-2974
▁colle	-2975
▁month	-2976
▁172	-2977
▁gatto	-2978
▁explain	-2979
▁ol	-2980
▁farà	-2981
▁occupato	-2982
▁632	-2983
je	-2984
ume	-2985
▁finished	-2986
▁girlfriend	-2987
ative	-2988
▁contr	-2989
▁viene	-2990
▁volete	-2991
▁Nob	-2992
▁else	-2993
▁noti	-2994
▁offer	-2995
▁173	-2996
▁Now	-2997
atore	-2998
▁ap	-2999
adil	-3000
▁Fadil	-3001
648	-3002
ossi	-3003
▁ragazzo	-3004
▁257	-3005
▁635	-3006
▁ord	-3007
▁veloce	-3008
▁once	-3009
▁avevo	-3010
635	-3011
▁je	-3012
indi	-3013
▁stati	-3014
▁268	-3015
▁3914	-3016
▁news	-3017
638	-3018
▁144	-3019
▁getting	-3020
▁340	-3021
▁570	-3022
▁golf	-3023
▁pronto	-3024
▁important	-3025
▁super	-3026
▁chiave	-3027
vv	-3028
▁342	-3029
▁Ven	-3030
▁sci	-3031
▁aper	-3032
selves	-3033
▁genti	-3034
▁tutta	-3035
ched	-3036
▁queste	-3037
▁133	-3038
▁396	-3039
età	-3040
▁651	-3041
228	-3042
▁mod	-3043
unque	-3044
▁baseball	-3045
▁parlando	-3046
▁mano	-3047
▁entramb	-3048
reddo	-3049
▁perf	-3050
▁serious	-3051
▁drunk	-3052
▁divertente	-3053
yed	-3054
▁cho	-3055
▁facile	-3056
▁Dobbiamo	-3057
anta	-3058
▁1174	-3059
▁carne	-3060
242	-3061
262	-3062
637	-3063
▁nell	-3064
▁innoc	-3065
▁wrote	-3066
▁Tokyo	-3067
▁dream	-3068
▁triste	-3069
▁basket	-3070
ida	-3071
mmer	-3072
▁866	-3073
▁hair	-3074
▁around	-3075
▁143	-3076
▁Dite	-3077
▁bui	-3078
▁Which	-3079
▁hotel	-3080
▁prefer	-3081
▁interest	-3082
260	-3083
ingl	-3084
▁176	-3085
▁meeting	-3086
▁different	-3087
▁odia	-3088
▁gente	-3089
▁stesso	-3090
zy	-3091
▁Facebook	-3092
fer	-3093
▁603	-3094
▁sim	-3095
ended	-3096
▁tipo	-3097
▁attra	-3098
▁broke	-3099
▁figli	-3100
ning	-3101
▁those	-3102
▁Nobody	-3103
bbero	-3104
▁abit	-3105
▁capp	-3106
▁part	-3107
▁herself	-3108
▁hot	-3109
640	-3110
isce	-3111
▁easy	-3112
▁small	-3113
▁rist	-3114
▁dovrei	-3115
usi	-3116
▁cra	-3117
▁ore	-3118
▁clean	-3119
inglese	-3120
▁sus	-3121
▁pain	-3122
▁berbero	-3123
▁cantare	-3124
▁dentro	-3125
▁giorni	-3126
▁piacerebbe	-3127
620	-3128
urb	-3129
gare	-3130
▁red	-3131
▁rub	-3132
cy	-3133
remo	-3134
▁Stop	-3135
ison	-3136
▁352	-3137
▁Dic	-3138
▁Conos	-3139
▁compr	-3140
▁police	-3141
236	-3142
▁vicino	-3143
▁dispiace	-3144
237	-3145
628	-3146
rai	-3147
▁ring	-3148
▁spend	-3149
▁indoss	-3150
▁probably	-3151
▁difficult	-3152
▁risposta	-3153
ark	-3154
▁tall	-3155
▁perfe	-3156
▁nervous	-3157
▁sf	-3158
fast	-3159
▁exam	-3160
▁orgo	-3161
▁Quello	-3162
▁immedi	-3163
idi	-3164
▁devi	-3165
ple	-3166
▁216	-3167
▁fri	-3168
▁Esperanto	-3169
267	-3170
▁là	-3171
asera	-3172
619	-3173
▁affam	-3174
▁sound	-3175
▁story	-3176
▁incontr	-3177
▁spavent	-3178
218	-3179
▁pane	-3180
▁capelli	-3181
227	-3182
265	-3183
▁donna	-3184
cess	-3185
▁park	-3186
▁171	-3187
land	-3188
▁forte	-3189
▁scarpe	-3190
ined	-3191
059	-3192
665	-3193
dow	-3194
▁imb	-3195
210	-3196
▁rest	-3197
▁medic	-3198
app	-3199
▁few	-3200
▁ing	-3201
▁faccia	-3202
625	-3203
art	-3204
▁blo	-3205
tello	-3206
▁Take	-3207
▁fum	-3208
▁men	-3209
amor	-3210
▁canzone	-3211
▁ed	-3212
▁uo	-3213
▁bread	-3214
▁ret	-3215
▁colazione	-3216
647	-3217
668	-3218
▁ago	-3219
▁appre	-3220
▁semb	-3221
▁sapeva	-3222
▁233	-3223
▁Dan	-3224
▁feri	-3225
▁193	-3226
▁Were	-3227
▁ristor	-3228
eni	-3229
▁287	-3230
▁656	-3231
▁vor	-3232
ory	-3233
▁488	-3234
▁while	-3235
ospi	-3236
▁152	-3237
▁New	-3238
▁tou	-3239
▁loves	-3240
▁deciso	-3241
▁dobbiamo	-3242
615	-3243
▁Ad	-3244
ciate	-3245
▁drive	-3246
▁ur	-3247
▁inform	-3248
▁restaur	-3249
▁errore	-3250
▁innamor	-3251
▁Semb	-3252
▁orgogli	-3253
610	-3254
pon	-3255
▁200	-3256
▁297	-3257
pl	-3258
▁Re	-3259
▁Maybe	-3260
▁yours	-3261
▁immediat	-3262
▁scorso	-3263
▁mistake	-3264
▁restaurant	-3265
▁bel	-3266
▁lic	-3267
115	-3268
▁breakfast	-3269
▁601	-3270
▁assieme	-3271
ru	-3272
226	-3273
▁mine	-3274
▁Anche	-3275
▁mosche	-3276
▁Sm	-3277
ortun	-3278
▁ascolt	-3279
▁strada	-3280
lk	-3281
▁248	-3282
▁304	-3283
▁paid	-3284
▁196	-3285
▁pom	-3286
▁3904	-3287
▁Thank	-3288
▁felici	-3289
▁vorrei	-3290
645	-3291
act	-3292
▁184	-3293
▁volevo	-3294
248	-3295
sero	-3296
▁613	-3297
▁rid	-3298
▁Odio	-3299
▁227	-3300
▁Get	-3301
▁num	-3302
anger	-3303
▁sand	-3304
▁woman	-3305
▁Giapp	-3306
▁having	-3307
▁235	-3308
▁alz	-3309
inare	-3310
▁3913	-3311
▁piedi	-3312
almente	-3313
▁Giappone	-3314
▁sl	-3315
aper	-3316
▁amo	-3317
ziona	-3318
▁Dicono	-3319
▁test	-3320
ggiare	-3321
▁stasera	-3322
214	-3323
217	-3324
▁583	-3325
▁Puoi	-3326
▁meat	-3327
▁thir	-3328
▁living	-3329
ages	-3330
▁676	-3331
▁shoes	-3332
▁wei	-3333
▁3912	-3334
▁acce	-3335
▁Devi	-3336
▁Lond	-3337
▁someone	-3338
▁camb	-3339
▁247	-3340
▁atta	-3341
▁hasn	-3342
▁sell	-3343
▁amica	-3344
▁piang	-3345
▁1886	-3346
118	-3347
▁office	-3348
660	-3349
▁773	-3350
▁importante	-3351
este	-3352
▁443	-3353
▁born	-3354
▁tras	-3355
▁secret	-3356
117	-3357
▁sat	-3358
▁fell	-3359
orma	-3360
▁stare	-3361
top	-3362
▁3918	-3363
..	-3364
▁giusto	-3365
235	-3366
▁mosque	-3367
▁moschea	-3368
639	-3369
bria	-3370
▁Quella	-3371
▁ricord	-3372
automobile	-3373
port	-3374
▁lap	-3375
240	-3376
ann	-3377
▁668	-3378
▁ran	-3379
▁sole	-3380
▁riman	-3381
fied	-3382
▁potete	-3383
▁sapevo	-3384
▁scrivere	-3385
▁leg	-3386
▁pranzo	-3387
▁652	-3388
▁compiti	-3389
▁dormire	-3390
114	-3391
▁peric	-3392
667	-3393
▁441	-3394
▁972	-3395
▁corre	-3396
▁dance	-3397
▁messa	-3398
▁tè	-3399
▁ubria	-3400
razie	-3401
▁diven	-3402
▁homework	-3403
▁Ries	-3404
▁licen	-3405
▁Me	-3406
▁781	-3407
▁law	-3408
▁1024	-3409
▁flow	-3410
▁weekend	-3411
ciuta	-3412
fficio	-3413
▁ristorante	-3414
▁472	-3415
alous	-3416
▁3903	-3417
▁mess	-3418
▁loved	-3419
▁fotograf	-3420
ela	-3421
▁452	-3422
▁cant	-3423
▁tea	-3424
▁lont	-3425
▁perfect	-3426
erra	-3427
▁315	-3428
▁Look	-3429
▁high	-3430
▁occhi	-3431
enn	-3432
▁trad	-3433
▁scared	-3434
▁cir	-3435
▁botti	-3436
▁iniziato	-3437
238	-3438
ring	-3439
ction	-3440
▁became	-3441
629	-3442
where	-3443
▁3911	-3444
▁perd	-3445
▁fish	-3446
gliamo	-3447
▁spent	-3448
itar	-3449
▁240	-3450
▁552	-3451
▁798	-3452
▁alb	-3453
▁salv	-3454
▁preferito	-3455
eso	-3456
ologi	-3457
▁pall	-3458
iappon	-3459
▁paese	-3460
▁giappon	-3461
225	-3462
▁134	-3463
adi	-3464
tta	-3465
▁993	-3466
ts	-3467
▁baci	-3468
▁jealous	-3469
▁105	-3470
▁smi	-3471
▁dotto	-3472
▁ignor	-3473
▁fire	-3474
▁Grazie	-3475
245	-3476
649	-3477
▁window	-3478
▁Japanese	-3479
arà	-3480
urch	-3481
▁sarò	-3482
▁lucky	-3483
▁sentence	-3484
▁nego	-3485
▁dieci	-3486
ughter	-3487
▁fix	-3488
▁milk	-3489
▁near	-3490
669	-3491
▁701	-3492
▁bor	-3493
▁conta	-3494
▁sopra	-3495
▁return	-3496
▁usually	-3497
▁mean	-3498
▁migli	-3499
▁andate	-3500
▁Aren	-3501
▁game	-3502
▁summer	-3503
215	-3504
omi	-3505
▁ripar	-3506
gar	-3507
▁681	-3508
▁stavo	-3509
lu	-3510
tern	-3511
▁231	-3512
▁3907	-3513
▁pronta	-3514
▁501	-3515
▁970	-3516
▁1184	-3517
▁danger	-3518
▁piaceva	-3519
▁problemi	-3520
▁446	-3521
▁succed	-3522
▁scel	-3523
▁act	-3524
▁students	-3525
▁ce	-3526
▁alto	-3527
▁dead	-3528
▁movie	-3529
▁siano	-3530
▁im	-3531
▁ben	-3532
▁dia	-3533
▁uni	-3534
sione	-3535
▁head	-3536
▁latte	-3537
▁laptop	-3538
▁Mia	-3539
▁reas	-3540
▁tuoi	-3541
thers	-3542
▁invit	-3543
113	-3544
▁4502	-3545
▁mand	-3546
▁soli	-3547
▁specia	-3548
▁rifi	-3549
tamento	-3550
▁zo	-3551
▁3908	-3552
▁strong	-3553
▁changed	-3554
▁168	-3555
▁682	-3556
▁696	-3557
▁906	-3558
▁502	-3559
▁Cer	-3560
▁sign	-3561
▁talked	-3562
▁dovremmo	-3563
▁imparato	-3564
▁543	-3565
▁684	-3566
▁travel	-3567
▁polizia	-3568
219	-3569
▁om	-3570
▁fis	-3571
▁feeling	-3572
▁604	-3573
▁776	-3574
▁Cor	-3575
▁pra	-3576
▁questions	-3577
alth	-3578
▁694	-3579
▁cav	-3580
▁3906	-3581
▁arm	-3582
▁kept	-3583
▁impie	-3584
▁nascon	-3585
▁proprio	-3586
▁713	-3587
▁Our	-3588
▁air	-3589
▁Parl	-3590
isc	-3591
▁Va	-3592
gliono	-3593
▁passato	-3594
▁355	-3595
istic	-3596
▁later	-3597
▁stiamo	-3598
▁safe	-3599
▁yourself	-3600
▁themselves	-3601
▁242	-3602
▁div	-3603
▁stia	-3604
▁began	-3605
229	-3606
▁lu	-3607
▁agree	-3608
▁condi	-3609
▁bottle	-3610
▁calc	-3611
▁tree	-3612
▁hid	-3613
119	-3614
gato	-3615
▁fast	-3616
▁segui	-3617
▁prossimo	-3618
uss	-3619
▁altri	-3620
▁played	-3621
▁316	-3622
▁lie	-3623
▁Te	-3624
▁trou	-3625
▁piac	-3626
▁puli	-3627
▁segre	-3628
▁vincere	-3629
▁attenzione	-3630
▁sandw	-3631
▁336	-3632
▁dan	-3633
▁gone	-3634
▁thinks	-3635
▁watching	-3636
▁pat	-3637
▁sport	-3638
▁preoccupato	-3639
▁apologi	-3640
▁Vuoi	-3641
▁194	-3642
▁works	-3643
627	-3644
isto	-3645
▁280	-3646
▁mer	-3647
▁bring	-3648
▁testa	-3649
▁times	-3650
▁suonare	-3651
▁racc	-3652
▁frase	-3653
▁dottore	-3654
bbia	-3655
▁scus	-3656
▁gentile	-3657
▁sil	-3658
▁tren	-3659
▁regalo	-3660
ossa	-3661
▁486	-3662
▁496	-3663
▁Sare	-3664
▁dovete	-3665
▁necess	-3666
▁conosco	-3667
isf	-3668
▁Su	-3669
▁791	-3670
▁873	-3671
▁161	-3672
onest	-3673
▁lar	-3674
▁tav	-3675
▁fut	-3676
▁lived	-3677
▁against	-3678
▁bottiglia	-3679
▁err	-3680
ations	-3681
▁primo	-3682
▁prossima	-3683
bito	-3684
▁key	-3685
▁vecchio	-3686
▁3910	-3687
▁eyes	-3688
rem	-3689
▁Quanti	-3690
▁messo	-3691
249	-3692
ush	-3693
orso	-3694
▁light	-3695
▁professo	-3696
▁3915	-3697
▁older	-3698
▁1186	-3699
▁daughter	-3700
▁482	-3701
▁end	-3702
▁guidare	-3703
rance	-3704
▁1011	-3705
▁trasc	-3706
▁151	-3707
▁beh	-3708
▁stanca	-3709
▁hours	-3710
▁utilizz	-3711
▁3916	-3712
▁reco	-3713
▁fatta	-3714
▁become	-3715
▁interesting	-3716
▁Vor	-3717
allow	-3718
▁cres	-3719
▁vide	-3720
▁parole	-3721
part	-3722
▁747	-3723
▁anzi	-3724
▁Guard	-3725
▁admitted	-3726
less	-3727
▁prep	-3728
▁mangia	-3729
▁consider	-3730
by	-3731
eep	-3732
eria	-3733
ming	-3734
▁diverti	-3735
▁stopped	-3736
utta	-3737
▁374	-3738
▁quick	-3739
▁752	-3740
▁freddo	-3741
▁Not	-3742
rank	-3743
▁218	-3744
▁802	-3745
▁disturb	-3746
▁picture	-3747
▁arrivato	-3748
▁sbagliato	-3749
▁277	-3750
▁Ora	-3751
▁abs	-3752
atica	-3753
▁7404	-3754
▁434	-3755
▁lea	-3756
▁zoo	-3757
ently	-3758
▁Pote	-3759
▁mori	-3760
▁semplice	-3761
▁885	-3762
▁vinto	-3763
▁ot	-3764
▁376	-3765
▁suff	-3766
▁buono	-3767
▁cinque	-3768
▁voglia	-3769
▁192	-3770
▁radio	-3771
▁593	-3772
▁clot	-3773
▁These	-3774
▁266	-3775
▁473	-3776
▁appro	-3777
▁riuni	-3778
▁touch	-3779
▁impres	-3780
▁531	-3781
▁taxi	-3782
▁figlia	-3783
▁seemed	-3784
431	-3785
▁cuo	-3786
▁thank	-3787
269	-3788
▁town	-3789
▁table	-3790
▁mentre	-3791
▁needed	-3792
▁odio	-3793
mon	-3794
▁odi	-3795
▁prog	-3796
▁lavora	-3797
▁lose	-3798
110	-3799
▁Fe	-3800
▁team	-3801
▁bambino	-3802
▁intelligente	-3803
▁uova	-3804
enta	-3805
▁reali	-3806
▁260	-3807
▁506	-3808
▁emo	-3809
▁fre	-3810
▁971	-3811
▁Amo	-3812
▁andati	-3813
▁invited	-3814
oun	-3815
▁At	-3816
ensive	-3817
ccato	-3818
kes	-3819
▁494	-3820
essun	-3821
vendo	-3822
▁number	-3823
▁pensate	-3824
▁art	-3825
▁mag	-3826
▁eggs	-3827
▁automobile	-3828
▁335	-3829
▁dura	-3830
▁uscire	-3831
▁numero	-3832
▁impegnata	-3833
432	-3834
▁Am	-3835
▁322	-3836
▁532	-3837
▁Stai	-3838
▁Her	-3839
▁Par	-3840
▁fidanz	-3841
▁dissero	-3842
▁wearing	-3843
410	-3844
▁bello	-3845
▁lavorando	-3846
▁probabilmente	-3847
tions	-3848
▁chiedere	-3849
▁98	-3850
▁420	-3851
altro	-3852
▁learning	-3853
une	-3854
ject	-3855
ences	-3856
olore	-3857
▁viol	-3858
▁chiamare	-3859
▁boyfriend	-3860
tte	-3861
pido	-3862
▁633	-3863
▁cad	-3864
inted	-3865
▁bicy	-3866
▁Quale	-3867
▁abita	-3868
▁studenti	-3869
▁Prend	-3870
▁lungo	-3871
▁Fare	-3872
▁squad	-3873
em	-3874
▁slow	-3875
otte	-3876
erete	-3877
▁andò	-3878
▁possibile	-3879
30.	-3880
enica	-3881
▁scord	-3882
tit	-3883
▁258	-3884
▁270	-3885
▁671	-3886
▁sapp	-3887
▁crede	-3888
▁laugh	-3889
▁protect	-3890
ip	-3891
▁Mr	-3892
▁exact	-3893
▁3905	-3894
▁farò	-3895
▁grand	-3896
come	-3897
▁sun	-3898
▁fant	-3899
▁telev	-3900
▁Potete	-3901
▁pomeri	-3902
▁turned	-3903
ennad	-3904
imento	-3905
▁Dovete	-3906
▁Mennad	-3907
▁sposato	-3908
▁interessante	-3909
ghb	-3910
▁cent	-3911
▁accident	-3912
▁occupata	-3913
▁rip	-3914
▁basta	-3915
▁eaten	-3916
▁220	-3917
estro	-3918
▁neighb	-3919
▁pomeriggio	-3920
▁cut	-3921
▁sai	-3922
▁domande	-3923
▁sandwich	-3924
▁156	-3925
▁makes	-3926
▁cavall	-3927
▁giapponese	-3928
▁198	-3929
▁624	-3930
▁swe	-3931
112	-3932
▁702	-3933
▁2013	-3934
▁lingue	-3935
▁morire	-3936
▁vostri	-3937
▁portato	-3938
utes	-3939
▁541	-3940
▁mis	-3941
▁Cont	-3942
▁squadra	-3943
434	-3944
▁361	-3945
▁age	-3946
▁sentire	-3947
esperanto	-3948
▁123	-3949
▁228	-3950
▁414	-3951
▁586	-3952
▁York	-3953
▁sold	-3954
▁America	-3955
▁aiutato	-3956
▁trouble	-3957
feri	-3958
oria	-3959
▁672	-3960
▁languages	-3961
▁826	-3962
▁891	-3963
▁snow	-3964
insegn	-3965
▁chiama	-3966
▁worked	-3967
▁afterno	-3968
▁655	-3969
▁Lav	-3970
▁face	-3971
▁foot	-3972
▁full	-3973
▁guardando	-3974
ert	-3975
verà	-3976
▁523	-3977
▁Try	-3978
▁each	-3979
▁five	-3980
▁hospi	-3981
▁learned	-3982
entemente	-3983
▁finestra	-3984
▁expect	-3985
▁genere	-3986
ron	-3987
reet	-3988
▁arrabbiata	-3989
▁chiese	-3990
▁making	-3991
side	-3992
▁514	-3993
▁opp	-3994
▁meno	-3995
▁build	-3996
▁Volete	-3997
▁importa	-3998
▁words	-3999
▁317	-4000
▁Sun	-4001
▁afternoon	-4002
▁602	-4003
▁disa	-4004
▁mese	-4005
oraggi	-4006
▁ricco	-4007
▁church	-4008
▁exc	-4009
▁ill	-4010
▁3920	-4011
▁apri	-4012
▁tavolo	-4013
▁567	-4014
▁rim	-4015
▁Pens	-4016
▁black	-4017
416	-4018
▁481	-4019
andon	-4020
atevi	-4021
ddisf	-4022
▁conc	-4023
▁brava	-4024
▁respon	-4025
▁stazione	-4026
ott	-4027
▁263	-4028
▁876	-4029
▁canad	-4030
▁rapid	-4031
▁Canadi	-4032
enda	-4033
▁165	-4034
▁kid	-4035
▁esat	-4036
▁warn	-4037
▁gioco	-4038
▁honest	-4039
▁swimming	-4040
insegnante	-4041
▁cominciato	-4042
▁362	-4043
▁Call	-4044
▁vestiti	-4045
ghi	-4046
▁239	-4047
▁553	-4048
▁577	-4049
▁schi	-4050
▁chiesa	-4051
▁lasciare	-4052
ual	-4053
▁474	-4054
▁Tutto	-4055
▁costo	-4056
peri	-4057
▁591	-4058
▁887	-4059
▁umb	-4060
▁diede	-4061
▁venuta	-4062
▁Was	-4063
▁sco	-4064
▁longer	-4065
▁partire	-4066
▁121	-4067
▁303	-4068
▁Mang	-4069
▁possono	-4070
▁prestito	-4071
▁sub	-4072
▁since	-4073
▁usare	-4074
▁sentiva	-4075
▁station	-4076
▁246	-4077
▁box	-4078
▁brought	-4079
▁564	-4080
▁778	-4081
▁sugg	-4082
▁ricevuto	-4083
osped	-4084
▁chiedo	-4085
ss	-4086
rante	-4087
▁evening	-4088
▁minutes	-4089
▁controll	-4090
anco	-4091
▁goes	-4092
til	-4093
▁Da	-4094
▁250	-4095
▁cammin	-4096
▁bicycle	-4097
gia	-4098
▁493	-4099
▁792	-4100
iness	-4101
ny	-4102
▁taking	-4103
▁riunione	-4104
▁tol	-4105
▁canc	-4106
▁expensive	-4107
▁413	-4108
▁471	-4109
▁Ecco	-4110
▁also	-4111
▁impiego	-4112
▁esattamente	-4113
▁3917	-4114
▁asleep	-4115
▁signor	-4116
▁clothes	-4117
▁exactly	-4118
oup	-4119
▁To	-4120
anche	-4121
▁gener	-4122
▁restare	-4123
▁hat	-4124
▁vedo	-4125
▁which	-4126
ness	-4127
▁125	-4128
▁dro	-4129
▁occhia	-4130
▁838	-4131
▁894	-4132
astidi	-4133
▁parco	-4134
▁ucciso	-4135
▁299	-4136
▁310	-4137
▁anybody	-4138
▁hospital	-4139
▁Dio	-4140
geria	-4141
▁save	-4142
▁State	-4143
▁borrow	-4144
▁dollari	-4145
▁glasses	-4146
▁viaggio	-4147
tici	-4148
gram	-4149
resa	-4150
▁298	-4151
▁325	-4152
▁431	-4153
▁433	-4154
▁abitu	-4155
▁arrest	-4156
▁305	-4157
▁734	-4158
▁pazi	-4159
▁Sunday	-4160
▁cercato	-4161
▁ufficio	-4162
▁Potrebbe	-4163
son	-4164
▁Sk	-4165
erai	-4166
tivo	-4167
▁158	-4168
▁890	-4169
▁occhiali	-4170
▁124	-4171
▁780	-4172
▁Jack	-4173
▁morte	-4174
▁quell	-4175
▁behind	-4176
▁complain	-4177
ned	-4178
▁molta	-4179
▁matter	-4180
▁ritorn	-4181
▁716	-4182
tendo	-4183
▁missed	-4184
▁422	-4185
▁guardare	-4186
▁pati	-4187
▁rend	-4188
▁500	-4189
▁585	-4190
▁1176	-4191
▁Franc	-4192
▁avrei	-4193
▁capire	-4194
issi	-4195
▁piaciuto	-4196
▁God	-4197
▁fra	-4198
▁scat	-4199
418	-4200
433	-4201
amed	-4202
▁426	-4203
▁kni	-4204
▁incont	-4205
ets	-4206
ken	-4207
assi	-4208
▁pesce	-4209
▁Everybody	-4210
▁463	-4211
▁667	-4212
▁714	-4213
▁caught	-4214
ospedale	-4215
▁disappo	-4216
▁televisi	-4217
▁Ar	-4218
▁pan	-4219
ention	-4220
▁impossi	-4221
▁negozio	-4222
zie	-4223
▁piani	-4224
leas	-4225
▁189	-4226
▁375	-4227
▁524	-4228
▁824	-4229
▁pubb	-4230
▁dispos	-4231
▁strano	-4232
▁vogliono	-4233
ammi	-4234
▁213	-4235
▁214	-4236
▁Euro	-4237
▁rifiut	-4238
▁ug	-4239
▁411	-4240
▁600	-4241
▁apart	-4242
▁deser	-4243
rebbero	-4244
fo	-4245
435	-4246
436	-4247
ende	-4248
▁mas	-4249
▁vill	-4250
ultima	-4251
pping	-4252
rendo	-4253
▁heart	-4254
▁domenica	-4255
▁2821	-4256
▁Poss	-4257
▁birth	-4258
▁roman	-4259
▁giocato	-4260
▁rimanere	-4261
conom	-4262
▁3909	-4263
▁less	-4264
elcome	-4265
▁conosc	-4266
▁propos	-4267
ened	-4268
erlo	-4269
▁348	-4270
▁cli	-4271
▁then	-4272
▁incol	-4273
▁perdere	-4274
▁promised	-4275
ical	-4276
▁sel	-4277
retta	-4278
▁soddisf	-4279
417	-4280
▁pensavo	-4281
▁recogni	-4282
▁thinking	-4283
▁impression	-4284
▁Sape	-4285
▁490	-4286
ented	-4287
erebbe	-4288
▁Adesso	-4289
▁fumare	-4290
▁giornata	-4291
ppy	-4292
iale	-4293
▁436	-4294
▁def	-4295
▁1181	-4296
▁reli	-4297
▁umbrella	-4298
ama	-4299
▁sull	-4300
▁until	-4301
brello	-4302
▁sapete	-4303
▁solito	-4304
▁enjoyed	-4305
▁320	-4306
▁Cre	-4307
▁2011	-4308
any	-4309
▁190	-4310
▁197	-4311
▁262	-4312
▁269	-4313
▁607	-4314
▁pie	-4315
autobus	-4316
irt	-4317
zze	-4318
▁Sai	-4319
▁hated	-4320
▁rimas	-4321
▁basketball	-4322
▁Oh	-4323
▁Pe	-4324
ular	-4325
▁8476	-4326
▁impro	-4327
▁aiutarla	-4328
dge	-4329
lità	-4330
onte	-4331
▁808	-4332
ologio	-4333
▁farla	-4334
▁thirty	-4335
cil	-4336
vid	-4337
ania	-4338
▁421	-4339
▁7403	-4340
▁lied	-4341
▁Intern	-4342
▁Quante	-4343
▁natura	-4344
▁immediatamente	-4345
rete	-4346
rice	-4347
▁tas	-4348
▁capita	-4349
▁Dovrebbe	-4350
ged	-4351
rend	-4352
▁522	-4353
▁772	-4354
▁1026	-4355
▁thre	-4356
▁errori	-4357
▁hu	-4358
▁288	-4359
▁594	-4360
▁caso	-4361
▁dogs	-4362
▁frasi	-4363
▁ricon	-4364
▁war	-4365
▁Sarà	-4366
▁tick	-4367
▁passe	-4368
▁rather	-4369
▁dicendo	-4370
yoto	-4371
▁278	-4372
▁464	-4373
▁871	-4374
▁trip	-4375
▁bevuto	-4376
▁guerra	-4377
▁strange	-4378
▁837	-4379
inese	-4380
▁short	-4381
▁famous	-4382
▁opened	-4383
▁diventare	-4384
fu	-4385
ered	-4386
▁561	-4387
▁six	-4388
▁Pensi	-4389
▁reason	-4390
▁outside	-4391
444	-4392
ermi	-4393
▁495	-4394
▁mentito	-4395
▁sorpresa	-4396
▁conosciuto	-4397
349	-4398
▁595	-4399
▁emb	-4400
▁Sarò	-4401
▁Lascia	-4402
▁stayed	-4403
415	-4404
hip	-4405
▁cop	-4406
▁tal	-4407
▁plans	-4408
▁entrambi	-4409
438	-4410
▁thr	-4411
▁dirlo	-4412
▁rispond	-4413
412	-4414
430	-4415
▁na	-4416
gani	-4417
▁563	-4418
▁forma	-4419
▁health	-4420
▁princi	-4421
▁avevano	-4422
▁cappello	-4423
▁366	-4424
▁611	-4425
▁Volevo	-4426
▁realtà	-4427
alloween	-4428
437	-4429
446	-4430
▁appar	-4431
▁bicchi	-4432
▁problems	-4433
▁dur	-4434
▁translate	-4435
eranno	-4436
▁bigli	-4437
▁Stiamo	-4438
▁Halloween	-4439
▁sentences	-4440
▁622	-4441
▁qual	-4442
▁piccolo	-4443
▁stupido	-4444
▁interessato	-4445
ature	-4446
ton	-4447
▁394	-4448
atter	-4449
▁Contin	-4450
▁advice	-4451
▁licenzi	-4452
▁riconos	-4453
▁messaggio	-4454
340	-4455
441	-4456
▁658	-4457
▁rotto	-4458
▁pencil	-4459
▁dimenticato	-4460
icl	-4461
udi	-4462
▁jo	-4463
rere	-4464
▁132	-4465
▁669	-4466
▁836	-4467
▁1173	-4468
▁Fu	-4469
▁504	-4470
▁lim	-4471
▁white	-4472
▁provando	-4473
ude	-4474
▁554	-4475
times	-4476
▁Port	-4477
▁studied	-4478
▁491	-4479
▁Dovresti	-4480
▁everybody	-4481
▁ann	-4482
▁risol	-4483
425	-4484
val	-4485
▁578	-4486
▁apple	-4487
▁moment	-4488
336	-4489
▁680	-4490
▁Mol	-4491
▁drinking	-4492
337	-4493
▁771	-4494
▁7384	-4495
▁hide	-4496
▁funzion	-4497
▁sorpreso	-4498
▁367	-4499
▁800	-4500
▁inside	-4501
▁visited	-4502
▁On	-4503
▁prepared	-4504
irm	-4505
omm	-4506
sta	-4507
▁through	-4508
▁indossando	-4509
▁catt	-4510
▁rela	-4511
▁Should	-4512
▁smoking	-4513
rom	-4514
vai	-4515
▁953	-4516
▁avv	-4517
▁Here	-4518
▁Just	-4519
▁incre	-4520
▁malato	-4521
▁completamente	-4522
414	-4523
cip	-4524
tiv	-4525
rass	-4526
aglia	-4527
▁crazy	-4528
443	-4529
▁122	-4530
inter	-4531
▁bank	-4532
▁fossi	-4533
▁speaks	-4534
▁pericol	-4535
▁tornare	-4536
▁Stay	-4537
▁sper	-4538
▁drank	-4539
▁promise	-4540
erci	-4541
▁desk	-4542
▁riso	-4543
▁fiume	-4544
▁serio	-4545
▁calcio	-4546
▁Sembrava	-4547
ward	-4548
▁318	-4549
▁388	-4550
▁dip	-4551
▁caldo	-4552
▁partita	-4553
▁Internet	-4554
346	-4555
429	-4556
447	-4557
ace	-4558
▁mati	-4559
▁entrare	-4560
sti	-4561
ight	-4562
▁nasc	-4563
▁allerg	-4564
▁incontrato	-4565
▁661	-4566
▁fiori	-4567
▁stand	-4568
▁581	-4569
▁Stavo	-4570
▁finish	-4571
▁vecchia	-4572
rib	-4573
ucch	-4574
▁hum	-4575
▁vada	-4576
▁avver	-4577
▁cani	-4578
▁andrà	-4579
▁verrà	-4580
▁closed	-4581
▁certain	-4582
▁message	-4583
Australia	-4584
428	-4585
▁526	-4586
▁670	-4587
▁cur	-4588
▁mem	-4589
▁move	-4590
▁wall	-4591
▁Lasci	-4592
▁tornato	-4593
▁willing	-4594
▁studiando	-4595
lock	-4596
▁415	-4597
▁790	-4598
▁sosp	-4599
▁uccider	-4600
▁Germania	-4601
▁possible	-4602
▁ow	-4603
pted	-4604
▁eff	-4605
▁spia	-4606
▁funny	-4607
▁chiavi	-4608
▁strani	-4609
▁Germany	-4610
▁apologize	-4611
▁dangerous	-4612
cò	-4613
▁blu	-4614
▁its	-4615
▁vado	-4616
▁close	-4617
▁minuti	-4618
▁Pensate	-4619
".	-4620
atic	-4621
▁river	-4622
▁rubato	-4623
440	-4624
ween	-4625
▁guy	-4626
ument	-4627
▁Skura	-4628
▁quale	-4629
▁econom	-4630
▁Chinese	-4631
▁neanche	-4632
ub	-4633
▁689	-4634
▁zucch	-4635
▁prison	-4636
▁preoccupata	-4637
mmeno	-4638
▁allo	-4639
▁penna	-4640
▁insieme	-4641
▁Rim	-4642
▁ted	-4643
▁flowers	-4644
▁opinion	-4645
▁cambiato	-4646
▁coltello	-4647
ator	-4648
▁657	-4649
▁dai	-4650
▁deb	-4651
▁giard	-4652
duc	-4653
ric	-4654
iasi	-4655
tore	-4656
▁237	-4657
usted	-4658
▁poor	-4659
▁blame	-4660
▁comes	-4661
▁knife	-4662
▁provare	-4663
334	-4664
uit	-4665
▁dorm	-4666
▁mari	-4667
▁death	-4668
335	-4669
esame	-4670
▁whole	-4671
esco	-4672
hoto	-4673
▁596	-4674
▁803	-4675
▁App	-4676
▁rel	-4677
▁appe	-4678
▁fail	-4679
▁keys	-4680
▁hates	-4681
▁recei	-4682
▁pagato	-4683
319	-4684
439	-4685
irà	-4686
▁378	-4687
▁gam	-4688
itter	-4689
▁2245	-4690
ggiung	-4691
▁nessun	-4692
▁studiato	-4693
▁apartment	-4694
ony	-4695
tica	-4696
▁721	-4697
▁aut	-4698
▁tur	-4699
hetti	-4700
▁7402	-4701
▁danz	-4702
▁situ	-4703
▁perse	-4704
▁capisco	-4705
▁cucinare	-4706
▁mistakes	-4707
413	-4708
▁590	-4709
▁872	-4710
▁photo	-4711
▁piangere	-4712
itc	-4713
room	-4714
▁439	-4715
▁servi	-4716
▁scatola	-4717
▁cambiare	-4718
oth	-4719
▁677	-4720
448	-4721
▁Tw	-4722
ammo	-4723
▁Sap	-4724
arden	-4725
vious	-4726
▁curious	-4727
▁writing	-4728
▁ril	-4729
▁7386	-4730
▁scon	-4731
▁price	-4732
▁birthday	-4733
ured	-4734
▁210	-4735
avete	-4736
olare	-4737
▁voce	-4738
▁Corano	-4739
▁miglior	-4740
▁blue	-4741
▁between	-4742
▁pensare	-4743
445	-4744
▁Gio	-4745
▁sang	-4746
▁soff	-4747
▁dollars	-4748
▁lontano	-4749
▁Everything	-4750
ial	-4751
asso	-4752
▁358	-4753
▁rapp	-4754
▁garden	-4755
▁speaking	-4756
419	-4757
▁Fin	-4758
▁batt	-4759
▁rosso	-4760
aghetti	-4761
▁imbara	-4762
aramente	-4763
▁1090	-4764
▁gift	-4765
▁spar	-4766
▁compleanno	-4767
'.	-4768
427	-4769
▁Asp	-4770
▁lying	-4771
▁weather	-4772
▁duramente	-4773
▁556	-4774
▁cup	-4775
▁dou	-4776
tical	-4777
▁Oggi	-4778
▁pagare	-4779
▁careful	-4780
▁quickly	-4781
▁vestito	-4782
ago	-4783
iate	-4784
idea	-4785
ismo	-4786
▁162	-4787
▁deli	-4788
▁dovresti	-4789
331	-4790
▁bac	-4791
▁tue	-4792
▁bici	-4793
omini	-4794
▁send	-4795
▁Quran	-4796
▁dietro	-4797
▁svegli	-4798
▁zucchero	-4799
ko	-4800
▁cell	-4801
orment	-4802
▁allow	-4803
▁prezzo	-4804
▁second	-4805
▁338	-4806
▁2546	-4807
▁classe	-4808
▁quindi	-4809
▁Possiamo	-4810
348	-4811
tely	-4812
▁fer	-4813
▁solu	-4814
omen	-4815
▁One	-4816
▁età	-4817
▁ride	-4818
▁quest	-4819
▁others	-4820
lf	-4821
338	-4822
▁783	-4823
▁shot	-4824
▁faccio	-4825
▁rapidamente	-4826
onn	-4827
▁483	-4828
▁484	-4829
▁592	-4830
▁gru	-4831
▁Quel	-4832
▁Chiam	-4833
▁uccid	-4834
▁conosci	-4835
▁Canadian	-4836
▁information	-4837
ware	-4838
▁hit	-4839
▁1091	-4840
▁dite	-4841
▁ugly	-4842
▁matita	-4843
▁leaving	-4844
▁riusciva	-4845
442	-4846
irus	-4847
▁beat	-4848
▁spaghetti	-4849
for	-4850
line	-4851
▁torta	-4852
▁accept	-4853
339	-4854
▁854	-4855
▁esc	-4856
atori	-4857
▁otto	-4858
▁vivo	-4859
▁fruit	-4860
▁hurry	-4861
▁tradi	-4862
iamente	-4863
▁Sapete	-4864
▁autobus	-4865
314	-4866
▁Af	-4867
perto	-4868
bilità	-4869
▁permesso	-4870
▁But	-4871
▁dra	-4872
▁four	-4873
▁France	-4874
▁aperto	-4875
▁building	-4876
▁ul	-4877
ereo	-4878
otti	-4879
▁web	-4880
▁7401	-4881
▁mela	-4882
▁siate	-4883
versità	-4884
▁prigione	-4885
acchi	-4886
ciato	-4887
▁Aveva	-4888
urre	-4889
▁126	-4890
▁1023	-4891
▁bored	-4892
▁cucina	-4893
449	-4894
▁625	-4895
▁777	-4896
▁arg	-4897
▁pub	-4898
▁sarei	-4899
▁sleepy	-4900
ood	-4901
dendo	-4902
▁grow	-4903
▁divor	-4904
▁embar	-4905
▁manca	-4906
▁bicicl	-4907
▁Ex	-4908
ures	-4909
▁emp	-4910
▁lawy	-4911
▁ragazzi	-4912
▁230	-4913
▁492	-4914
▁1156	-4915
▁soft	-4916
▁likely	-4917
▁nemmeno	-4918
▁embarrass	-4919
312	-4920
eth	-4921
ists	-4922
▁546	-4923
ggior	-4924
▁alta	-4925
▁Francia	-4926
420	-4927
cks	-4928
▁520	-4929
▁donne	-4930
▁spero	-4931
▁sugar	-4932
317	-4933
eric	-4934
▁584	-4935
vered	-4936
▁case	-4937
▁catch	-4938
▁saying	-4939
▁ombrello	-4940
▁387	-4941
▁645	-4942
attro	-4943
▁pess	-4944
▁Andiamo	-4945
cche	-4946
▁616	-4947
▁legge	-4948
▁uomini	-4949
▁535	-4950
ither	-4951
▁404	-4952
▁996	-4953
ziare	-4954
▁8475	-4955
▁cuore	-4956
▁quelle	-4957
▁cavallo	-4958
▁durante	-4959
▁portare	-4960
▁segreto	-4961
▁mangiando	-4962
▁rispondere	-4963
▁gui	-4964
▁ori	-4965
▁fight	-4966
▁street	-4967
▁ballare	-4968
▁ordered	-4969
▁440	-4970
▁igno	-4971
▁scop	-4972
▁dress	-4973
▁finire	-4974
▁minuto	-4975
▁perdon	-4976
318	-4977
▁colpa	-4978
▁spoke	-4979
▁confused	-4980
ount	-4981
▁328	-4982
▁610	-4983
▁rif	-4984
amore	-4985
▁2247	-4986
▁beve	-4987
▁dark	-4988
▁scriv	-4989
▁libero	-4990
▁aspetta	-4991
310	-4992
▁gri	-4993
itting	-4994
▁correct	-4995
▁612	-4996
▁infel	-4997
▁giardino	-4998
cate	-4999
verò	-5000
▁357	-5001
▁Has	-5002
▁oss	-5003
▁shy	-5004
▁biro	-5005
▁glad	-5006
▁stole	-5007
▁nostri	-5008
▁vederla	-5009
313	-5010
cing	-5011
lian	-5012
▁Tro	-5013
▁lead	-5014
▁stam	-5015
▁Erano	-5016
▁Proba	-5017
▁altre	-5018
▁gover	-5019
▁poteva	-5020
▁refused	-5021
▁vogliamo	-5022
ens	-5023
▁gh	-5024
▁ear	-5025
▁bird	-5026
ggiato	-5027
▁bagno	-5028
▁uncle	-5029
▁chance	-5030
▁Someone	-5031
▁consiglio	-5032
▁flo	-5033
▁rema	-5034
isfied	-5035
▁Thanks	-5036
▁cinese	-5037
▁respect	-5038
▁supposed	-5039
345	-5040
ido	-5041
▁smell	-5042
▁venne	-5043
alsiasi	-5044
333	-5045
▁Ciò	-5046
ciamo	-5047
▁1170	-5048
▁2548	-5049
▁novel	-5050
▁kissed	-5051
▁informa	-5052
▁indietro	-5053
azz	-5054
▁527	-5055
▁599	-5056
▁bur	-5057
▁pur	-5058
light	-5059
▁prud	-5060
▁pranz	-5061
▁verso	-5062
▁studente	-5063
▁disappointed	-5064
▁2543	-5065
▁smoke	-5066
▁salute	-5067
▁qualsiasi	-5068
ersi	-5069
outh	-5070
▁636	-5071
▁832	-5072
vocato	-5073
▁conto	-5074
▁pensava	-5075
▁football	-5076
ism	-5077
rui	-5078
▁187	-5079
▁724	-5080
▁794	-5081
▁Put	-5082
▁doc	-5083
▁1162	-5084
▁2273	-5085
▁Bring	-5086
▁nelle	-5087
▁Nothing	-5088
ppa	-5089
▁For	-5090
▁Many	-5091
▁cars	-5092
▁banca	-5093
▁marry	-5094
▁company	-5095
▁Probabilmente	-5096
140	-5097
460	-5098
anze	-5099
ater	-5100
ties	-5101
ettete	-5102
▁credere	-5103
▁terribile	-5104
ats	-5105
▁passa	-5106
▁dovreste	-5107
▁smettere	-5108
▁list	-5109
▁Leave	-5110
▁stamattina	-5111
▁id	-5112
▁zio	-5113
▁Paris	-5114
▁horse	-5115
▁immag	-5116
▁pleas	-5117
▁eravamo	-5118
▁chiamata	-5119
▁professore	-5120
ab	-5121
▁Ma	-5122
anda	-5123
▁234	-5124
ressa	-5125
▁7476	-5126
▁Dovreste	-5127
arigi	-5128
phone	-5129
▁1111	-5130
▁2643	-5131
▁carta	-5132
▁large	-5133
▁Parigi	-5134
cce	-5135
▁448	-5136
▁guil	-5137
▁Italy	-5138
▁signi	-5139
▁ingann	-5140
▁stavano	-5141
gono	-5142
▁900	-5143
▁1093	-5144
▁card	-5145
▁smart	-5146
uazione	-5147
▁patient	-5148
▁stanotte	-5149
▁232	-5150
▁1108	-5151
▁London	-5152
▁vostre	-5153
▁portati	-5154
rab	-5155
▁owe	-5156
▁jail	-5157
▁check	-5158
▁torto	-5159
▁686	-5160
▁722	-5161
▁dol	-5162
▁7440	-5163
▁acqua	-5164
▁distr	-5165
▁store	-5166
▁americ	-5167
▁bicchiere	-5168
atem	-5169
▁447	-5170
▁Americ	-5171
▁assonn	-5172
omp	-5173
mbur	-5174
▁Ask	-5175
▁ext	-5176
happy	-5177
▁1164	-5178
▁bother	-5179
▁helping	-5180
▁arrested	-5181
▁addorment	-5182
iore	-5183
irsty	-5184
▁4202	-5185
▁plane	-5186
▁incredi	-5187
▁quattro	-5188
▁written	-5189
332	-5190
▁884	-5191
▁Mari	-5192
▁risk	-5193
▁nervoso	-5194
og	-5195
▁623	-5196
▁fan	-5197
▁2376	-5198
▁pick	-5199
▁scio	-5200
▁gatti	-5201
▁religi	-5202
327	-5203
▁547	-5204
▁779	-5205
▁paper	-5206
▁parli	-5207
▁Londra	-5208
▁bicicletta	-5209
330	-5210
irs	-5211
band	-5212
▁706	-5213
▁wash	-5214
cciamo	-5215
▁intro	-5216
132	-5217
ppi	-5218
▁Bi	-5219
▁515	-5220
▁2544	-5221
▁preparato	-5222
316	-5223
▁cow	-5224
▁2236	-5225
▁8480	-5226
▁morta	-5227
▁lavorato	-5228
qui	-5229
▁795	-5230
▁educ	-5231
▁suic	-5232
usband	-5233
ding	-5234
aited	-5235
▁Parla	-5236
▁lawyer	-5237
▁shopping	-5238
▁509	-5239
▁eri	-5240
icago	-5241
▁crying	-5242
▁Chicago	-5243
▁unhappy	-5244
▁attention	-5245
315	-5246
▁Pi	-5247
aster	-5248
fully	-5249
▁Pass	-5250
▁annoi	-5251
▁cattur	-5252
▁waited	-5253
▁weight	-5254
▁convinced	-5255
320	-5256
ava	-5257
▁119	-5258
▁992	-5259
▁neve	-5260
amento	-5261
▁sever	-5262
▁fantas	-5263
▁canadese	-5264
▁terrible	-5265
ghe	-5266
tico	-5267
▁377	-5268
▁507	-5269
▁agg	-5270
menti	-5271
▁2191	-5272
▁8521	-5273
▁easi	-5274
▁half	-5275
▁business	-5276
isci	-5277
tiva	-5278
▁380	-5279
▁518	-5280
▁Vai	-5281
arian	-5282
ppure	-5283
verso	-5284
▁Lind	-5285
ettato	-5286
▁Europe	-5287
▁grandi	-5288
▁promesso	-5289
▁Imp	-5290
▁sorr	-5291
▁alibi	-5292
▁forgi	-5293
▁chitar	-5294
▁emozion	-5295
136	-5296
▁605	-5297
▁Linda	-5298
▁fiero	-5299
▁punto	-5300
▁movies	-5301
▁Ric	-5302
▁7405	-5303
▁doub	-5304
▁Questi	-5305
▁nascos	-5306
tory	-5307
▁mele	-5308
▁peso	-5309
▁andrò	-5310
▁plays	-5311
▁sogno	-5312
▁ascoltare	-5313
▁scrivania	-5314
365	-5315
otta	-5316
▁379	-5317
▁881	-5318
▁len	-5319
▁2644	-5320
▁ambi	-5321
▁known	-5322
▁richi	-5323
▁marito	-5324
▁walking	-5325
rica	-5326
▁886	-5327
▁url	-5328
hanno	-5329
▁circa	-5330
▁tradu	-5331
▁thirsty	-5332
▁preferita	-5333
ants	-5334
reign	-5335
▁2547	-5336
▁2713	-5337
▁7391	-5338
▁diverse	-5339
▁entrambe	-5340
▁orologio	-5341
bbed	-5342
▁Tod	-5343
▁gun	-5344
ficio	-5345
▁brave	-5346
▁fanno	-5347
▁pisto	-5348
▁dizion	-5349
▁venendo	-5350
▁visitato	-5351
!"	-5352
alb	-5353
▁823	-5354
atelo	-5355
▁char	-5356
▁vera	-5357
icious	-5358
▁colpe	-5359
▁diction	-5360
146	-5361
160	-5362
328	-5363
▁Bu	-5364
▁425	-5365
▁fly	-5366
▁rul	-5367
▁2891	-5368
▁3821	-5369
▁Today	-5370
▁pubbl	-5371
▁sanno	-5372
▁rumore	-5373
▁Conosce	-5374
▁scacchi	-5375
...	-5376
aken	-5377
▁Hey	-5378
▁potuto	-5379
▁decisione	-5380
▁listening	-5381
▁orgoglioso	-5382
347	-5383
▁461	-5384
▁628	-5385
▁eats	-5386
▁socc	-5387
▁spor	-5388
▁artic	-5389
▁belong	-5390
▁ferito	-5391
▁singing	-5392
▁guardato	-5393
dom	-5394
rup	-5395
▁2451	-5396
▁cine	-5397
▁Stanno	-5398
▁guitar	-5399
▁actually	-5400
▁satisfied	-5401
ied	-5402
▁994	-5403
ctive	-5404
▁3919	-5405
▁7406	-5406
▁cats	-5407
▁comb	-5408
▁cura	-5409
▁dirò	-5410
▁borsa	-5411
▁taught	-5412
▁husband	-5413
148	-5414
erei	-5415
tail	-5416
▁863	-5417
▁901	-5418
▁fur	-5419
▁1138	-5420
▁senso	-5421
▁People	-5422
▁guilty	-5423
▁costrui	-5424
▁pensando	-5425
itto	-5426
▁138	-5427
▁2541	-5428
▁8526	-5429
▁mezza	-5430
▁Andate	-5431
▁alcune	-5432
▁capito	-5433
▁incolp	-5434
▁ridere	-5435
▁foreign	-5436
▁1001	-5437
▁fing	-5438
▁broken	-5439
▁hambur	-5440
▁showed	-5441
▁piacerà	-5442
▁vacation	-5443
369	-5444
▁195	-5445
▁946	-5446
▁973	-5447
▁post	-5448
▁salt	-5449
estate	-5450
▁credo	-5451
▁Dovrei	-5452
▁217	-5453
▁954	-5454
▁Dim	-5455
▁ecc	-5456
▁calm	-5457
▁gioca	-5458
uty	-5459
odka	-5460
▁185	-5461
▁ice	-5462
▁cross	-5463
▁sbagli	-5464
▁coraggi	-5465
▁piccola	-5466
▁diventato	-5467
▁fortunato	-5468
▁appreciate	-5469
ppe	-5470
▁Sia	-5471
▁whe	-5472
▁wake	-5473
▁fired	-5474
▁minute	-5475
▁semplicemente	-5476
rat	-5477
▁642	-5478
▁cand	-5479
▁capo	-5480
▁nato	-5481
▁aiuti	-5482
▁driver	-5483
▁sentir	-5484
▁ammesso	-5485
▁medicine	-5486
▁ju	-5487
road	-5488
tali	-5489
▁cour	-5490
▁vodka	-5491
▁cinema	-5492
▁report	-5493
▁concerto	-5494
▁recently	-5495
▁portatile	-5496
▁velocemente	-5497
137	-5498
able	-5499
▁cake	-5500
▁alcuna	-5501
▁Algeria	-5502
▁concert	-5503
▁tedesco	-5504
▁vacanza	-5505
▁utilizzare	-5506
▁155	-5507
▁568	-5508
▁3151	-5509
▁gioc	-5510
▁Queste	-5511
▁leggendo	-5512
▁ringrazi	-5513
129	-5514
360	-5515
ste	-5516
fica	-5517
▁349	-5518
▁cous	-5519
▁form	-5520
▁control	-5521
▁staying	-5522
▁consigli	-5523
▁180	-5524
▁359	-5525
▁395	-5526
▁2190	-5527
▁mezzo	-5528
▁negli	-5529
▁single	-5530
▁opinione	-5531
▁software	-5532
▁imparando	-5533
▁situazione	-5534
fa	-5535
▁371	-5536
▁estate	-5537
▁camminare	-5538
325	-5539
pagn	-5540
▁630	-5541
▁864	-5542
▁2646	-5543
▁Most	-5544
pected	-5545
▁chiuso	-5546
▁conten	-5547
▁decision	-5548
lt	-5549
▁Ai	-5550
dore	-5551
▁Acc	-5552
▁det	-5553
▁vede	-5554
ficato	-5555
▁alive	-5556
▁address	-5557
▁eravate	-5558
465	-5559
▁167	-5560
▁nuot	-5561
▁appun	-5562
▁tazza	-5563
ster	-5564
▁861	-5565
▁nem	-5566
▁sle	-5567
unica	-5568
▁8477	-5569
▁quit	-5570
▁fault	-5571
▁appartamento	-5572
usto	-5573
▁365	-5574
▁pal	-5575
▁fate	-5576
▁tocc	-5577
▁smesso	-5578
▁danzare	-5579
▁affamato	-5580
▁innocent	-5581
▁267	-5582
▁418	-5583
▁fai	-5584
▁gets	-5585
▁Voleva	-5586
▁fishing	-5587
469	-5588
▁Amm	-5589
▁lad	-5590
▁pig	-5591
▁val	-5592
▁1161	-5593
▁shop	-5594
▁39096	-5595
▁pasta	-5596
▁intend	-5597
▁months	-5598
▁voluto	-5599
▁calling	-5600
168	-5601
342	-5602
▁Rom	-5603
▁Porta	-5604
▁Jackson	-5605
▁mandato	-5606
▁ritorno	-5607
▁special	-5608
▁telling	-5609
▁aiutarmi	-5610
▁avvocato	-5611
word	-5612
▁558	-5613
▁ene	-5614
▁gia	-5615
▁Ogni	-5616
▁Rius	-5617
▁Show	-5618
▁front	-5619
▁rules	-5620
▁sposata	-5621
▁aiutarlo	-5622
▁sleeping	-5623
▁situation	-5624
gen	-5625
▁846	-5626
▁Ver	-5627
unico	-5628
▁1157	-5629
▁Torn	-5630
▁fiss	-5631
▁energ	-5632
▁visti	-5633
▁aiuterà	-5634
▁Dovremmo	-5635
▁surprise	-5636
▁130	-5637
▁538	-5638
▁736	-5639
▁737	-5640
▁1003	-5641
▁2648	-5642
▁luce	-5643
▁smile	-5644
▁sorri	-5645
irò	-5646
oken	-5647
▁385	-5648
▁435	-5649
▁619	-5650
▁782	-5651
▁Didn	-5652
▁arrivata	-5653
amma	-5654
▁659	-5655
▁893	-5656
▁2954	-5657
▁yell	-5658
▁Quali	-5659
▁dalle	-5660
len	-5661
▁389	-5662
▁503	-5663
▁2243	-5664
▁3183	-5665
▁Arab	-5666
▁Scri	-5667
▁sacco	-5668
▁regole	-5669
▁sometimes	-5670
key	-5671
terò	-5672
▁Ind	-5673
ggere	-5674
▁brutto	-5675
▁scelta	-5676
▁anziano	-5677
time	-5678
▁508	-5679
▁754	-5680
▁2706	-5681
▁4494	-5682
▁7383	-5683
▁giro	-5684
▁beach	-5685
▁detta	-5686
▁sette	-5687
▁organi	-5688
▁parano	-5689
▁accanto	-5690
▁complic	-5691
▁dancing	-5692
▁visitare	-5693
rig	-5694
▁874	-5695
▁Alc	-5696
▁inst	-5697
▁39033	-5698
▁scher	-5699
▁player	-5700
▁ragazze	-5701
▁stupida	-5702
▁success	-5703
▁ordinato	-5704
▁perfetto	-5705
università	-5706
167	-5707
▁497	-5708
▁695	-5709
▁Ved	-5710
▁guai	-5711
estero	-5712
▁washed	-5713
130	-5714
enty	-5715
▁1073	-5716
▁1177	-5717
▁2013.	-5718
▁dissi	-5719
▁verde	-5720
▁descri	-5721
▁correre	-5722
▁qualunque	-5723
149	-5724
▁512	-5725
▁629	-5726
▁1081	-5727
▁animali	-5728
▁aspetto	-5729
▁princip	-5730
▁several	-5731
▁watched	-5732
isa	-5733
▁2892	-5734
▁Stud	-5735
▁lazy	-5736
▁mesi	-5737
▁neppure	-5738
▁younger	-5739
▁tradurre	-5740
▁innamorato	-5741
▁775	-5742
▁abroad	-5743
▁future	-5744
▁obvious	-5745
▁abbandon	-5746
▁conoscere	-5747
▁hamburger	-5748
▁dictionary	-5749
▁spaventato	-5750
▁6531	-5751
▁furi	-5752
▁voice	-5753
▁suffici	-5754
▁returned	-5755
▁dizionario	-5756
▁Dica	-5757
▁bath	-5758
▁fres	-5759
▁join	-5760
▁passed	-5761
▁invitato	-5762
▁scordato	-5763
▁878	-5764
▁eng	-5765
▁fool	-5766
albero	-5767
▁accus	-5768
▁assun	-5769
▁colore	-5770
▁comprò	-5771
139	-5772
▁178	-5773
▁1006	-5774
▁grew	-5775
▁soccer	-5776
▁dormito	-5777
▁medicina	-5778
▁191	-5779
▁674	-5780
▁905	-5781
▁Sal	-5782
▁7400	-5783
▁orig	-5784
▁39186	-5785
▁ammal	-5786
▁chess	-5787
▁arrive	-5788
▁averlo	-5789
▁decide	-5790
▁during	-5791
▁experi	-5792
▁ubriaco	-5793
▁vederlo	-5794
▁dormendo	-5795
▁planning	-5796
▁spiaggia	-5797
▁fidanzata	-5798
▁incidente	-5799
ney	-5800
rown	-5801
terà	-5802
▁Ini	-5803
▁flu	-5804
▁3184	-5805
ggiata	-5806
▁Mangi	-5807
▁noise	-5808
▁women	-5809
▁futuro	-5810
▁chitarra	-5811
▁piaciuta	-5812
▁lentamente	-5813
rage	-5814
▁141	-5815
▁308	-5816
▁370	-5817
▁1002	-5818
▁choice	-5819
▁neighbor	-5820
▁rapporto	-5821
▁recognize	-5822
138	-5823
147	-5824
ull	-5825
ries	-5826
ussi	-5827
▁347	-5828
▁exci	-5829
▁firm	-5830
atrice	-5831
▁girls	-5832
▁pieno	-5833
▁waste	-5834
▁chiami	-5835
▁sicure	-5836
▁happens	-5837
▁perfetta	-5838
▁Sw	-5839
bergo	-5840
▁otten	-5841
▁prest	-5842
▁aggres	-5843
mina	-5844
▁mic	-5845
▁abbra	-5846
▁mente	-5847
▁lament	-5848
▁Eravamo	-5849
▁conoscer	-5850
▁giocando	-5851
rd	-5852
bit	-5853
eti	-5854
ung	-5855
▁popular	-5856
▁saranno	-5857
▁sé	-5858
▁615	-5859
▁abi	-5860
erano	-5861
resso	-5862
▁1028	-5863
▁7444	-5864
▁imag	-5865
▁text	-5866
▁belle	-5867
▁silen	-5868
edificio	-5869
▁telefon	-5870
▁560	-5871
▁road	-5872
▁compa	-5873
▁frust	-5874
▁influ	-5875
▁ricca	-5876
▁bianco	-5877
▁welcome	-5878
▁vorrebbe	-5879
▁infastidi	-5880
329	-5881
cal	-5882
oca	-5883
▁405	-5884
▁expl	-5885
▁gatta	-5886
▁matri	-5887
▁quiet	-5888
▁taken	-5889
▁apples	-5890
▁pronti	-5891
incidente	-5892
▁aspettato	-5893
aged	-5894
▁gar	-5895
▁ski	-5896
▁4504	-5897
▁7396	-5898
▁colp	-5899
▁data	-5900
▁tale	-5901
▁Those	-5902
▁least	-5903
▁estrem	-5904
▁hiding	-5905
▁password	-5906
vò	-5907
ille	-5908
mail	-5909
▁1887	-5910
▁reti	-5911
▁39144	-5912
▁chair	-5913
▁albero	-5914
▁assist	-5915
165	-5916
169	-5917
▁ty	-5918
▁664	-5919
ccasi	-5920
▁1191	-5921
▁darò	-5922
ession	-5923
▁Stava	-5924
▁blind	-5925
▁guess	-5926
▁viste	-5927
▁pioggia	-5928
▁volevano	-5929
▁Spa	-5930
▁ese	-5931
▁8527	-5932
arsene	-5933
▁10143	-5934
▁sense	-5935
into	-5936
▁2235	-5937
▁baby	-5938
▁liber	-5939
▁corona	-5940
▁notizia	-5941
▁notizie	-5942
▁running	-5943
▁risposto	-5944
way	-5945
▁Pa	-5946
▁756	-5947
▁jok	-5948
▁pul	-5949
atico	-5950
▁Ascol	-5951
▁possa	-5952
▁prese	-5953
▁potrei	-5954
▁pistola	-5955
▁sappiamo	-5956
▁interessata	-5957
▁informazioni	-5958
ew	-5959
ones	-5960
▁Pri	-5961
▁fal	-5962
ranno	-5963
▁7390	-5964
▁poco	-5965
▁spre	-5966
▁39093	-5967
▁color	-5968
▁parlo	-5969
▁frutta	-5970
▁parche	-5971
▁Italian	-5972
▁college	-5973
▁contrib	-5974
usso	-5975
▁Cai	-5976
▁hop	-5977
ughed	-5978
▁2951	-5979
▁prac	-5980
▁soci	-5981
▁fiera	-5982
ination	-5983
▁extrem	-5984
▁excited	-5985
▁laughed	-5986
▁protegger	-5987
▁pericoloso	-5988
▁estremamente	-5989
uale	-5990
▁Cap	-5991
▁Mar	-5992
anten	-5993
clock	-5994
porto	-5995
▁poes	-5996
▁denti	-5997
▁gamba	-5998
▁doveva	-5999
ggiungere	-6000
▁157	-6001
▁video	-6002
▁risult	-6003
▁temper	-6004
▁secondo	-6005
▁received	-6006
ower	-6007
▁289	-6008
▁455	-6009
▁843	-6010
ativo	-6011
▁2361	-6012
▁4498	-6013
▁8528	-6014
▁nave	-6015
▁39081	-6016
▁Andrò	-6017
▁Sapevo	-6018
▁partic	-6019
▁648	-6020
▁Har	-6021
estim	-6022
rizzo	-6023
▁mare	-6024
▁Cairo	-6025
▁Potrei	-6026
▁stesse	-6027
▁giovani	-6028
ambi	-6029
▁307	-6030
atela	-6031
▁1094	-6032
▁2549	-6033
▁sale	-6034
▁spagn	-6035
▁trent	-6036
▁common	-6037
▁infelice	-6038
▁ev	-6039
▁127	-6040
▁265	-6041
▁foss	-6042
▁Riesce	-6043
▁cheese	-6044
▁spoken	-6045
▁ticket	-6046
▁lettere	-6047
▁program	-6048
▁prem	-6049
▁matem	-6050
▁poter	-6051
▁biglietto	-6052
▁questione	-6053
▁160	-6054
▁889	-6055
▁cen	-6056
▁2545	-6057
▁2647	-6058
▁self	-6059
▁point	-6060
▁aperta	-6061
▁comune	-6062
▁cooking	-6063
▁dressed	-6064
▁extremely	-6065
▁170	-6066
▁393	-6067
▁697	-6068
cegli	-6069
▁2681	-6070
▁3154	-6071
▁Sembri	-6072
▁conver	-6073
▁identi	-6074
ps	-6075
gged	-6076
▁862	-6077
▁Vado	-6078
▁kitc	-6079
▁assol	-6080
▁kitchen	-6081
▁sitting	-6082
▁Potresti	-6083
▁pensione	-6084
▁raramente	-6085
▁completely	-6086
omb	-6087
▁175	-6088
▁4666	-6089
▁bill	-6090
▁burn	-6091
▁Dammi	-6092
▁hired	-6093
▁moved	-6094
▁geloso	-6095
▁venduto	-6096
▁683	-6097
▁788	-6098
▁Tan	-6099
▁1015	-6100
▁39053	-6101
▁capit	-6102
▁pover	-6103
▁batter	-6104
▁fretta	-6105
▁rilass	-6106
▁followed	-6107
▁viaggiare	-6108
▁fotografica	-6109
ait	-6110
ror	-6111
▁Ce	-6112
niti	-6113
ross	-6114
▁726	-6115
▁827	-6116
▁4503	-6117
▁8478	-6118
▁exce	-6119
▁manc	-6120
▁porti	-6121
▁relax	-6122
aco	-6123
ames	-6124
ches	-6125
omed	-6126
▁454	-6127
▁2986	-6128
▁3403	-6129
▁weak	-6130
▁awake	-6131
▁causa	-6132
▁credi	-6133
▁stuff	-6134
▁pensato	-6135
Wh	-6136
ings	-6137
▁Spe	-6138
▁cla	-6139
▁1053	-6140
▁2542	-6141
▁side	-6142
▁piena	-6143
▁slept	-6144
▁suona	-6145
▁discuss	-6146
▁letters	-6147
▁pescare	-6148
▁andarsene	-6149
dred	-6150
▁222	-6151
▁409	-6152
▁476	-6153
▁489	-6154
▁muo	-6155
▁ovv	-6156
▁yen	-6157
urder	-6158
▁Jane	-6159
▁joke	-6160
zionale	-6161
▁airport	-6162
▁contact	-6163
▁maggior	-6164
▁rispetto	-6165
▁attravers	-6166
▁passaggio	-6167
▁662	-6168
▁841	-6169
▁Ama	-6170
▁2552	-6171
▁3102	-6172
▁dest	-6173
▁diverso	-6174
▁ricordo	-6175
▁paziente	-6176
▁progetto	-6177
rog	-6178
tile	-6179
▁908	-6180
anish	-6181
gente	-6182
▁2193	-6183
▁2611	-6184
▁inse	-6185
▁muse	-6186
▁raff	-6187
▁bocca	-6188
▁priva	-6189
▁drinks	-6190
▁online	-6191
▁fermare	-6192
▁indossa	-6193
No	-6194
▁793	-6195
▁1155	-6196
▁5756	-6197
▁impa	-6198
▁cielo	-6199
▁peggio	-6200
▁confess	-6201
▁recente	-6202
▁innocente	-6203
▁orgogliosa	-6204
135	-6205
145	-6206
▁205	-6207
▁609	-6208
▁Ris	-6209
▁dev	-6210
▁2241	-6211
▁morì	-6212
▁sore	-6213
▁clear	-6214
▁Spanish	-6215
▁mentendo	-6216
ias	-6217
obe	-6218
pen	-6219
▁sì	-6220
▁732	-6221
▁poi	-6222
▁liti	-6223
▁Stati	-6224
▁Mangia	-6225
▁antici	-6226
▁walked	-6227
▁American	-6228
▁Vogliamo	-6229
▁partecip	-6230
▁colpevole	-6231
alle	-6232
zzare	-6233
▁2974	-6234
▁3133	-6235
▁date	-6236
▁moun	-6237
▁soup	-6238
▁villa	-6239
oker	-6240
teen	-6241
▁135	-6242
▁720	-6243
▁Both	-6244
▁boss	-6245
essere	-6246
▁worth	-6247
▁potato	-6248
▁public	-6249
of	-6250
mar	-6251
ordi	-6252
▁120	-6253
virus	-6254
▁Pres	-6255
▁ship	-6256
▁Arabic	-6257
▁fright	-6258
▁malata	-6259
▁trenta	-6260
erd	-6261
amica	-6262
▁past	-6263
▁famoso	-6264
▁univers	-6265
▁immediately	-6266
pend	-6267
▁517	-6268
▁Ten	-6269
▁3732	-6270
▁Well	-6271
▁appo	-6272
▁ille	-6273
▁line	-6274
▁spee	-6275
▁22034	-6276
▁39044	-6277
▁mouth	-6278
▁somewhere	-6279
gò	-6280
▁Ni	-6281
▁os	-6282
▁505	-6283
▁896	-6284
▁glo	-6285
▁str	-6286
▁inves	-6287
▁venti	-6288
▁murder	-6289
▁allowed	-6290
▁bambina	-6291
▁822	-6292
inata	-6293
▁Vive	-6294
▁norm	-6295
▁guida	-6296
▁poker	-6297
▁twice	-6298
▁lasciò	-6299
▁vicina	-6300
▁nessuna	-6301
▁matematica	-6302
▁nascondendo	-6303
inf	-6304
▁215	-6305
▁399	-6306
▁1166	-6307
▁vinc	-6308
umento	-6309
▁Chied	-6310
▁betra	-6311
▁Quindi	-6312
▁result	-6313
▁threat	-6314
▁hundred	-6315
▁los	-6316
▁7385	-6317
▁Legg	-6318
▁jazz	-6319
▁posi	-6320
▁term	-6321
▁amava	-6322
▁favor	-6323
▁newsp	-6324
▁using	-6325
▁veget	-6326
▁assomi	-6327
▁slowly	-6328
▁davanti	-6329
▁driving	-6330
▁project	-6331
▁funziona	-6332
▁712	-6333
▁mid	-6334
zioso	-6335
ettila	-6336
perate	-6337
▁along	-6338
▁ripos	-6339
▁teeth	-6340
▁benven	-6341
▁morosa	-6342
▁avverti	-6343
▁lezione	-6344
▁ricorda	-6345
▁risolvere	-6346
▁preoccupate	-6347
▁249	-6348
▁346	-6349
▁733	-6350
▁6536	-6351
▁7392	-6352
▁7398	-6353
▁built	-6354
▁frequ	-6355
▁detail	-6356
▁animals	-6357
uoco	-6358
▁costa	-6359
▁mamma	-6360
▁fidare	-6361
eroporto	-6362
▁baciato	-6363
▁arrivare	-6364
▁riparare	-6365
▁impressed	-6366
▁Tr	-6367
▁cug	-6368
▁1182	-6369
▁2044	-6370
▁Vada	-6371
▁floor	-6372
▁survi	-6373
▁pronte	-6374
utamente	-6375
▁impossible	-6376
▁embarrassed	-6377
cu	-6378
aps	-6379
cite	-6380
▁410	-6381
▁536	-6382
▁pap	-6383
▁2272	-6384
▁2851	-6385
▁Comp	-6386
▁cult	-6387
▁earth	-6388
▁libera	-6389
▁piatti	-6390
▁seduto	-6391
perienza	-6392
▁materia	-6393
▁responsa	-6394
▁insegnato	-6395
▁televisione	-6396
set	-6397
assa	-6398
orri	-6399
▁nero	-6400
▁corso	-6401
▁fratelli	-6402
▁depressed	-6403
bby	-6404
tice	-6405
▁551	-6406
▁1069	-6407
▁2254	-6408
▁Bill	-6409
▁dello	-6410
▁Datemi	-6411
▁denied	-6412
▁sorriso	-6413
▁support	-6414
▁succedendo	-6415
▁controllare	-6416
▁849	-6417
▁867	-6418
▁Isn	-6419
▁Jim	-6420
▁cod	-6421
▁giù	-6422
▁2642	-6423
▁2645	-6424
▁28356	-6425
▁39190	-6426
▁Avevo	-6427
▁Credo	-6428
▁Canada	-6429
▁doccia	-6430
▁sports	-6431
▁accepted	-6432
sh	-6433
oned	-6434
vato	-6435
▁698	-6436
▁967	-6437
▁Ent	-6438
▁Turn	-6439
▁agli	-6440
▁bugi	-6441
▁stri	-6442
▁11874	-6443
▁22182	-6444
▁irrit	-6445
▁lunga	-6446
▁socia	-6447
▁onesto	-6448
▁andiamo	-6449
▁finally	-6450
▁anywhere	-6451
▁carefully	-6452
aked	-6453
▁cie	-6454
▁4203	-6455
cciato	-6456
▁Guarda	-6457
▁gruppo	-6458
▁scream	-6459
▁concent	-6460
▁forgive	-6461
▁raining	-6462
temp	-6463
▁179	-6464
omani	-6465
▁2276	-6466
▁2823	-6467
▁9072	-6468
▁mili	-6469
▁viss	-6470
▁vote	-6471
▁11721	-6472
▁doubt	-6473
▁human	-6474
▁Italia	-6475
▁bridge	-6476
▁trascorso	-6477
▁coronavirus	-6478
gel	-6479
lled	-6480
▁136	-6481
▁259	-6482
▁678	-6483
▁ara	-6484
olato	-6485
tagna	-6486
▁1163	-6487
▁5283	-6488
▁7382	-6489
▁paio	-6490
▁shut	-6491
stairs	-6492
▁39072	-6493
▁dolore	-6494
▁Conosco	-6495
▁vendere	-6496
▁510	-6497
▁685	-6498
▁2554	-6499
▁vali	-6500
▁manten	-6501
▁scelto	-6502
▁raggiun	-6503
▁explained	-6504
▁happening	-6505
ls	-6506
duce	-6507
▁Tra	-6508
▁hol	-6509
▁sky	-6510
monio	-6511
▁4204	-6512
▁dirà	-6513
▁wood	-6514
▁49801	-6515
▁China	-6516
▁begin	-6517
▁takes	-6518
▁smetta	-6519
▁competi	-6520
▁rimasto	-6521
ade	-6522
men	-6523
▁148	-6524
▁309	-6525
▁vuo	-6526
▁1071	-6527
▁5753	-6528
▁mise	-6529
▁group	-6530
▁itali	-6531
▁worse	-6532
▁brutta	-6533
▁costoso	-6534
▁silenzio	-6535
my	-6536
▁169	-6537
▁460	-6538
▁679	-6539
olute	-6540
table	-6541
▁2584	-6542
▁Only	-6543
▁39076	-6544
▁blood	-6545
▁moder	-6546
▁solve	-6547
▁carina	-6548
▁devono	-6549
▁osserv	-6550
▁speech	-6551
▁Twitter	-6552
▁passare	-6553
ala	-6554
inò	-6555
unt	-6556
voli	-6557
▁esa	-6558
▁1010	-6559
▁Cina	-6560
▁caus	-6561
▁fill	-6562
▁meri	-6563
▁Vieni	-6564
▁seven	-6565
bor	-6566
orti	-6567
tura	-6568
▁Ben	-6569
▁wed	-6570
▁body	-6571
▁fede	-6572
▁10151	-6573
▁pessim	-6574
▁annoyed	-6575
▁pictures	-6576
▁insegnare	-6577
emp	-6578
▁542	-6579
▁784	-6580
▁982	-6581
▁ado	-6582
titui	-6583
▁1160	-6584
▁Read	-6585
▁mina	-6586
mother	-6587
▁39183	-6588
▁prove	-6589
▁pianto	-6590
▁singer	-6591
▁wedding	-6592
▁aiutarci	-6593
▁brothers	-6594
▁laughing	-6595
▁somebody	-6596
▁formaggio	-6597
▁219	-6598
▁458	-6599
▁2953	-6600
▁8531	-6601
▁Rome	-6602
▁deep	-6603
▁dici	-6604
▁quar	-6605
▁shar	-6606
▁capitato	-6607
▁giornale	-6608
▁pericolo	-6609
▁spagnolo	-6610
ies	-6611
arda	-6612
ondo	-6613
▁Fai	-6614
▁set	-6615
▁band	-6616
▁coll	-6617
▁fore	-6618
▁feste	-6619
▁fuoco	-6620
▁course	-6621
▁Sembrate	-6622
▁cantante	-6623
▁feelings	-6624
▁painting	-6625
arch	-6626
cono	-6627
pose	-6628
void	-6629
▁748	-6630
▁dif	-6631
▁idi	-6632
▁2244	-6633
▁vidi	-6634
▁warm	-6635
▁disco	-6636
▁dirgli	-6637
▁shower	-6638
▁vivono	-6639
▁sveglia	-6640
▁annoying	-6641
ange	-6642
▁368	-6643
▁obi	-6644
▁coat	-6645
ational	-6646
▁alcuni	-6647
▁avesse	-6648
▁vissuto	-6649
▁wonderful	-6650
bul	-6651
chio	-6652
erla	-6653
rata	-6654
▁402	-6655
▁746	-6656
▁844	-6657
▁923	-6658
▁944	-6659
▁Beh	-6660
▁Ber	-6661
▁bru	-6662
▁1180	-6663
▁2872	-6664
▁8691	-6665
▁8694	-6666
▁land	-6667
▁nata	-6668
azione	-6669
▁amore	-6670
▁ponte	-6671
▁sente	-6672
▁mettere	-6673
▁migliori	-6674
▁popolare	-6675
▁riusciamo	-6676
▁innamorata	-6677
leb	-6678
saka	-6679
▁129	-6680
▁sea	-6681
▁vai	-6682
ments	-6683
▁1885	-6684
etterà	-6685
▁Avrei	-6686
▁buone	-6687
▁affari	-6688
▁finché	-6689
▁native	-6690
▁regret	-6691
▁handsome	-6692
▁pubblico	-6693
▁Ro	-6694
viamo	-6695
▁1096	-6696
▁Arri	-6697
▁Ieri	-6698
▁poem	-6699
▁quali	-6700
▁boring	-6701
▁mangio	-6702
▁scherz	-6703
▁deserve	-6704
▁privacy	-6705
▁aiutarli	-6706
▁incontra	-6707
▁matrimonio	-6708
▁Eri	-6709
▁vot	-6710
forte	-6711
vento	-6712
▁2822	-6713
▁3171	-6714
▁7741	-6715
▁Wait	-6716
▁dying	-6717
▁means	-6718
▁share	-6719
▁terra	-6720
▁cominc	-6721
▁orario	-6722
▁vecchi	-6723
▁Preferi	-6724
▁account	-6725
▁impossibile	-6726
▁professoressa	-6727
idio	-6728
▁904	-6729
▁966	-6730
▁Dav	-6731
▁cio	-6732
epoca	-6733
sible	-6734
▁1128	-6735
▁1178	-6736
▁nove	-6737
▁cried	-6738
▁esemp	-6739
▁ideas	-6740
▁separ	-6741
▁aprire	-6742
dic	-6743
ager	-6744
▁339	-6745
▁3822	-6746
▁7394	-6747
▁serv	-6748
▁stup	-6749
▁Osaka	-6750
▁named	-6751
▁alzato	-6752
▁banana	-6753
▁commit	-6754
▁superi	-6755
▁answered	-6756
▁necessary	-6757
▁um	-6758
▁438	-6759
▁850	-6760
zzata	-6761
▁2873	-6762
▁2952	-6763
▁3131	-6764
▁3738	-6765
▁disg	-6766
▁39143	-6767
▁rovin	-6768
▁contra	-6769
▁polizi	-6770
▁sangue	-6771
▁subito	-6772
▁Lasciate	-6773
▁2641	-6774
▁Odia	-6775
▁coin	-6776
▁39182	-6777
▁exper	-6778
▁sugger	-6779
ccasione	-6780
ettetela	-6781
▁whether	-6782
▁continuato	-6783
▁experience	-6784
pol	-6785
bita	-6786
vard	-6787
▁330	-6788
▁519	-6789
▁806	-6790
▁hom	-6791
▁1012	-6792
▁3121	-6793
▁4496	-6794
▁8011	-6795
▁Fate	-6796
▁kids	-6797
▁roba	-6798
▁11740	-6799
▁Riesci	-6800
▁easily	-6801
▁invite	-6802
▁telephone	-6803
▁sicuramente	-6804
astica	-6805
▁Russi	-6806
▁farei	-6807
▁afford	-6808
▁debole	-6809
▁nostre	-6810
▁confuso	-6811
▁Smettila	-6812
▁aiutarle	-6813
▁Something	-6814
cts	-6815
▁147	-6816
▁150	-6817
▁lit	-6818
ushed	-6819
▁3736	-6820
▁susp	-6821
▁39152	-6822
▁39156	-6823
▁39192	-6824
▁upset	-6825
▁asking	-6826
▁timido	-6827
pie	-6828
gioni	-6829
risse	-6830
▁5284	-6831
▁Even	-6832
▁idio	-6833
▁rese	-6834
▁sali	-6835
▁allora	-6836
▁dimost	-6837
▁figlie	-6838
▁simple	-6839
▁fossero	-6840
▁stanchi	-6841
▁riuscito	-6842
▁speranza	-6843
▁sentimenti	-6844
head	-6845
▁lan	-6846
▁1054	-6847
▁1895	-6848
▁3511	-6849
▁acqu	-6850
▁clos	-6851
▁gamb	-6852
▁lots	-6853
▁22183	-6854
▁Molti	-6855
▁accom	-6856
▁atten	-6857
▁trees	-6858
▁venga	-6859
▁Prefer	-6860
▁attend	-6861
▁butter	-6862
▁servono	-6863
▁fotografia	-6864
▁nascondere	-6865
colo	-6866
isca	-6867
▁427	-6868
rendi	-6869
stood	-6870
ounded	-6871
▁22552	-6872
▁celeb	-6873
▁fiore	-6874
▁shoot	-6875
▁choose	-6876
▁sfortun	-6877
▁absolute	-6878
▁cappotto	-6879
▁fidanzato	-6880
▁ga	-6881
arai	-6882
ichi	-6883
▁877	-6884
▁903	-6885
verno	-6886
▁1954	-6887
▁4984	-6888
▁note	-6889
▁segu	-6890
etterò	-6891
inning	-6892
▁assic	-6893
▁buoni	-6894
▁empty	-6895
▁destro	-6896
▁mangiò	-6897
▁winter	-6898
isamente	-6899
▁anticipo	-6900
▁teaching	-6901
▁uccidere	-6902
▁impegnati	-6903
▁probabile	-6904
af	-6905
ah	-6906
▁Exc	-6907
▁2406	-6908
▁grat	-6909
▁tota	-6910
▁idiot	-6911
▁testo	-6912
▁arriva	-6913
▁chiusa	-6914
▁fortuna	-6915
▁romanzo	-6916
imp	-6917
▁Co	-6918
▁360	-6919
▁870	-6920
▁sex	-6921
▁1005	-6922
ortare	-6923
▁22031	-6924
▁39141	-6925
▁corpo	-6926
▁speci	-6927
▁giusta	-6928
▁stolen	-6929
▁Russian	-6930
▁trovarla	-6931
▁finalmente	-6932
mili	-6933
▁833	-6934
▁luo	-6935
▁1025	-6936
▁2773	-6937
▁7494	-6938
▁8542	-6939
▁cute	-6940
▁farm	-6941
▁sogn	-6942
▁22033	-6943
▁39064	-6944
▁eight	-6945
▁fores	-6946
▁nello	-6947
▁scapp	-6948
▁vanno	-6949
▁positi	-6950
▁sembri	-6951
▁abituato	-6952
▁sembrano	-6953
▁Im	-6954
itta	-6955
eravi	-6956
▁2551	-6957
▁39094	-6958
▁maggio	-6959
▁pulire	-6960
▁richiam	-6961
▁iniziare	-6962
▁ospedale	-6963
coli	-6964
▁177	-6965
▁650	-6966
▁911	-6967
▁Col	-6968
▁dam	-6969
▁sui	-6970
▁tru	-6971
▁2360	-6972
▁3636	-6973
▁exha	-6974
▁idee	-6975
▁inde	-6976
▁prod	-6977
▁woke	-6978
▁nonna	-6979
▁ridic	-6980
▁discre	-6981
▁fastidi	-6982
▁trovata	-6983
▁occupati	-6984
▁sentivano	-6985
aff	-6986
erc	-6987
▁319	-6988
▁548	-6989
▁926	-6990
isero	-6991
▁norma	-6992
▁rived	-6993
▁sushi	-6994
▁Listen	-6995
▁annull	-6996
▁corret	-6997
▁trascor	-6998
▁discorso	-6999
▁rifiutato	-7000
eva	-7001
zing	-7002
▁875	-7003
▁ami	-7004
▁Sapp	-7005
▁Immag	-7006
▁Never	-7007
▁shirt	-7008
▁sulle	-7009
▁sappia	-7010
▁studio	-7011
▁morendo	-7012
▁teachers	-7013
▁frightened	-7014
ines	-7015
aches	-7016
▁1036	-7017
▁6439	-7018
▁Maria	-7019
▁Write	-7020
▁avvis	-7021
▁holid	-7022
▁persu	-7023
▁Excuse	-7024
▁Harvard	-7025
▁believed	-7026
▁709	-7027
ascin	-7028
ology	-7029
▁1056	-7030
▁1961	-7031
▁6210	-7032
▁boys	-7033
▁file	-7034
▁decor	-7035
▁trovò	-7036
▁Faccia	-7037
▁history	-7038
▁raccont	-7039
▁arrabbiati	-7040
▁continuare	-7041
ash	-7042
com	-7043
atte	-7044
derò	-7045
▁412	-7046
▁540	-7047
▁646	-7048
▁751	-7049
▁2271	-7050
▁2540	-7051
▁Send	-7052
▁repe	-7053
▁ottim	-7054
▁rotta	-7055
▁sounds	-7056
▁Potreste	-7057
▁sy	-7058
▁562	-7059
▁770	-7060
▁825	-7061
▁Eat	-7062
tingu	-7063
▁3343	-7064
▁Fece	-7065
▁buio	-7066
▁lend	-7067
▁rare	-7068
▁39106	-7069
▁optim	-7070
▁palla	-7071
▁normal	-7072
▁convinto	-7073
eter	-7074
form	-7075
ller	-7076
▁539	-7077
▁Suo	-7078
▁5292	-7079
▁deal	-7080
▁39091	-7081
▁green	-7082
▁nuove	-7083
▁dishes	-7084
▁govern	-7085
▁iniziò	-7086
▁chieder	-7087
▁trovarlo	-7088
▁conoscete	-7089
cra	-7090
ove	-7091
▁462	-7092
▁796	-7093
▁rom	-7094
▁1021	-7095
▁1951	-7096
▁4890	-7097
▁hang	-7098
▁memb	-7099
ultimo	-7100
▁39082	-7101
▁disag	-7102
▁stori	-7103
▁weird	-7104
artiene	-7105
▁entered	-7106
▁speciale	-7107
▁divertendo	-7108
▁passeggiata	-7109
prì	-7110
umor	-7111
▁707	-7112
▁Sat	-7113
▁rem	-7114
icato	-7115
▁1183	-7116
▁2582	-7117
▁3354	-7118
▁Apri	-7119
▁Berl	-7120
ustria	-7121
▁11722	-7122
▁tagli	-7123
▁consid	-7124
▁couple	-7125
▁disper	-7126
▁meravi	-7127
▁spazio	-7128
▁sembrare	-7129
ety	-7130
zell	-7131
▁ego	-7132
▁3824	-7133
▁6351	-7134
▁Semp	-7135
▁39153	-7136
▁dirty	-7137
▁enter	-7138
abbiamo	-7139
▁cambia	-7140
▁centro	-7141
▁market	-7142
▁barzell	-7143
Al	-7144
▁Nu	-7145
amal	-7146
▁719	-7147
▁Ass	-7148
▁riv	-7149
▁usc	-7150
nited	-7151
▁4495	-7152
▁nonno	-7153
▁sedia	-7154
▁alberi	-7155
▁advised	-7156
▁healthy	-7157
▁allergic	-7158
▁listened	-7159
▁punished	-7160
▁television	-7161
▁possibilità	-7162
acan	-7163
▁ske	-7164
ately	-7165
ulare	-7166
▁2663	-7167
▁2942	-7168
▁3506	-7169
▁7393	-7170
▁8713	-7171
▁admi	-7172
▁22030	-7173
▁39151	-7174
▁finita	-7175
▁rischi	-7176
▁capisce	-7177
▁nascosto	-7178
▁opportun	-7179
▁Smettetela	-7180
ji	-7181
▁Sor	-7182
▁1123	-7183
▁1127	-7184
▁1175	-7185
▁1671	-7186
▁Roma	-7187
▁fact	-7188
▁10696	-7189
▁11461	-7190
▁11544	-7191
▁Jamal	-7192
▁conne	-7193
▁tranne	-7194
▁Immagino	-7195
▁Riuscite	-7196
▁affamata	-7197
▁montagna	-7198
▁scherzando	-7199
▁assolutamente	-7200
hood	-7201
ogle	-7202
▁400	-7203
▁749	-7204
▁757	-7205
▁gas	-7206
icare	-7207
tific	-7208
▁1114	-7209
▁2556	-7210
▁3181	-7211
▁4983	-7212
▁7408	-7213
▁desi	-7214
▁otti	-7215
▁rock	-7216
ettivo	-7217
▁dirle	-7218
▁pazzo	-7219
▁reach	-7220
▁either	-7221
▁failed	-7222
▁patate	-7223
▁poison	-7224
▁Continu	-7225
▁diversi	-7226
▁succede	-7227
▁vacanze	-7228
aeroporto	-7229
▁prudente	-7230
avy	-7231
gent	-7232
orge	-7233
▁406	-7234
▁675	-7235
▁evi	-7236
cherà	-7237
eless	-7238
▁1027	-7239
▁3312	-7240
▁3826	-7241
▁3921	-7242
▁6438	-7243
▁Prom	-7244
▁remo	-7245
▁fatti	-7246
▁notic	-7247
▁potevo	-7248
atamente	-7249
orme	-7250
▁882	-7251
▁883	-7252
▁1841	-7253
▁2358	-7254
▁6444	-7255
▁8731	-7256
▁Life	-7257
▁avrà	-7258
▁fond	-7259
▁vers	-7260
▁39071	-7261
▁basso	-7262
▁dirmi	-7263
reddore	-7264
▁Venite	-7265
▁uccise	-7266
acanestro	-7267
▁document	-7268
▁forgotten	-7269
▁pianoforte	-7270
▁raffreddore	-7271
▁pallacanestro	-7272
▁'	-7273
ises	-7274
reed	-7275
▁727	-7276
▁787	-7277
▁834	-7278
▁Bob	-7279
▁obs	-7280
udere	-7281
ussia	-7282
▁1104	-7283
▁2941	-7284
▁4501	-7285
▁6898	-7286
▁7387	-7287
▁duro	-7288
▁sete	-7289
father	-7290
▁21113	-7291
▁given	-7292
▁piaccia	-7293
▁sparato	-7294
▁contatto	-7295
▁dimentic	-7296
▁indossare	-7297
▁cu	-7298
bles	-7299
▁902	-7300
argli	-7301
rated	-7302
▁1072	-7303
▁4887	-7304
▁rent	-7305
inando	-7306
▁39124	-7307
▁invol	-7308
▁piane	-7309
▁steal	-7310
sazione	-7311
▁Google	-7312
▁flower	-7313
▁pagina	-7314
▁scetti	-7315
inna	-7316
▁bell	-7317
▁metà	-7318
▁stom	-7319
▁39181	-7320
▁camic	-7321
▁power	-7322
▁village	-7323
▁comporta	-7324
▁dettagli	-7325
▁arrestato	-7326
▁Po	-7327
onna	-7328
uali	-7329
erale	-7330
▁2703	-7331
▁5994	-7332
▁imam	-7333
entire	-7334
▁saved	-7335
▁across	-7336
▁aiutata	-7337
▁sentendo	-7338
▁settimane	-7339
▁preoccupati	-7340
▁dà	-7341
bato	-7342
onde	-7343
▁142	-7344
▁608	-7345
▁cro	-7346
▁1158	-7347
▁2704	-7348
▁6276	-7349
▁7389	-7350
▁Date	-7351
▁hold	-7352
▁quei	-7353
▁39086	-7354
▁weeks	-7355
▁Taninna	-7356
▁suspect	-7357
▁scoperto	-7358
▁servizio	-7359
▁villaggio	-7360
▁differenza	-7361
zen	-7362
arte	-7363
▁432	-7364
urato	-7365
▁3172	-7366
▁pian	-7367
▁wind	-7368
▁18956	-7369
▁39043	-7370
▁spieg	-7371
▁deluso	-7372
▁discut	-7373
▁medico	-7374
▁recomm	-7375
▁smiled	-7376
▁sposati	-7377
▁passport	-7378
▁necessario	-7379
▁Cl	-7380
ucia	-7381
▁Sua	-7382
incia	-7383
▁1092	-7384
▁Andò	-7385
▁skep	-7386
▁tend	-7387
▁39041	-7388
▁After	-7389
▁aereo	-7390
▁farmi	-7391
▁piece	-7392
▁intern	-7393
▁passap	-7394
▁saremo	-7395
▁volere	-7396
▁farebbe	-7397
▁lezioni	-7398
▁vengono	-7399
▁spiegare	-7400
▁beginning	-7401
▁licenziato	-7402
▁ps	-7403
▁417	-7404
▁660	-7405
▁723	-7406
▁map	-7407
▁wet	-7408
▁2723	-7409
▁2856	-7410
▁2956	-7411
▁6901	-7412
▁guys	-7413
▁39101	-7414
▁fianco	-7415
▁Guardate	-7416
▁trasferi	-7417
▁ascoltando	-7418
What	-7419
▁22474	-7420
▁22554	-7421
▁rende	-7422
▁gelosa	-7423
▁studia	-7424
▁albergo	-7425
az	-7426
cto	-7427
dita	-7428
▁687	-7429
▁dem	-7430
▁1890	-7431
▁2742	-7432
▁7388	-7433
▁8479	-7434
▁fida	-7435
▁ghost	-7436
▁threw	-7437
▁tizio	-7438
▁usato	-7439
▁disapp	-7440
▁noticed	-7441
▁parlate	-7442
▁sorprend	-7443
▁cresciuto	-7444
▁appartiene	-7445
ache	-7446
ashi	-7447
sign	-7448
ancia	-7449
cente	-7450
▁2012	-7451
▁2701	-7452
▁6930	-7453
▁scom	-7454
▁58286	-7455
▁aiuta	-7456
▁talks	-7457
▁trova	-7458
▁vengo	-7459
▁faster	-7460
▁abandon	-7461
▁distingu	-7462
▁university	-7463
▁403	-7464
▁995	-7465
allen	-7466
▁bagn	-7467
▁22184	-7468
▁39056	-7469
▁spiega	-7470
▁cattivo	-7471
▁Vorrebbe	-7472
▁sarebbero	-7473
▁spaventata	-7474
umi	-7475
▁Fi	-7476
▁839	-7477
▁bev	-7478
▁3101	-7479
▁8010	-7480
▁Leon	-7481
▁bike	-7482
▁dess	-7483
▁seat	-7484
colate	-7485
▁cream	-7486
▁fixed	-7487
▁leader	-7488
▁facciamo	-7489
▁esperanto	-7490
els	-7491
onda	-7492
▁955	-7493
zzate	-7494
▁1022	-7495
▁1996	-7496
▁2553	-7497
▁5166	-7498
▁5985	-7499
▁7475	-7500
▁7737	-7501
▁beha	-7502
▁pace	-7503
giorno	-7504
▁David	-7505
▁carte	-7506
▁scrit	-7507
▁truck	-7508
▁Welcome	-7509
▁riuscivo	-7510
▁concerned	-7511
▁fortunata	-7512
▁skeptical	-7513
rand	-7514
▁327	-7515
▁467	-7516
▁470	-7517
▁717	-7518
▁835	-7519
▁Emi	-7520
▁ded	-7521
▁tie	-7522
▁1137	-7523
▁2562	-7524
▁3264	-7525
▁3818	-7526
▁Temo	-7527
▁duty	-7528
▁fair	-7529
▁reac	-7530
▁10451	-7531
▁39078	-7532
▁39184	-7533
▁motiv	-7534
▁ricer	-7535
▁stamp	-7536
▁Prendi	-7537
▁comport	-7538
▁aiutarti	-7539
▁disposto	-7540
▁meravigli	-7541
▁seriously	-7542
▁succederà	-7543
▁absolutely	-7544
▁grandmother	-7545
nic	-7546
onia	-7547
stan	-7548
▁1167	-7549
▁2006	-7550
▁6357	-7551
▁8513	-7552
ission	-7553
▁39052	-7554
▁39194	-7555
▁Dissi	-7556
▁chose	-7557
▁Guardi	-7558
▁aggiun	-7559
▁superiori	-7560
",	-7561
den	-7562
▁Ge	-7563
etch	-7564
▁1124	-7565
▁1136	-7566
▁1190	-7567
▁1543	-7568
▁5709	-7569
▁6571	-7570
▁Dopo	-7571
▁Make	-7572
▁Mike	-7573
▁Octo	-7574
grafia	-7575
▁siste	-7576
▁vergo	-7577
▁Russia	-7578
▁arrabb	-7579
▁grasso	-7580
▁ignore	-7581
▁lascia	-7582
▁planet	-7583
▁poesia	-7584
▁viaggi	-7585
▁Eravate	-7586
▁offered	-7587
▁sorelle	-7588
▁traffic	-7589
▁Vorresti	-7590
▁indirizzo	-7591
▁insegnanti	-7592
cio	-7593
▁Br	-7594
gers	-7595
▁647	-7596
▁unl	-7597
icked	-7598
▁1893	-7599
▁3023	-7600
▁4243	-7601
▁copy	-7602
▁link	-7603
▁matt	-7604
▁39090	-7605
▁luogo	-7606
▁Compra	-7607
▁cancel	-7608
▁quelli	-7609
▁tranqu	-7610
▁October	-7611
▁desider	-7612
▁dessert	-7613
licemente	-7614
▁Semplicemente	-7615
its	-7616
pore	-7617
▁700	-7618
▁ine	-7619
▁lon	-7620
cento	-7621
▁1013	-7622
▁1020	-7623
▁Tran	-7624
▁sito	-7625
▁tent	-7626
▁hobby	-7627
▁morti	-7628
▁absent	-7629
▁lavato	-7630
▁prezzi	-7631
▁taller	-7632
▁tenere	-7633
▁castello	-7634
▁riuscite	-7635
wa	-7636
atch	-7637
▁637	-7638
▁918	-7639
▁Mus	-7640
olata	-7641
perta	-7642
▁7397	-7643
▁8502	-7644
▁Chia	-7645
▁camp	-7646
▁cerc	-7647
▁39073	-7648
▁39154	-7649
▁avoid	-7650
▁attack	-7651
▁defini	-7652
▁strana	-7653
▁Sarebbe	-7654
▁Somebody	-7655
▁difference	-7656
vvi	-7657
dden	-7658
haps	-7659
▁329	-7660
▁499	-7661
▁919	-7662
▁Ehi	-7663
▁coo	-7664
▁2565	-7665
▁5784	-7666
▁7399	-7667
▁cham	-7668
▁huge	-7669
▁39111	-7670
▁amano	-7671
▁assum	-7672
▁chick	-7673
▁exist	-7674
▁spazz	-7675
▁raised	-7676
▁abbiate	-7677
▁ignored	-7678
▁pianeta	-7679
▁sembrate	-7680
▁attraverso	-7681
ciò	-7682
pre	-7683
,000	-7684
ciug	-7685
osco	-7686
▁128	-7687
▁767	-7688
▁Vivo	-7689
▁inve	-7690
▁heavy	-7691
▁Domani	-7692
▁guarda	-7693
▁ascolta	-7694
▁bevendo	-7695
▁unlucky	-7696
▁cominciò	-7697
▁sospetto	-7698
▁suonando	-7699
▁sbagliata	-7700
cr	-7701
ges	-7702
oko	-7703
oltà	-7704
▁688	-7705
▁Any	-7706
▁ash	-7707
▁inj	-7708
cherò	-7709
▁1179	-7710
▁2396	-7711
▁2844	-7712
▁3103	-7713
▁Gree	-7714
▁king	-7715
lingua	-7716
▁22433	-7717
▁breve	-7718
▁piant	-7719
▁memori	-7720
▁camicia	-7721
▁mercato	-7722
▁partito	-7723
▁sentita	-7724
▁trasfer	-7725
▁potatoes	-7726
▁soluzione	-7727
▁understood	-7728
derà	-7729
▁725	-7730
▁bal	-7731
▁eye	-7732
▁rap	-7733
▁rin	-7734
▁tir	-7735
▁3838	-7736
▁8086	-7737
▁mach	-7738
▁11121	-7739
▁11712	-7740
▁lista	-7741
▁posta	-7742
▁throw	-7743
▁States	-7744
▁castle	-7745
▁salvare	-7746
▁continue	-7747
▁decidere	-7748
▁cominciare	-7749
wers	-7750
▁2455	-7751
▁4011	-7752
▁5352	-7753
▁6702	-7754
▁nose	-7755
▁page	-7756
▁sopp	-7757
iscono	-7758
▁39104	-7759
▁drove	-7760
▁avanti	-7761
▁leaves	-7762
▁uscito	-7763
▁tornata	-7764
▁canadesi	-7765
▁interrup	-7766
▁promessa	-7767
▁arrabbiate	-7768
▁optimistic	-7769
ki	-7770
gan	-7771
ince	-7772
▁816	-7773
▁1008	-7774
▁1121	-7775
▁5717	-7776
▁odore	-7777
ufficio	-7778
▁inizia	-7779
▁coinvol	-7780
▁maggiore	-7781
▁arrivando	-7782
▁exhausted	-7783
▁newspaper	-7784
lies	-7785
▁Nel	-7786
▁Sol	-7787
▁neg	-7788
inate	-7789
▁1153	-7790
▁2575	-7791
▁3353	-7792
▁bott	-7793
▁hero	-7794
▁22452	-7795
▁calda	-7796
▁promo	-7797
▁provò	-7798
intment	-7799
▁quanti	-7800
▁riesci	-7801
▁capital	-7802
▁investi	-7803
▁uccelli	-7804
▁mountain	-7805
▁solitamente	-7806
tem	-7807
▁Sì	-7808
▁Wi	-7809
▁nos	-7810
▁1095	-7811
▁2574	-7812
▁3134	-7813
▁3737	-7814
▁fear	-7815
▁39051	-7816
▁Dimmi	-7817
▁solle	-7818
▁songs	-7819
▁destra	-7820
▁idiota	-7821
▁libertà	-7822
▁pesante	-7823
▁Vorreste	-7824
▁desperate	-7825
▁difficoltà	-7826
▁facilmente	-7827
imi	-7828
▁159	-7829
▁208	-7830
▁1019	-7831
▁1140	-7832
▁3825	-7833
▁4500	-7834
▁With	-7835
attere	-7836
▁ciocc	-7837
▁pausa	-7838
▁press	-7839
▁sharp	-7840
▁dovuta	-7841
▁locked	-7842
▁aiuterò	-7843
▁canzoni	-7844
▁certainly	-7845
▁arrabbiare	-7846
inta	-7847
▁665	-7848
▁997	-7849
▁Tur	-7850
ician	-7851
istra	-7852
▁2215	-7853
▁3378	-7854
▁7031	-7855
▁7474	-7856
▁grave	-7857
idabile	-7858
▁fronte	-7859
▁insult	-7860
▁metter	-7861
▁origin	-7862
▁sapore	-7863
▁details	-7864
▁pleased	-7865
▁seguire	-7866
▁mostrato	-7867
▁neighbors	-7868
▁recognized	-7869
ula	-7870
cket	-7871
orre	-7872
board	-7873
cceed	-7874
raged	-7875
▁1101	-7876
▁2622	-7877
▁4497	-7878
▁fred	-7879
▁requ	-7880
bility	-7881
▁guada	-7882
▁distra	-7883
▁moroso	-7884
▁polite	-7885
▁pulito	-7886
▁adopted	-7887
▁braccio	-7888
▁contare	-7889
▁esempio	-7890
▁ottobre	-7891
▁succeed	-7892
▁aiutarvi	-7893
▁risposte	-7894
▁traduzione	-7895
▁underestim	-7896
▁né	-7897
9998	-7898
rono	-7899
▁907	-7900
▁1074	-7901
▁6697	-7902
▁circ	-7903
▁rude	-7904
ellent	-7905
▁39063	-7906
▁Quell	-7907
▁worst	-7908
▁sisters	-7909
▁subject	-7910
▁arrivati	-7911
▁biglietti	-7912
bra	-7913
gale	-7914
▁2972	-7915
▁club	-7916
▁cond	-7917
▁lago	-7918
▁39206	-7919
▁Brazi	-7920
▁Satur	-7921
▁record	-7922
▁scegli	-7923
▁covered	-7924
▁purpose	-7925
▁following	-7926
▁giocatore	-7927
rew	-7928
utt	-7929
ense	-7930
▁3509	-7931
▁3862	-7932
▁6303	-7933
▁8858	-7934
▁Good	-7935
▁boat	-7936
▁rimp	-7937
▁naked	-7938
▁schia	-7939
▁chiamò	-7940
▁scrive	-7941
▁cleaned	-7942
▁diversa	-7943
▁intorno	-7944
▁sbaglia	-7945
▁suggest	-7946
▁excellent	-7947
▁dovrebbero	-7948
tai	-7949
▁spo	-7950
amion	-7951
irono	-7952
▁5710	-7953
▁5722	-7954
▁Scus	-7955
▁auth	-7956
▁fran	-7957
▁ghia	-7958
▁liar	-7959
▁avvic	-7960
▁certo	-7961
▁esame	-7962
▁grate	-7963
▁vento	-7964
▁buying	-7965
▁camion	-7966
▁commun	-7967
▁dicono	-7968
▁colpito	-7969
▁curioso	-7970
▁believes	-7971
▁commesso	-7972
▁divertito	-7973
▁soddisfatto	-7974
gui	-7975
ner	-7976
ruc	-7977
▁fif	-7978
▁1004	-7979
▁1046	-7980
▁2252	-7981
▁2486	-7982
▁3820	-7983
▁8514	-7984
▁Tony	-7985
▁anti	-7986
▁giud	-7987
▁Benven	-7988
▁cousin	-7989
▁eccell	-7990
▁guardi	-7991
▁potere	-7992
▁diritto	-7993
▁mentire	-7994
▁stanche	-7995
▁pranzato	-7996
▁solution	-7997
▁cellulare	-7998
▁invitation	-7999
ics	-8000
enze	-8001
▁742	-8002
▁ros	-8003
oured	-8004
ziato	-8005
▁1152	-8006
▁3132	-8007
▁8884	-8008
etchup	-8009
▁25483	-8010
▁trans	-8011
tazione	-8012
▁Marika	-8013
▁entire	-8014
erazione	-8015
▁aiutate	-8016
▁ketchup	-8017
▁scompar	-8018
▁borrowed	-8019
▁tranquill	-8020
▁dispiaciuto	-8021
dle	-8022
ked	-8023
▁Gre	-8024
▁dad	-8025
▁jud	-8026
▁top	-8027
▁2463	-8028
▁2715	-8029
▁2721	-8030
▁ospi	-8031
▁22026	-8032
▁39176	-8033
▁Abita	-8034
▁Inizi	-8035
▁cheap	-8036
▁sensi	-8037
▁handed	-8038
▁lonely	-8039
▁rispar	-8040
▁answers	-8041
▁courage	-8042
▁occupate	-8043
▁delicious	-8044
▁impegnate	-8045
▁grandfather	-8046
9796	-8047
ffer	-8048
▁437	-8049
ativa	-8050
▁1076	-8051
▁2421	-8052
▁2714	-8053
▁2722	-8054
▁4394	-8055
▁6094	-8056
▁lock	-8057
▁wise	-8058
ologia	-8059
▁28211	-8060
▁altra	-8061
▁gradu	-8062
▁sarai	-8063
▁Riesco	-8064
▁engine	-8065
▁toward	-8066
▁urlare	-8067
inazione	-8068
▁costume	-8069
▁sveglio	-8070
▁Yesterday	-8071
▁chiamarmi	-8072
▁diventando	-8073
usc	-8074
chia	-8075
▁2248	-8076
▁3721	-8077
▁6451	-8078
▁uovo	-8079
▁36364	-8080
▁birds	-8081
▁honey	-8082
▁ingen	-8083
▁sonno	-8084
vimento	-8085
▁Sembrano	-8086
▁conosceva	-8087
asp	-8088
iao	-8089
aido	-8090
ased	-8091
ervi	-8092
mine	-8093
▁207	-8094
▁Rob	-8095
▁sos	-8096
aereo	-8097
tious	-8098
▁1045	-8099
▁3874	-8100
▁fuck	-8101
▁lake	-8102
fortun	-8103
▁39061	-8104
▁39203	-8105
▁feels	-8106
▁laure	-8107
▁magni	-8108
▁106961	-8109
▁determ	-8110
▁gelato	-8111
▁pronun	-8112
▁example	-8113
▁perdita	-8114
▁retired	-8115
▁selfish	-8116
▁trusted	-8117
▁expected	-8118
▁politica	-8119
▁proposta	-8120
▁incontrare	-8121
▁preparando	-8122
▁appuntamento	-8123
lim	-8124
▁zu	-8125
ango	-8126
▁715	-8127
▁fed	-8128
terra	-8129
▁1761	-8130
▁2020	-8131
▁2733	-8132
▁2882	-8133
▁3113	-8134
▁3201	-8135
▁4664	-8136
▁stat	-8137
▁verd	-8138
▁64392	-8139
▁Lavor	-8140
▁aware	-8141
▁lacri	-8142
▁pezzo	-8143
▁Lavora	-8144
▁almeno	-8145
▁except	-8146
▁suicid	-8147
▁twenty	-8148
▁diventò	-8149
▁piacque	-8150
▁chocolate	-8151
▁passaporto	-8152
okk	-8153
▁Des	-8154
▁Sii	-8155
▁gem	-8156
▁2281	-8157
▁2978	-8158
▁3482	-8159
▁8520	-8160
▁Hokk	-8161
▁feci	-8162
▁smar	-8163
atever	-8164
▁11442	-8165
▁22032	-8166
▁Sorry	-8167
▁climb	-8168
▁crime	-8169
▁sweet	-8170
▁odiava	-8171
▁sicuri	-8172
▁entrato	-8173
▁studies	-8174
▁Hokkaido	-8175
▁betrayed	-8176
▁sottoval	-8177
▁piangendo	-8178
ots	-8179
▁229	-8180
▁976	-8181
▁2436	-8182
▁2484	-8183
▁3734	-8184
▁5282	-8185
▁mira	-8186
▁tort	-8187
▁tour	-8188
▁39042	-8189
▁39123	-8190
▁39174	-8191
▁64393	-8192
▁stone	-8193
▁taste	-8194
▁chiamo	-8195
▁seeing	-8196
▁contatt	-8197
▁nervosa	-8198
▁Saturday	-8199
▁continued	-8200
▁profession	-8201
▁studentessa	-8202
fico	-8203
▁146	-8204
▁esp	-8205
▁nor	-8206
cious	-8207
ziale	-8208
▁2853	-8209
▁5351	-8210
▁7748	-8211
▁crow	-8212
▁rose	-8213
▁39126	-8214
▁enemy	-8215
▁maled	-8216
▁mostr	-8217
▁preno	-8218
▁design	-8219
▁explan	-8220
▁remained	-8221
▁accettato	-8222
▁avrebbero	-8223
▁scrivendo	-8224
▁sn	-8225
▁209	-8226
▁566	-8227
▁786	-8228
▁Say	-8229
▁Yes	-8230
chino	-8231
▁3342	-8232
▁5293	-8233
▁6356	-8234
▁bare	-8235
▁capi	-8236
arlier	-8237
▁22453	-8238
▁39054	-8239
▁keeps	-8240
▁saper	-8241
▁invent	-8242
▁lotter	-8243
▁rabbia	-8244
▁suffer	-8245
▁parlano	-8246
▁macchine	-8247
▁accettare	-8248
▁expecting	-8249
ye	-8250
oph	-8251
▁Ba	-8252
tics	-8253
▁559	-8254
▁yes	-8255
occhi	-8256
▁1084	-8257
▁2496	-8258
▁2555	-8259
▁6263	-8260
▁6272	-8261
▁bear	-8262
▁jump	-8263
▁pena	-8264
▁vege	-8265
▁22553	-8266
▁Venga	-8267
▁utile	-8268
Algeria	-8269
▁abitare	-8270
▁disappe	-8271
▁ricordi	-8272
▁aiutando	-8273
▁assomiglia	-8274
▁translation	-8275
geri	-8276
ilar	-8277
▁vas	-8278
▁1065	-8279
▁7163	-8280
▁Open	-8281
▁gold	-8282
▁istr	-8283
▁pitt	-8284
▁pray	-8285
iamoci	-8286
inizio	-8287
▁11261	-8288
▁22456	-8289
▁adott	-8290
▁curry	-8291
▁festi	-8292
▁peace	-8293
▁lavori	-8294
▁nostal	-8295
▁onesta	-8296
▁belongs	-8297
▁seguito	-8298
▁sentite	-8299
ef	-8300
cou	-8301
9996	-8302
gion	-8303
pper	-8304
▁145	-8305
▁840	-8306
▁957	-8307
▁1816	-8308
▁1860	-8309
▁8700	-8310
▁piet	-8311
foglio	-8312
▁21112	-8313
▁Prima	-8314
▁compl	-8315
▁gramm	-8316
▁Because	-8317
▁assente	-8318
▁attorno	-8319
▁cercare	-8320
▁compagn	-8321
▁lacrime	-8322
▁lascerò	-8323
▁tickets	-8324
▁Sappiamo	-8325
▁abituata	-8326
▁prenderò	-8327
tt	-8328
allo	-8329
▁487	-8330
▁945	-8331
▁2686	-8332
▁3823	-8333
▁3902	-8334
▁7912	-8335
▁dico	-8336
▁feed	-8337
▁mezz	-8338
▁pair	-8339
▁vari	-8340
▁11873	-8341
▁39103	-8342
▁dolce	-8343
▁rooms	-8344
▁enorme	-8345
▁raccol	-8346
▁ruined	-8347
▁stessi	-8348
inocchio	-8349
▁disponi	-8350
▁lontana	-8351
▁chiudere	-8352
▁assonnato	-8353
▁Preferirei	-8354
▁eccellente	-8355
erti	-8356
pond	-8357
ters	-8358
▁916	-8359
▁943	-8360
▁Ann	-8361
arent	-8362
xious	-8363
▁2218	-8364
▁2763	-8365
▁3512	-8366
▁3756	-8367
▁8516	-8368
▁dele	-8369
▁math	-8370
▁papà	-8371
▁prec	-8372
▁25484	-8373
▁28214	-8374
▁39191	-8375
▁adora	-8376
▁brill	-8377
▁sbara	-8378
▁useful	-8379
▁chiamerò	-8380
▁practice	-8381
▁realized	-8382
▁riescono	-8383
▁contrario	-8384
▁poliziotto	-8385
amm	-8386
dici	-8387
enco	-8388
plom	-8389
▁557	-8390
▁731	-8391
▁spi	-8392
▁1192	-8393
▁4001	-8394
▁4014	-8395
▁bian	-8396
▁mass	-8397
▁21076	-8398
▁Emily	-8399
▁Quest	-8400
▁cards	-8401
▁dichi	-8402
▁sbrig	-8403
▁Ammise	-8404
▁accett	-8405
▁caduto	-8406
▁diplom	-8407
▁consape	-8408
▁Prendete	-8409
▁vegetari	-8410
▁accompagn	-8411
▁traveling	-8412
una	-8413
zzò	-8414
▁419	-8415
▁485	-8416
▁550	-8417
▁Nag	-8418
▁Pol	-8419
▁hug	-8420
▁wit	-8421
▁1495	-8422
▁3001	-8423
▁5742	-8424
▁naso	-8425
▁39074	-8426
▁65323	-8427
▁Smith	-8428
▁homes	-8429
▁intim	-8430
▁russo	-8431
▁wears	-8432
▁energy	-8433
▁sudden	-8434
▁piovere	-8435
▁vederti	-8436
▁ammalato	-8437
▁grateful	-8438
▁upstairs	-8439
▁esperienza	-8440
▁preoccupare	-8441
▁comportamento	-8442
hol	-8443
▁Du	-8444
alla	-8445
sivo	-8446
▁764	-8447
▁831	-8448
ciuti	-8449
▁2283	-8450
▁2359	-8451
▁2961	-8452
▁4665	-8453
▁5073	-8454
▁7952	-8455
▁8501	-8456
▁lava	-8457
▁nipo	-8458
▁39196	-8459
▁57582	-8460
▁Perse	-8461
▁Their	-8462
▁asset	-8463
▁darmi	-8464
▁arrend	-8465
▁avessi	-8466
▁filled	-8467
▁taglia	-8468
▁challen	-8469
▁faranno	-8470
▁normale	-8471
▁painted	-8472
▁prendendo	-8473
ggiù	-8474
▁981	-8475
▁984	-8476
▁Fri	-8477
▁esi	-8478
▁sla	-8479
apena	-8480
estre	-8481
▁2014	-8482
▁5486	-8483
▁6663	-8484
▁Alla	-8485
▁area	-8486
▁earn	-8487
▁pisc	-8488
▁plac	-8489
▁ulti	-8490
ggiorn	-8491
▁Tutte	-8492
▁carro	-8493
▁horri	-8494
▁sogni	-8495
▁bigger	-8496
▁glielo	-8497
▁teoria	-8498
▁theory	-8499
▁Avrebbe	-8500
▁braccia	-8501
▁rifiutò	-8502
▁malapena	-8503
eld	-8504
tre	-8505
uts	-8506
▁Ob	-8507
8391	-8508
aded	-8509
ests	-8510
gali	-8511
olar	-8512
▁equ	-8513
▁tow	-8514
lable	-8515
ldren	-8516
▁2253	-8517
▁2291	-8518
▁2523	-8519
▁Mand	-8520
▁bevo	-8521
▁luck	-8522
▁barca	-8523
▁faith	-8524
▁milli	-8525
▁prova	-8526
▁dreams	-8527
▁ferita	-8528
▁resign	-8529
▁wallet	-8530
▁assunto	-8531
▁machine	-8532
▁offerta	-8533
▁vedermi	-8534
▁attacked	-8535
▁proteggere	-8536
edia	-8537
ices	-8538
osta	-8539
▁407	-8540
▁537	-8541
▁587	-8542
▁804	-8543
▁nev	-8544
graph	-8545
ordin	-8546
▁2858	-8547
▁2863	-8548
▁2876	-8549
▁6301	-8550
▁muro	-8551
astico	-8552
zienda	-8553
▁11776	-8554
▁18871	-8555
▁India	-8556
▁names	-8557
▁pigro	-8558
▁suono	-8559
▁asciug	-8560
▁attacc	-8561
▁demand	-8562
▁cavalli	-8563
▁insegna	-8564
▁suonato	-8565
▁personal	-8566
In	-8567
ums	-8568
▁140	-8569
▁Abb	-8570
▁5154	-8571
▁8102	-8572
▁arms	-8573
▁pale	-8574
▁step	-8575
redici	-8576
▁39102	-8577
▁Secon	-8578
▁abito	-8579
▁sight	-8580
▁carino	-8581
▁discus	-8582
▁fridge	-8583
▁notice	-8584
▁warned	-8585
▁pubblic	-8586
▁introduc	-8587
▁divertita	-8588
▁permettere	-8589
▁presidente	-8590
gal	-8591
mies	-8592
▁sys	-8593
alata	-8594
atten	-8595
rezzo	-8596
▁3547	-8597
▁5356	-8598
▁6274	-8599
▁9723	-8600
▁corn	-8601
▁pool	-8602
▁till	-8603
▁inten	-8604
▁ripet	-8605
▁space	-8606
▁Algeri	-8607
▁Ditemi	-8608
▁sabato	-8609
▁Perhaps	-8610
▁cantato	-8611
▁earlier	-8612
▁infasti	-8613
▁chiamate	-8614
▁paranoid	-8615
▁ascoltato	-8616
▁sorridere	-8617
▁aggressive	-8618
▁seriamente	-8619
▁explanation	-8620
Do	-8621
oys	-8622
9852	-8623
▁Mad	-8624
▁bow	-8625
icate	-8626
▁1082	-8627
▁2275	-8628
▁2586	-8629
▁3417	-8630
▁6440	-8631
▁6532	-8632
▁Cons	-8633
▁pack	-8634
eresti	-8635
▁39171	-8636
▁84756	-8637
▁Quand	-8638
▁amate	-8639
▁elett	-8640
▁resto	-8641
oraggio	-8642
▁commer	-8643
▁povero	-8644
▁silent	-8645
▁venuti	-8646
▁vicini	-8647
▁visita	-8648
▁England	-8649
▁animale	-8650
▁pretend	-8651
▁convince	-8652
▁involved	-8653
▁intelligent	-8654
▁portafoglio	-8655
fy	-8656
▁Pl	-8657
ghil	-8658
avolo	-8659
orses	-8660
▁1194	-8661
▁2571	-8662
▁2612	-8663
▁2790	-8664
▁2861	-8665
▁4473	-8666
▁6358	-8667
▁7395	-8668
usione	-8669
▁event	-8670
▁Alcune	-8671
vailable	-8672
▁cancell	-8673
ghilterra	-8674
▁mangiano	-8675
▁ottimista	-8676
▁relations	-8677
▁significa	-8678
▁complaining	-8679
ks	-8680
gge	-8681
rire	-8682
▁958	-8683
▁Bet	-8684
▁Tim	-8685
▁mel	-8686
▁spl	-8687
ising	-8688
ution	-8689
ziosa	-8690
▁2239	-8691
▁3106	-8692
▁5751	-8693
▁5757	-8694
▁6666	-8695
▁7122	-8696
▁7750	-8697
▁draw	-8698
▁harm	-8699
▁legs	-8700
▁tast	-8701
▁viva	-8702
omeday	-8703
▁22483	-8704
▁claim	-8705
▁colla	-8706
▁Nessun	-8707
▁agreed	-8708
▁losing	-8709
▁prende	-8710
▁wealth	-8711
occhiata	-8712
▁injured	-8713
▁porterò	-8714
▁permetter	-8715
▁suspicious	-8716
7552	-8717
▁638	-8718
▁cru	-8719
▁2240	-8720
▁2481	-8721
▁3123	-8722
▁7768	-8723
▁argu	-8724
▁hire	-8725
▁trem	-8726
assion	-8727
issimo	-8728
ousand	-8729
▁22035	-8730
▁64404	-8731
▁74103	-8732
▁magaz	-8733
▁torna	-8734
▁abbass	-8735
▁depend	-8736
▁garage	-8737
▁raccon	-8738
▁sarete	-8739
▁chicken	-8740
▁fermata	-8741
▁natural	-8742
▁talento	-8743
▁sicurezza	-8744
▁Preferisco	-8745
Non	-8746
asci	-8747
▁Nap	-8748
▁log	-8749
astic	-8750
▁2682	-8751
▁2834	-8752
▁3152	-8753
▁3330	-8754
▁5991	-8755
▁6637	-8756
▁7795	-8757
▁8014	-8758
▁boll	-8759
▁crav	-8760
▁feet	-8761
▁loud	-8762
▁Dille	-8763
▁burro	-8764
▁pochi	-8765
▁salad	-8766
▁spina	-8767
▁Africa	-8768
▁Alcuni	-8769
▁Ditele	-8770
▁effort	-8771
▁flight	-8772
▁picked	-8773
▁ragazz	-8774
▁seconda	-8775
▁segreti	-8776
▁vincerà	-8777
▁annoiato	-8778
▁coraggio	-8779
▁aggiungere	-8780
ffi	-8781
▁Ju	-8782
▁Ok	-8783
▁Ve	-8784
enso	-8785
▁588	-8786
▁641	-8787
▁763	-8788
▁930	-8789
▁Dis	-8790
▁pet	-8791
▁1723	-8792
▁2237	-8793
▁2255	-8794
▁2510	-8795
▁2982	-8796
▁Hung	-8797
▁Vidi	-8798
▁nine	-8799
▁20444	-8800
▁25474	-8801
▁26472	-8802
▁cento	-8803
▁miele	-8804
▁rossa	-8805
▁seldom	-8806
▁furious	-8807
▁washing	-8808
▁recommend	-8809
▁ov	-8810
tead	-8811
▁730	-8812
▁936	-8813
▁fla	-8814
endio	-8815
pagne	-8816
volta	-8817
▁1146	-8818
▁2064	-8819
▁2262	-8820
▁2792	-8821
▁3003	-8822
▁5403	-8823
▁6204	-8824
▁8992	-8825
▁ebbe	-8826
▁whis	-8827
▁46671	-8828
▁Compr	-8829
▁Siate	-8830
▁copia	-8831
▁storm	-8832
▁accons	-8833
▁merita	-8834
▁enemies	-8835
▁forever	-8836
▁missing	-8837
▁chiunque	-8838
▁chiedendo	-8839
▁obviously	-8840
▁525	-8841
▁924	-8842
▁War	-8843
▁usa	-8844
▁2477	-8845
▁2835	-8846
▁2996	-8847
▁4013	-8848
▁4564	-8849
▁5693	-8850
▁5743	-8851
▁8492	-8852
▁Ciao	-8853
▁scal	-8854
▁type	-8855
▁uses	-8856
▁volo	-8857
▁22476	-8858
▁26481	-8859
▁39133	-8860
▁Crede	-8861
▁calls	-8862
▁pesci	-8863
▁portò	-8864
▁sentì	-8865
▁chiaro	-8866
▁faremo	-8867
▁nobody	-8868
▁remain	-8869
▁system	-8870
▁accused	-8871
▁consegn	-8872
▁diretto	-8873
▁instead	-8874
▁secrets	-8875
▁capitale	-8876
▁contento	-8877
▁apologized	-8878
▁responsible	-8879
9993	-8880
arne	-8881
▁934	-8882
▁Dec	-8883
▁Two	-8884
▁obb	-8885
▁svi	-8886
▁1016	-8887
▁2123	-8888
▁2485	-8889
▁3563	-8890
▁3573	-8891
▁3733	-8892
▁orri	-8893
chiamo	-8894
▁10286	-8895
▁Venne	-8896
▁jokes	-8897
▁reply	-8898
▁Contro	-8899
▁Quelle	-8900
▁giving	-8901
▁ricche	-8902
▁curiosa	-8903
▁improve	-8904
▁license	-8905
▁società	-8906
▁ubriaca	-8907
▁Tomorrow	-8908
▁available	-8909
▁incolpare	-8910
▁nostalgia	-8911
▁perfectly	-8912
▁risultato	-8913
▁government	-8914
9592	-8915
ancy	-8916
cita	-8917
▁212	-8918
▁555	-8919
▁856	-8920
▁Wow	-8921
enced	-8922
itate	-8923
▁1135	-8924
▁2566	-8925
▁5703	-8926
▁sconf	-8927
▁suitc	-8928
▁tears	-8929
▁tolse	-8930
▁cooper	-8931
▁disegn	-8932
▁island	-8933
▁baciare	-8934
▁fiducia	-8935
▁memoria	-8936
▁schiena	-8937
▁scrisse	-8938
▁similar	-8939
▁tredici	-8940
▁cravatta	-8941
▁proposal	-8942
▁riuscire	-8943
▁abandoned	-8944
▁coraggioso	-8945
▁permission	-8946
▁dimenticare	-8947
▁898	-8948
▁963	-8949
▁991	-8950
▁gal	-8951
verse	-8952
zzati	-8953
▁2172	-8954
▁3883	-8955
▁incl	-8956
▁jack	-8957
▁sarc	-8958
▁decei	-8959
▁vorrà	-8960
▁lavare	-8961
▁maiale	-8962
▁remind	-8963
▁talent	-8964
▁volare	-8965
▁ricerca	-8966
occasione	-8967
▁lasciate	-8968
▁sinistra	-8969
mate	-8970
rati	-8971
▁549	-8972
▁Mor	-8973
▁ang	-8974
▁wis	-8975
▁1029	-8976
▁2261	-8977
▁2870	-8978
▁3161	-8979
▁3164	-8980
▁3393	-8981
▁3416	-8982
▁4406	-8983
▁5796	-8984
▁6211	-8985
▁loca	-8986
▁sfor	-8987
▁22551	-8988
▁73854	-8989
▁album	-8990
▁comun	-8991
▁furono	-8992
▁nemico	-8993
▁someday	-8994
▁staring	-8995
▁stronger	-8996
▁mezzogiorno	-8997
gio	-8998
tol	-8999
ront	-9000
vera	-9001
▁445	-9002
▁809	-9003
▁rob	-9004
▁sli	-9005
▁sov	-9006
ratul	-9007
ulous	-9008
▁1102	-9009
▁2016	-9010
▁2752	-9011
▁5086	-9012
▁5633	-9013
▁6521	-9014
▁chef	-9015
▁conn	-9016
onable	-9017
▁11116	-9018
▁21116	-9019
▁39161	-9020
▁39173	-9021
▁43976	-9022
▁allen	-9023
▁cotta	-9024
▁ended	-9025
▁gambe	-9026
▁gesti	-9027
▁zuppa	-9028
issioni	-9029
▁behavi	-9030
▁poured	-9031
▁repair	-9032
▁sciare	-9033
▁intende	-9034
▁piscina	-9035
▁starting	-9036
▁catturato	-9037
▁controllo	-9038
▁barzelletta	-9039
▁spiegazione	-9040
▁addormentato	-9041
▁relationship	-9042
jo	-9043
via	-9044
▁Sb	-9045
cano	-9046
ckey	-9047
dino	-9048
▁444	-9049
ciare	-9050
cohol	-9051
dovin	-9052
pagna	-9053
▁1813	-9054
▁1867	-9055
▁2576	-9056
▁4356	-9057
▁5556	-9058
▁5983	-9059
▁6530	-9060
▁Bush	-9061
▁aprì	-9062
▁cong	-9063
▁emer	-9064
▁febb	-9065
▁39092	-9066
▁84806	-9067
▁canta	-9068
▁citta	-9069
▁motel	-9070
▁raise	-9071
▁arrivò	-9072
▁artist	-9073
▁automo	-9074
▁laggiù	-9075
▁moving	-9076
▁picnic	-9077
▁ricchi	-9078
▁salary	-9079
▁bedroom	-9080
▁convers	-9081
▁holiday	-9082
▁survive	-9083
▁vicenda	-9084
▁conoscenza	-9085
▁recentemente	-9086
arg	-9087
ury	-9088
▁iP	-9089
9994	-9090
anas	-9091
cher	-9092
rapp	-9093
▁579	-9094
▁1062	-9095
▁2587	-9096
▁3022	-9097
▁6013	-9098
▁6066	-9099
▁9010	-9100
▁jour	-9101
▁prot	-9102
▁vale	-9103
▁10148	-9104
▁25493	-9105
▁Watch	-9106
▁campo	-9107
▁fresh	-9108
▁nuovi	-9109
▁treat	-9110
inverno	-9111
▁guardò	-9112
▁horses	-9113
▁negato	-9114
▁progra	-9115
▁uccisi	-9116
▁anziana	-9117
▁Vogliono	-9118
▁attended	-9119
▁disposta	-9120
▁messaggi	-9121
▁sopravvi	-9122
▁sorprese	-9123
▁relazione	-9124
▁ovviamente	-9125
bè	-9126
rovv	-9127
site	-9128
▁408	-9129
▁475	-9130
▁888	-9131
▁2842	-9132
▁6206	-9133
▁6585	-9134
▁atti	-9135
▁bebè	-9136
▁dish	-9137
▁poet	-9138
▁prev	-9139
▁serp	-9140
tables	-9141
▁Sarei	-9142
▁seria	-9143
▁stuck	-9144
▁Europa	-9145
▁charac	-9146
▁excuse	-9147
▁famosa	-9148
▁Christi	-9149
▁article	-9150
▁cattiva	-9151
▁checked	-9152
▁governo	-9153
▁lascerà	-9154
▁suggeri	-9155
▁Sometimes	-9156
▁chiamando	-9157
▁president	-9158
▁everywhere	-9159
rof	-9160
uce	-9161
7085	-9162
9166	-9163
fero	-9164
irsi	-9165
lity	-9166
▁tat	-9167
▁1169	-9168
▁2414	-9169
▁2564	-9170
▁8382	-9171
▁grid	-9172
▁moon	-9173
▁10264	-9174
▁22376	-9175
▁25491	-9176
▁39080	-9177
▁85371	-9178
▁crowd	-9179
▁encou	-9180
▁togli	-9181
▁Friday	-9182
▁George	-9183
▁animal	-9184
▁button	-9185
▁lately	-9186
▁prenda	-9187
▁tristi	-9188
▁within	-9189
▁sistema	-9190
▁website	-9191
▁homesick	-9192
▁champagne	-9193
▁translated	-9194
▁utilizzato	-9195
ucc	-9196
5503	-9197
erdì	-9198
attia	-9199
▁2033	-9200
▁2855	-9201
▁3024	-9202
▁4915	-9203
▁5712	-9204
▁6273	-9205
▁6701	-9206
▁luna	-9207
▁quad	-9208
▁28213	-9209
▁39193	-9210
▁39202	-9211
▁39204	-9212
▁diedi	-9213
▁intra	-9214
▁inuti	-9215
▁magli	-9216
▁passò	-9217
▁infran	-9218
▁myster	-9219
▁Avresti	-9220
▁million	-9221
▁sposare	-9222
▁teaches	-9223
▁affamati	-9224
▁invitata	-9225
▁malattia	-9226
▁primavera	-9227
▁richiesta	-9228
▁spazzatura	-9229
▁consigliato	-9230
▁preoccuparti	-9231
hem	-9232
lop	-9233
7796	-9234
anzi	-9235
aped	-9236
▁986	-9237
aiuto	-9238
riter	-9239
udine	-9240
▁1882	-9241
▁1891	-9242
▁2018	-9243
▁2249	-9244
▁2712	-9245
▁3111	-9246
▁3221	-9247
▁assa	-9248
▁22373	-9249
▁Digli	-9250
▁Spain	-9251
▁Studi	-9252
▁Vengo	-9253
▁folle	-9254
▁sacri	-9255
▁whose	-9256
▁Spagna	-9257
▁assass	-9258
▁escape	-9259
▁joking	-9260
▁ordine	-9261
▁rarely	-9262
▁regali	-9263
▁ashamed	-9264
▁carcere	-9265
▁impress	-9266
▁campagna	-9267
▁condivid	-9268
▁italiano	-9269
▁fortunate	-9270
▁ricordare	-9271
▁complicated	-9272
lam	-9273
▁Mo	-9274
5498	-9275
8123	-9276
8344	-9277
▁469	-9278
▁Ste	-9279
▁nur	-9280
antly	-9281
icità	-9282
▁1740	-9283
▁2601	-9284
▁3863	-9285
▁4366	-9286
▁5990	-9287
▁6601	-9288
▁7113	-9289
▁tong	-9290
attuto	-9291
omento	-9292
▁11795	-9293
▁64390	-9294
▁among	-9295
▁elect	-9296
▁gives	-9297
▁bright	-9298
▁cooked	-9299
▁nation	-9300
▁Entramb	-9301
▁romanzi	-9302
▁vedervi	-9303
▁festival	-9304
▁generous	-9305
▁ghiaccio	-9306
▁thousand	-9307
rid	-9308
ensi	-9309
▁149	-9310
▁480	-9311
▁Bud	-9312
▁1113	-9313
▁2696	-9314
▁2771	-9315
▁3532	-9316
▁5251	-9317
▁5347	-9318
▁6104	-9319
▁9076	-9320
▁Farò	-9321
▁gira	-9322
▁pure	-9323
▁simp	-9324
uzione	-9325
▁11226	-9326
▁11546	-9327
▁22703	-9328
▁51893	-9329
▁corsa	-9330
▁farai	-9331
▁gonna	-9332
▁Prepar	-9333
▁acceso	-9334
▁cancer	-9335
▁divano	-9336
▁nemici	-9337
▁noioso	-9338
▁rimane	-9339
▁saggio	-9340
orologio	-9341
▁aiutati	-9342
▁touched	-9343
▁Facciamo	-9344
▁bellezza	-9345
▁fighting	-9346
▁horrible	-9347
▁conoscevo	-9348
▁dimissioni	-9349
▁sopportare	-9350
▁vegetables	-9351
▁responsabile	-9352
sc	-9353
ym	-9354
wai	-9355
▁Ra	-9356
5614	-9357
9031	-9358
9229	-9359
aren	-9360
pria	-9361
▁See	-9362
▁ble	-9363
▁ped	-9364
night	-9365
▁1126	-9366
▁2452	-9367
▁2596	-9368
▁2602	-9369
▁2862	-9370
▁2920	-9371
▁7151	-9372
▁Hello	-9373
▁Molte	-9374
▁anger	-9375
▁becom	-9376
▁legno	-9377
▁perio	-9378
▁vieni	-9379
▁confer	-9380
▁guanti	-9381
▁lights	-9382
▁stanze	-9383
▁intimid	-9384
▁patente	-9385
▁stupide	-9386
▁suicide	-9387
▁comincia	-9388
▁headache	-9389
▁contratto	-9390
9433	-9391
eral	-9392
iano	-9393
▁369	-9394
▁627	-9395
▁gay	-9396
▁ost	-9397
gging	-9398
llato	-9399
ption	-9400
▁2194	-9401
▁2458	-9402
▁2833	-9403
▁6472	-9404
▁luci	-9405
▁11043	-9406
▁Whose	-9407
▁board	-9408
▁carry	-9409
▁forza	-9410
▁musul	-9411
▁riemp	-9412
▁Muslim	-9413
▁yellow	-9414
▁pazienza	-9415
▁tempesta	-9416
▁preoccuparsi	-9417
▁riconosciuto	-9418
uy	-9419
7806	-9420
8124	-9421
8659	-9422
9236	-9423
▁895	-9424
▁cab	-9425
▁2022	-9426
▁2432	-9427
▁2524	-9428
▁2793	-9429
▁3114	-9430
▁anal	-9431
▁lett	-9432
▁21114	-9433
▁39142	-9434
▁39164	-9435
▁Alice	-9436
▁Andrà	-9437
▁cieco	-9438
▁frigo	-9439
▁accomp	-9440
▁tongue	-9441
▁propria	-9442
▁spiegato	-9443
▁realizzato	-9444
7509	-9445
8671	-9446
9798	-9447
aive	-9448
gano	-9449
itti	-9450
▁705	-9451
▁758	-9452
▁860	-9453
▁Pia	-9454
▁Wor	-9455
appar	-9456
gherò	-9457
▁1052	-9458
▁1100	-9459
▁2238	-9460
▁2784	-9461
▁3471	-9462
▁4493	-9463
▁5754	-9464
▁5758	-9465
▁5852	-9466
▁Feci	-9467
▁drug	-9468
▁goal	-9469
▁noon	-9470
endere	-9471
▁11222	-9472
▁22482	-9473
▁56791	-9474
▁64394	-9475
▁85211	-9476
▁Since	-9477
▁barba	-9478
▁cloud	-9479
▁dirti	-9480
▁naive	-9481
▁admire	-9482
▁breath	-9483
▁burned	-9484
▁gloves	-9485
▁tenuto	-9486
▁Conosci	-9487
▁Ditegli	-9488
▁crossed	-9489
▁fermato	-9490
▁sentivo	-9491
▁vederle	-9492
▁depresso	-9493
▁desiderio	-9494
▁sottovalut	-9495
▁consapevole	-9496
▁raggiungere	-9497
NA	-9498
9668	-9499
erle	-9500
▁718	-9501
▁821	-9502
▁Lin	-9503
▁Tak	-9504
▁fig	-9505
arabo	-9506
▁2375	-9507
▁2973	-9508
▁3594	-9509
▁6208	-9510
▁asse	-9511
▁demo	-9512
▁mail	-9513
▁18873	-9514
▁22084	-9515
▁74051	-9516
▁aiutò	-9517
▁arabo	-9518
▁Prenda	-9519
▁predic	-9520
▁resist	-9521
▁social	-9522
▁unable	-9523
▁divorced	-9524
▁edificio	-9525
▁minestra	-9526
▁spavento	-9527
▁vorresti	-9528
▁appassion	-9529
▁compagnia	-9530
▁attentamente	-9531
▁attraversare	-9532
ja	-9533
ban	-9534
zer	-9535
▁CD	-9536
▁hy	-9537
5801	-9538
9702	-9539
▁735	-9540
▁974	-9541
▁fle	-9542
▁1000	-9543
▁1131	-9544
▁2007	-9545
▁2471	-9546
▁5090	-9547
▁5723	-9548
▁Swed	-9549
▁dise	-9550
▁euro	-9551
▁lamp	-9552
attolo	-9553
▁18874	-9554
▁31723	-9555
▁74406	-9556
▁Abito	-9557
▁Senti	-9558
▁beard	-9559
▁paesi	-9560
▁produ	-9561
▁direct	-9562
▁enjoys	-9563
▁expert	-9564
▁mister	-9565
▁pulita	-9566
▁quarti	-9567
▁spento	-9568
▁Cominci	-9569
▁Faresti	-9570
▁costosa	-9571
▁private	-9572
▁venerdì	-9573
▁ottenere	-9574
▁principi	-9575
▁countries	-9576
▁preparare	-9577
▁automobili	-9578
▁introduced	-9579
▁appointment	-9580
met	-9581
7210	-9582
8374	-9583
jong	-9584
osto	-9585
ppia	-9586
▁477	-9587
▁mes	-9588
forta	-9589
▁1116	-9590
▁2391	-9591
▁2407	-9592
▁3142	-9593
▁3548	-9594
▁4506	-9595
▁4985	-9596
▁5134	-9597
▁5766	-9598
▁5828	-9599
▁6568	-9600
▁8767	-9601
▁cash	-9602
▁cogn	-9603
▁deaf	-9604
▁surf	-9605
chetta	-9606
icidio	-9607
▁11781	-9608
▁Marie	-9609
▁overw	-9610
▁pollo	-9611
▁scopo	-9612
▁Allora	-9613
▁Sapeva	-9614
▁delusa	-9615
▁fredda	-9616
▁invito	-9617
▁piatto	-9618
▁Dimenti	-9619
▁results	-9620
▁convinta	-9621
▁corretta	-9622
▁musician	-9623
▁prigioni	-9624
▁Canadians	-9625
▁economico	-9626
▁preoccupi	-9627
▁giapponesi	-9628
▁imbarazzato	-9629
▁interessati	-9630
Isl	-9631
bys	-9632
7504	-9633
8163	-9634
gher	-9635
▁sud	-9636
hjong	-9637
▁2412	-9638
▁2702	-9639
▁2798	-9640
▁4499	-9641
▁4973	-9642
▁5980	-9643
▁7373	-9644
▁8952	-9645
▁Thom	-9646
▁diam	-9647
▁rosa	-9648
▁view	-9649
▁wore	-9650
▁17394	-9651
▁26451	-9652
▁39084	-9653
▁accad	-9654
▁babys	-9655
▁match	-9656
▁metro	-9657
▁passo	-9658
▁Chiedi	-9659
▁motore	-9660
▁odiano	-9661
▁sigare	-9662
▁offerto	-9663
▁uscendo	-9664
▁vederli	-9665
▁wasting	-9666
▁continua	-9667
▁friendly	-9668
▁interrom	-9669
▁offended	-9670
▁perdendo	-9671
▁allergico	-9672
▁americano	-9673
▁risultati	-9674
appartamento	-9675
0610	-9676
0654	-9677
7003	-9678
7080	-9679
7245	-9680
7777	-9681
8243	-9682
9976	-9683
vare	-9684
▁398	-9685
▁Alm	-9686
▁hes	-9687
▁viv	-9688
ining	-9689
▁2692	-9690
▁2791	-9691
▁2890	-9692
▁3374	-9693
▁3396	-9694
▁4201	-9695
▁4463	-9696
▁Stia	-9697
▁fork	-9698
▁lent	-9699
▁nomi	-9700
▁thie	-9701
anotte	-9702
umenti	-9703
▁18876	-9704
▁39136	-9705
▁judge	-9706
▁passi	-9707
▁stavi	-9708
essione	-9709
▁Bibbia	-9710
▁crimin	-9711
▁galera	-9712
▁giacca	-9713
▁produc	-9714
▁spetta	-9715
▁comment	-9716
▁domesti	-9717
▁mantenere	-9718
▁obiettivo	-9719
▁pavimento	-9720
▁pretended	-9721
▁incredibile	-9722
▁perfettamente	-9723
gre	-9724
itò	-9725
.000	-9726
5389	-9727
7797	-9728
9582	-9729
9701	-9730
9992	-9731
aste	-9732
inti	-9733
▁oil	-9734
▁zia	-9735
eight	-9736
gnere	-9737
orità	-9738
▁1083	-9739
▁2483	-9740
▁2520	-9741
▁4980	-9742
▁6672	-9743
▁6851	-9744
▁aunt	-9745
▁drow	-9746
▁nole	-9747
▁punt	-9748
▁seas	-9749
▁20124	-9750
▁24516	-9751
▁Bible	-9752
▁avvel	-9753
▁bandi	-9754
▁costs	-9755
▁meant	-9756
▁tratt	-9757
▁Glielo	-9758
▁Niente	-9759
▁grassa	-9760
▁humili	-9761
▁ospiti	-9762
▁plenty	-9763
▁parties	-9764
▁rimasta	-9765
▁science	-9766
▁thanked	-9767
▁comprend	-9768
▁brillante	-9769
▁dirglielo	-9770
▁musicista	-9771
▁programma	-9772
aut	-9773
kip	-9774
ler	-9775
oya	-9776
ulo	-9777
6775	-9778
7591	-9779
9111	-9780
9423	-9781
9673	-9782
9674	-9783
ever	-9784
ormi	-9785
▁925	-9786
▁Sco	-9787
▁boi	-9788
▁tec	-9789
mates	-9790
riage	-9791
usias	-9792
▁1067	-9793
▁1112	-9794
▁1125	-9795
▁2159	-9796
▁2559	-9797
▁2590	-9798
▁2806	-9799
▁3860	-9800
▁5362	-9801
▁6442	-9802
▁6533	-9803
▁Sing	-9804
▁citi	-9805
▁race	-9806
▁roof	-9807
▁sost	-9808
istica	-9809
▁22403	-9810
▁39131	-9811
▁Brown	-9812
▁Gioca	-9813
▁Metti	-9814
▁Wikip	-9815
▁biste	-9816
▁const	-9817
▁forti	-9818
▁happi	-9819
▁hopes	-9820
▁panda	-9821
▁rimpi	-9822
▁scomm	-9823
▁Aspett	-9824
▁Nagoya	-9825
▁active	-9826
▁forced	-9827
▁giochi	-9828
▁harder	-9829
fortable	-9830
▁battuta	-9831
▁investig	-9832
▁romantic	-9833
▁Wikipedia	-9834
▁iniziando	-9835
▁threatened	-9836
▁Bl	-9837
7002	-9838
8153	-9839
8277	-9840
8335	-9841
9790	-9842
9983	-9843
waii	-9844
▁Dai	-9845
ashed	-9846
ciute	-9847
usion	-9848
▁1009	-9849
▁1664	-9850
▁2534	-9851
▁2934	-9852
▁3564	-9853
▁4511	-9854
▁5096	-9855
▁5989	-9856
▁7441	-9857
▁7496	-9858
▁8882	-9859
▁8926	-9860
▁coma	-9861
▁lies	-9862
▁mood	-9863
▁sinc	-9864
▁tipi	-9865
▁11032	-9866
▁18604	-9867
▁22028	-9868
▁46672	-9869
▁added	-9870
▁scary	-9871
▁steak	-9872
▁Hawaii	-9873
▁Thomas	-9874
▁Transl	-9875
▁author	-9876
▁uccisa	-9877
▁Portate	-9878
▁aspetti	-9879
▁avvelen	-9880
▁cultura	-9881
▁dipinto	-9882
▁egoista	-9883
▁mahjong	-9884
▁sposate	-9885
▁contract	-9886
▁felicità	-9887
▁riuscita	-9888
▁straight	-9889
▁divertiti	-9890
▁affidabile	-9891
▁preferisco	-9892
▁Ta	-9893
0625	-9894
5497	-9895
7283	-9896
7588	-9897
8165	-9898
8260	-9899
Amer	-9900
rori	-9901
utti	-9902
▁457	-9903
▁951	-9904
▁Due	-9905
▁amb	-9906
▁1051	-9907
▁1739	-9908
▁2743	-9909
▁3129	-9910
▁3251	-9911
▁3891	-9912
▁6073	-9913
▁6300	-9914
▁8362	-9915
▁cere	-9916
▁held	-9917
▁74412	-9918
▁above	-9919
▁sugli	-9920
▁Comprò	-9921
▁invece	-9922
▁venite	-9923
▁anxious	-9924
▁conserv	-9925
▁salario	-9926
▁stavate	-9927
▁arrivate	-9928
▁profondo	-9929
▁benvenuto	-9930
▁condition	-9931
▁lasciarmi	-9932
▁personale	-9933
Ita	-9934
uko	-9935
0626	-9936
5302	-9937
5644	-9938
8381	-9939
8444	-9940
9263	-9941
gnore	-9942
mbers	-9943
▁3006	-9944
▁3358	-9945
▁3504	-9946
▁5268	-9947
▁5355	-9948
▁6784	-9949
▁7123	-9950
▁Vedo	-9951
▁10247	-9952
▁10912	-9953
▁64402	-9954
▁Andai	-9955
▁Angel	-9956
▁bordo	-9957
▁quand	-9958
▁svilu	-9959
timento	-9960
▁middle	-9961
▁nature	-9962
▁repeat	-9963
▁Comprai	-9964
▁potesse	-9965
▁litigare	-9966
▁prestato	-9967
▁computers	-9968
▁policeman	-9969
▁svegliato	-9970
▁od	-9971
0195	-9972
0301	-9973
0604	-9974
7555	-9975
7587	-9976
7658	-9977
8229	-9978
8255	-9979
8343	-9980
9145	-9981
9571	-9982
9693	-9983
irmi	-9984
usti	-9985
veni	-9986
▁416	-9987
▁Car	-9988
▁Lat	-9989
▁1546	-9990
▁2594	-9991
▁3013	-9992
▁3286	-9993
▁3372	-9994
▁4531	-9995
▁7670	-9996
▁7796	-9997
▁Help	-9998
▁blog	-9999
▁forb	-10000
attare	-10001
▁11387	-10002
▁22371	-10003
▁39121	-10004
▁74052	-10005
▁Brasi	-10006
▁World	-10007
▁bravi	-10008
▁entro	-10009
▁piove	-10010
▁tetto	-10011
▁tough	-10012
▁virus	-10013
▁Tenete	-10014
▁impazi	-10015
▁jacket	-10016
▁votato	-10017
▁crimine	-10018
▁meaning	-10019
▁pensano	-10020
▁saperlo	-10021
▁smaller	-10022
▁Apprezzo	-10023
▁positive	-10024
▁tagliato	-10025
▁cambiamento	-10026
▁conversation	-10027
▁conversazione	-10028
cel	-10029
und	-10030
0666	-10031
5601	-10032
8219	-10033
8390	-10034
9371	-10035
9384	-10036
9597	-10037
9655	-10038
9694	-10039
9704	-10040
9982	-10041
agno	-10042
nted	-10043
▁Sch	-10044
▁obe	-10045
iting	-10046
tiche	-10047
▁1255	-10048
▁2387	-10049
▁3199	-10050
▁5326	-10051
▁6027	-10052
▁7833	-10053
▁8483	-10054
▁8522	-10055
▁9071	-10056
▁push	-10057
▁scol	-10058
entare	-10059
▁20113	-10060
▁39066	-10061
▁Parli	-10062
▁Parlo	-10063
▁Prova	-10064
▁denun	-10065
▁nurse	-10066
▁presa	-10067
▁scont	-10068
▁shall	-10069
▁capace	-10070
▁coward	-10071
▁fallen	-10072
▁terror	-10073
▁Promise	-10074
▁aggiorn	-10075
▁passate	-10076
▁shocked	-10077
▁tornerà	-10078
▁costruito	-10079
▁difficili	-10080
▁babysitter	-10081
▁studentesse	-10082
thy	-10083
0631	-10084
7590	-10085
9234	-10086
9466	-10087
9684	-10088
▁Rit	-10089
ouses	-10090
ppert	-10091
ressi	-10092
tiene	-10093
▁1504	-10094
▁1506	-10095
▁1950	-10096
▁2250	-10097
▁2814	-10098
▁3331	-10099
▁3533	-10100
▁3540	-10101
▁5837	-10102
▁Love	-10103
▁Solo	-10104
▁jobs	-10105
▁ones	-10106
▁sour	-10107
ereste	-10108
▁11867	-10109
▁imbro	-10110
▁ladro	-10111
▁morso	-10112
▁oltre	-10113
▁parlò	-10114
▁scare	-10115
istenza	-10116
▁amused	-10117
▁averla	-10118
▁dating	-10119
▁distur	-10120
▁franco	-10121
▁impati	-10122
▁skiing	-10123
▁sooner	-10124
▁spring	-10125
▁Parlate	-10126
▁dappert	-10127
▁terrori	-10128
▁Children	-10129
▁orribile	-10130
▁vorreste	-10131
▁Hungarian	-10132
▁importanti	-10133
▁raccontato	-10134
▁dappertutto	-10135
▁impressionato	-10136
gy	-10137
▁By	-10138
0611	-10139
5183	-10140
5432	-10141
7277	-10142
7704	-10143
7882	-10144
8120	-10145
8154	-10146
8184	-10147
8619	-10148
9012	-10149
9202	-10150
9238	-10151
9695	-10152
9977	-10153
9978	-10154
9986	-10155
▁465	-10156
▁loc	-10157
▁vul	-10158
vette	-10159
▁2883	-10160
▁2960	-10161
▁3503	-10162
▁3558	-10163
▁5973	-10164
▁6209	-10165
▁decl	-10166
▁pony	-10167
▁proi	-10168
▁puzz	-10169
Italia	-10170
▁11842	-10171
▁22361	-10172
▁23874	-10173
▁39122	-10174
▁ballo	-10175
▁vedrò	-10176
▁Lavoro	-10177
▁arrivo	-10178
▁chieda	-10179
▁venute	-10180
▁volont	-10181
▁alcohol	-10182
▁clearly	-10183
▁forward	-10184
▁maniera	-10185
▁sovrapp	-10186
▁politici	-10187
▁costruire	-10188
▁intelligenti	-10189
0166	-10190
0454	-10191
0607	-10192
7336	-10193
7550	-10194
8162	-10195
8186	-10196
8302	-10197
8355	-10198
9389	-10199
9550	-10200
ided	-10201
unno	-10202
▁639	-10203
▁913	-10204
▁947	-10205
▁Cam	-10206
▁DNA	-10207
cchie	-10208
ledge	-10209
▁2246	-10210
▁2751	-10211
▁2800	-10212
▁2901	-10213
▁2971	-10214
▁3252	-10215
▁3964	-10216
▁4411	-10217
▁Supp	-10218
▁defe	-10219
▁obje	-10220
▁tecn	-10221
▁unus	-10222
▁21872	-10223
▁85263	-10224
▁Trasc	-10225
▁colpo	-10226
▁extra	-10227
▁ferro	-10228
▁robot	-10229
▁rumor	-10230
cerebbe	-10231
gherese	-10232
▁dovere	-10233
▁farete	-10234
▁orange	-10235
▁imagine	-10236
▁minacci	-10237
▁restitui	-10238
▁aspettavo	-10239
▁diventata	-10240
▁scegliere	-10241
Sì	-10242
nal	-10243
0109	-10244
0135	-10245
0472	-10246
0602	-10247
5459	-10248
7415	-10249
7580	-10250
7770	-10251
7784	-10252
7884	-10253
7891	-10254
8167	-10255
8246	-10256
8253	-10257
9039	-10258
9142	-10259
9209	-10260
9220	-10261
9644	-10262
erto	-10263
tate	-10264
▁811	-10265
▁Los	-10266
▁low	-10267
▁sno	-10268
atici	-10269
▁2046	-10270
▁2473	-10271
▁3200	-10272
▁3223	-10273
▁3322	-10274
▁3753	-10275
▁4513	-10276
▁5346	-10277
▁desp	-10278
▁fumo	-10279
taloni	-10280
▁10245	-10281
▁11752	-10282
▁39098	-10283
▁39132	-10284
▁Provò	-10285
▁actor	-10286
▁museo	-10287
▁pezzi	-10288
▁posti	-10289
▁socks	-10290
▁decise	-10291
▁grazie	-10292
▁museum	-10293
▁Brasile	-10294
▁gentili	-10295
▁profess	-10296
▁profond	-10297
▁verdure	-10298
▁Chiedete	-10299
▁Qualcosa	-10300
▁behavior	-10301
▁complete	-10302
▁stranger	-10303
▁religious	-10304
▁ritornare	-10305
▁Sembravano	-10306
▁significato	-10307
bri	-10308
uda	-10309
▁Cr	-10310
▁Dr	-10311
0256	-10312
7288	-10313
7551	-10314
7582	-10315
7803	-10316
8126	-10317
8155	-10318
8178	-10319
8215	-10320
8240	-10321
9435	-10322
9605	-10323
9791	-10324
fici	-10325
vido	-10326
▁708	-10327
▁2213	-10328
▁2433	-10329
▁2561	-10330
▁2711	-10331
▁3361	-10332
▁5204	-10333
▁5779	-10334
▁6092	-10335
▁7439	-10336
▁8161	-10337
▁Aiut	-10338
▁astr	-10339
▁flag	-10340
▁mino	-10341
▁phys	-10342
▁segn	-10343
cciare	-10344
essero	-10345
market	-10346
▁Betty	-10347
▁Sanno	-10348
▁adult	-10349
▁arrog	-10350
▁cercò	-10351
▁tatto	-10352
▁turno	-10353
▁Brazil	-10354
▁Disney	-10355
▁beauty	-10356
▁critic	-10357
▁danced	-10358
▁pulled	-10359
▁search	-10360
▁smells	-10361
osamente	-10362
▁Aspetta	-10363
▁affitto	-10364
▁avevamo	-10365
▁created	-10366
▁improvv	-10367
▁maleduc	-10368
▁peggior	-10369
▁pratica	-10370
▁rischio	-10371
▁mistaken	-10372
▁patience	-10373
▁sorpresi	-10374
▁supermer	-10375
▁thirteen	-10376
▁committed	-10377
▁quartiere	-10378
▁frustrated	-10379
▁gentilezza	-10380
▁partecipare	-10381
ule	-10382
▁Hi	-10383
7006	-10384
7169	-10385
7492	-10386
8142	-10387
8334	-10388
8351	-10389
9178	-10390
9227	-10391
erne	-10392
▁766	-10393
▁785	-10394
▁868	-10395
▁Mal	-10396
▁tax	-10397
orted	-10398
▁1972	-10399
▁2560	-10400
▁2795	-10401
▁3050	-10402
▁3894	-10403
▁3956	-10404
▁5163	-10405
▁6562	-10406
▁8611	-10407
▁paga	-10408
▁18684	-10409
▁64384	-10410
▁64403	-10411
▁Prese	-10412
▁Viene	-10413
▁games	-10414
▁paint	-10415
▁voted	-10416
ondiale	-10417
▁forest	-10418
▁gratui	-10419
▁ottimo	-10420
▁premio	-10421
▁stress	-10422
▁tratta	-10423
▁avresti	-10424
▁relaxed	-10425
▁smarter	-10426
▁speaker	-10427
▁trovate	-10428
▁vediamo	-10429
▁capitano	-10430
▁americani	-10431
▁posizione	-10432
▁overweight	-10433
▁dispiaciuta	-10434
▁supermarket	-10435
bie	-10436
▁Je	-10437
0169	-10438
5419	-10439
5461	-10440
7222	-10441
7293	-10442
7444	-10443
7618	-10444
7801	-10445
7890	-10446
8208	-10447
8213	-10448
8256	-10449
8680	-10450
9149	-10451
9359	-10452
arie	-10453
mana	-10454
▁Cho	-10455
▁Nor	-10456
▁Più	-10457
retto	-10458
under	-10459
▁2422	-10460
▁2539	-10461
▁2621	-10462
▁2990	-10463
▁4016	-10464
▁4362	-10465
▁5836	-10466
▁7791	-10467
▁8081	-10468
▁geni	-10469
▁pren	-10470
▁puls	-10471
▁rule	-10472
▁runs	-10473
▁Insta	-10474
▁argue	-10475
▁banjo	-10476
▁concl	-10477
▁scuse	-10478
▁tempi	-10479
▁ultim	-10480
▁Lasciò	-10481
▁simile	-10482
▁Angeles	-10483
▁artific	-10484
▁escaped	-10485
▁romanti	-10486
▁smiling	-10487
▁totally	-10488
▁affascin	-10489
▁naturale	-10490
▁superato	-10491
▁talented	-10492
olitamente	-10493
▁ritornato	-10494
▁fastidioso	-10495
▁incontrati	-10496
▁disappeared	-10497
▁supermercato	-10498
Yes	-10499
edy	-10500
eta	-10501
0121	-10502
0638	-10503
1594	-10504
5192	-10505
5335	-10506
7059	-10507
7290	-10508
7464	-10509
7586	-10510
7599	-10511
7647	-10512
7674	-10513
7886	-10514
8145	-10515
8149	-10516
8156	-10517
8175	-10518
8264	-10519
8696	-10520
8698	-10521
9233	-10522
9298	-10523
9577	-10524
9652	-10525
9670	-10526
9700	-10527
9873	-10528
cero	-10529
hetic	-10530
▁1943	-10531
▁2563	-10532
▁3758	-10533
▁4244	-10534
▁5263	-10535
▁6344	-10536
▁6445	-10537
▁8379	-10538
▁Rice	-10539
▁cock	-10540
▁heat	-10541
▁meal	-10542
armene	-10543
▁18863	-10544
▁22411	-10545
▁Tieni	-10546
▁dando	-10547
▁farti	-10548
▁mille	-10549
▁minim	-10550
▁offic	-10551
▁tolto	-10552
America	-10553
▁chiuse	-10554
▁defend	-10555
▁scambi	-10556
▁splend	-10557
▁tastes	-10558
▁timida	-10559
▁writer	-10560
▁diavolo	-10561
▁rispose	-10562
▁unusual	-10563
▁valigia	-10564
▁contanti	-10565
▁risparmi	-10566
▁traveled	-10567
▁chiederlo	-10568
▁classroom	-10569
▁congratul	-10570
▁impatient	-10571
▁screaming	-10572
▁favorevole	-10573
▁trascorrere	-10574
pir	-10575
0056	-10576
0291	-10577
0422	-10578
0681	-10579
5083	-10580
5440	-10581
5783	-10582
7126	-10583
7581	-10584
7799	-10585
8258	-10586
8259	-10587
8261	-10588
8265	-10589
8270	-10590
9000	-10591
9026	-10592
cità	-10593
velo	-10594
▁Bel	-10595
▁Sve	-10596
abbia	-10597
rosco	-10598
▁1246	-10599
▁2210	-10600
▁2274	-10601
▁2592	-10602
▁2943	-10603
▁2993	-10604
▁4405	-10605
▁6069	-10606
▁7194	-10607
▁8349	-10608
▁9073	-10609
▁sett	-10610
▁11386	-10611
▁11605	-10612
▁65311	-10613
▁Istan	-10614
▁Terra	-10615
▁Mangio	-10616
▁avendo	-10617
▁handle	-10618
▁poveri	-10619
▁regist	-10620
▁Sundays	-10621
▁crimina	-10622
▁fallito	-10623
▁reached	-10624
▁Istanbul	-10625
▁cresciuta	-10626
▁raggiunto	-10627
▁suggested	-10628
▁sovrappeso	-10629
▁Solitamente	-10630
gie	-10631
rla	-10632
0108	-10633
0617	-10634
5472	-10635
7217	-10636
7236	-10637
7394	-10638
7771	-10639
7775	-10640
7800	-10641
7850	-10642
8160	-10643
8346	-10644
8370	-10645
8459	-10646
8679	-10647
9231	-10648
9369	-10649
9576	-10650
9639	-10651
9667	-10652
9776	-10653
rone	-10654
▁859	-10655
▁San	-10656
▁rug	-10657
versi	-10658
▁2251	-10659
▁2588	-10660
▁2769	-10661
▁2930	-10662
▁3075	-10663
▁3884	-10664
▁4404	-10665
▁6141	-10666
▁9474	-10667
▁dili	-10668
▁lift	-10669
▁moto	-10670
▁10058	-10671
▁64391	-10672
▁Speak	-10673
▁cause	-10674
▁cuoco	-10675
▁esami	-10676
▁local	-10677
▁provo	-10678
▁shock	-10679
▁vuota	-10680
ruzione	-10681
▁cigare	-10682
▁picchi	-10683
▁seduta	-10684
▁strict	-10685
▁advanta	-10686
▁changes	-10687
▁bugiardo	-10688
▁kindness	-10689
▁material	-10690
▁politics	-10691
▁fantastic	-10692
▁forchetta	-10693
▁considered	-10694
▁distinguere	-10695
▁understands	-10696
jab	-10697
0231	-10698
0281	-10699
5182	-10700
5464	-10701
7178	-10702
7366	-10703
7553	-10704
7577	-10705
8125	-10706
8199	-10707
8209	-10708
9232	-10709
9303	-10710
9331	-10711
9338	-10712
9881	-10713
cent	-10714
▁530	-10715
▁617	-10716
▁932	-10717
▁Jud	-10718
acque	-10719
ciale	-10720
▁2404	-10721
▁2804	-10722
▁3143	-10723
▁3893	-10724
▁6251	-10725
▁8356	-10726
▁8850	-10727
▁Mark	-10728
▁Sper	-10729
▁Yoko	-10730
▁bisc	-10731
▁copi	-10732
▁iron	-10733
▁symp	-10734
ercito	-10735
icated	-10736
idence	-10737
tabile	-10738
▁11033	-10739
▁11625	-10740
▁65321	-10741
▁dagli	-10742
▁juice	-10743
▁nause	-10744
▁salut	-10745
▁veter	-10746
vamente	-10747
▁Things	-10748
▁houses	-10749
▁nearly	-10750
▁punito	-10751
▁Avreste	-10752
▁bambine	-10753
▁illegal	-10754
▁mancato	-10755
▁piaccio	-10756
▁salvato	-10757
▁scusare	-10758
▁signora	-10759
▁apprezzo	-10760
▁microsco	-10761
▁funzionerà	-10762
▁decisamente	-10763
▁ragionevole	-10764
gth	-10765
▁Of	-10766
0131	-10767
0138	-10768
0189	-10769
5360	-10770
5435	-10771
5476	-10772
5496	-10773
5611	-10774
5647	-10775
7078	-10776
7130	-10777
7204	-10778
7458	-10779
8104	-10780
8135	-10781
8152	-10782
8157	-10783
8263	-10784
8389	-10785
9230	-10786
9336	-10787
9432	-10788
9553	-10789
9595	-10790
9648	-10791
9654	-10792
9703	-10793
9771	-10794
9794	-10795
9850	-10796
atri	-10797
▁589	-10798
▁909	-10799
▁941	-10800
▁sne	-10801
▁1647	-10802
▁3053	-10803
▁3961	-10804
▁5611	-10805
▁6140	-10806
▁7984	-10807
▁8651	-10808
▁adul	-10809
▁alti	-10810
▁ammi	-10811
▁dita	-10812
▁fabb	-10813
▁thin	-10814
entale	-10815
imenti	-10816
▁10904	-10817
▁11225	-10818
▁22027	-10819
▁26490	-10820
▁blocc	-10821
▁fever	-10822
▁freed	-10823
▁insul	-10824
▁tells	-10825
▁appear	-10826
▁drives	-10827
▁riscal	-10828
▁addosso	-10829
▁request	-10830
▁silence	-10831
▁bistecca	-10832
▁Conoscete	-10833
▁destroyed	-10834
▁fortunati	-10835
▁emozionato	-10836
▁linguaggio	-10837
▁presentato	-10838
▁infastidito	-10839
ako	-10840
▁sd	-10841
0002	-10842
0209	-10843
0218	-10844
2683	-10845
5142	-10846
5179	-10847
5602	-10848
5633	-10849
7115	-10850
7311	-10851
7583	-10852
7894	-10853
8134	-10854
8254	-10855
8274	-10856
8324	-10857
8400	-10858
8445	-10859
8694	-10860
9138	-10861
9164	-10862
9218	-10863
9221	-10864
9356	-10865
9400	-10866
9557	-10867
9600	-10868
9603	-10869
9675	-10870
9699	-10871
erve	-10872
ongo	-10873
gherà	-10874
▁2583	-10875
▁2662	-10876
▁4363	-10877
▁5335	-10878
▁7114	-10879
▁7342	-10880
▁7473	-10881
▁7891	-10882
▁8723	-10883
▁9064	-10884
▁Hold	-10885
▁Vend	-10886
▁proc	-10887
▁11292	-10888
▁11548	-10889
▁11710	-10890
▁18861	-10891
▁39108	-10892
▁74104	-10893
▁Islam	-10894
▁Sarai	-10895
▁cazzo	-10896
▁dovrà	-10897
▁liter	-10898
▁relie	-10899
▁Ricord	-10900
▁fooled	-10901
▁novels	-10902
▁paying	-10903
▁solved	-10904
▁andremo	-10905
▁intrapp	-10906
▁options	-10907
▁protegg	-10908
▁toccato	-10909
▁wealthy	-10910
▁enjoying	-10911
▁mancherà	-10912
▁suddenly	-10913
▁suitcase	-10914
▁chiamarla	-10915
'?	-10916
edo	-10917
ery	-10918
pio	-10919
▁Fo	-10920
0122	-10921
0235	-10922
0263	-10923
0300	-10924
0439	-10925
0618	-10926
5172	-10927
5462	-10928
7223	-10929
7251	-10930
7352	-10931
7446	-10932
7503	-10933
7584	-10934
7792	-10935
7859	-10936
8182	-10937
8195	-10938
8228	-10939
8319	-10940
8325	-10941
8611	-10942
8615	-10943
8676	-10944
8682	-10945
9176	-10946
9602	-10947
cles	-10948
cond	-10949
ents	-10950
lica	-10951
▁tor	-10952
Where	-10953
liano	-10954
▁1159	-10955
▁1168	-10956
▁2301	-10957
▁2374	-10958
▁4644	-10959
▁5114	-10960
▁5724	-10961
▁5771	-10962
▁6522	-10963
▁8292	-10964
▁9706	-10965
▁Brit	-10966
▁Park	-10967
▁cool	-10968
▁zona	-10969
erable	-10970
▁11090	-10971
▁11096	-10972
▁39158	-10973
▁84803	-10974
▁Latin	-10975
▁Nulla	-10976
▁aspir	-10977
▁clock	-10978
▁darle	-10979
▁leggi	-10980
▁lower	-10981
▁mette	-10982
▁third	-10983
▁Robert	-10984
▁odiate	-10985
▁pietra	-10986
▁riserv	-10987
▁signed	-10988
▁viveva	-10989
▁develop	-10990
▁divenne	-10991
▁sopravv	-10992
▁troverà	-10993
▁canceled	-10994
▁fermarla	-10995
▁piovendo	-10996
▁rovinato	-10997
▁utilizza	-10998
▁Instagram	-10999
▁acconsenti	-11000
▁osservando	-11001
▁disponibile	-11002
▁examination	-11003
▁soddisfatta	-11004
0217	-11005
0282	-11006
0313	-11007
0635	-11008
0651	-11009
5176	-11010
5420	-11011
5433	-11012
5469	-11013
5792	-11014
7411	-11015
7574	-11016
7579	-11017
7795	-11018
7883	-11019
8137	-11020
8241	-11021
8248	-11022
8336	-11023
8347	-11024
8667	-11025
9179	-11026
9337	-11027
9353	-11028
9364	-11029
9427	-11030
9574	-11031
9657	-11032
9878	-11033
▁429	-11034
▁818	-11035
▁865	-11036
▁Bri	-11037
▁Luc	-11038
▁hea	-11039
Islam	-11040
inosa	-11041
▁2233	-11042
▁2852	-11043
▁3360	-11044
▁3373	-11045
▁5692	-11046
▁6034	-11047
▁6706	-11048
▁6873	-11049
▁7736	-11050
▁9935	-11051
▁Dato	-11052
▁Fuji	-11053
▁Taro	-11054
▁diss	-11055
▁ears	-11056
▁main	-11057
▁tech	-11058
▁turb	-11059
▁veri	-11060
▁vivi	-11061
▁11641	-11062
▁20114	-11063
▁39055	-11064
▁Farei	-11065
▁Nancy	-11066
▁brand	-11067
▁exerc	-11068
▁tanti	-11069
▁thief	-11070
itudine	-11071
▁Choose	-11072
▁bianca	-11073
▁scoppi	-11074
▁volevi	-11075
▁cookies	-11076
▁dentist	-11077
▁dropped	-11078
▁removed	-11079
▁stories	-11080
▁amicizia	-11081
▁concentr	-11082
▁maglione	-11083
▁propriet	-11084
▁reasonable	-11085
cin	-11086
cue	-11087
0107	-11088
0227	-11089
0304	-11090
0433	-11091
0612	-11092
0634	-11093
0662	-11094
5330	-11095
5390	-11096
5446	-11097
5492	-11098
7058	-11099
7081	-11100
7088	-11101
7292	-11102
7381	-11103
7450	-11104
7451	-11105
7465	-11106
7593	-11107
7612	-11108
7876	-11109
8101	-11110
8132	-11111
8158	-11112
8189	-11113
8202	-11114
8203	-11115
8272	-11116
8294	-11117
8601	-11118
8625	-11119
9475	-11120
9590	-11121
9594	-11122
9618	-11123
9975	-11124
ague	-11125
▁Hur	-11126
▁sha	-11127
infer	-11128
▁2531	-11129
▁3356	-11130
▁5345	-11131
▁5825	-11132
▁7071	-11133
▁8991	-11134
▁9531	-11135
▁eroe	-11136
▁grad	-11137
▁hadn	-11138
▁22356	-11139
▁28216	-11140
▁Incon	-11141
▁capir	-11142
▁crude	-11143
▁dirvi	-11144
▁false	-11145
▁irres	-11146
▁obbli	-11147
▁ruppe	-11148
▁altern	-11149
▁caused	-11150
▁easier	-11151
▁locale	-11152
▁mostri	-11153
▁occhio	-11154
▁cucchia	-11155
▁giornal	-11156
▁managed	-11157
▁players	-11158
▁rivista	-11159
▁sincere	-11160
▁windows	-11161
▁dentista	-11162
▁pulsante	-11163
▁disperato	-11164
▁irritated	-11165
▁pantaloni	-11166
▁migliorare	-11167
▁spettacolo	-11168
bbo	-11169
bur	-11170
0198	-11171
0274	-11172
0277	-11173
0279	-11174
0316	-11175
0408	-11176
0498	-11177
5396	-11178
5479	-11179
5639	-11180
5771	-11181
7071	-11182
7096	-11183
7097	-11184
7173	-11185
7300	-11186
7448	-11187
7467	-11188
7610	-11189
7637	-11190
7783	-11191
8106	-11192
8139	-11193
8140	-11194
8141	-11195
8146	-11196
8187	-11197
8238	-11198
8291	-11199
8420	-11200
8639	-11201
8651	-11202
8677	-11203
8886	-11204
9016	-11205
9033	-11206
9442	-11207
9446	-11208
9506	-11209
9637	-11210
9997	-11211
chie	-11212
gave	-11213
inse	-11214
jban	-11215
rane	-11216
view	-11217
writ	-11218
▁mot	-11219
arate	-11220
esimo	-11221
idero	-11222
▁1931	-11223
▁2538	-11224
▁3100	-11225
▁3592	-11226
▁3892	-11227
▁5949	-11228
▁6271	-11229
▁6696	-11230
▁7767	-11231
▁elev	-11232
▁hell	-11233
▁meth	-11234
▁nerd	-11235
▁reso	-11236
▁20466	-11237
▁39180	-11238
▁ahead	-11239
▁attiv	-11240
▁esist	-11241
▁mouse	-11242
▁prize	-11243
▁saputo	-11244
▁starts	-11245
▁stelle	-11246
▁esperto	-11247
▁forgave	-11248
▁lamente	-11249
▁opzioni	-11250
▁arriverà	-11251
▁finestre	-11252
▁Pinocchio	-11253
▁straniere	-11254
▁succedere	-11255
▁conosciamo	-11256
▁chiaramente	-11257
icy	-11258
0074	-11259
0110	-11260
0173	-11261
0223	-11262
0276	-11263
0380	-11264
0613	-11265
0680	-11266
5322	-11267
5338	-11268
5375	-11269
5397	-11270
5414	-11271
5451	-11272
5477	-11273
5594	-11274
7240	-11275
7285	-11276
7324	-11277
7331	-11278
7371	-11279
7654	-11280
8109	-11281
8131	-11282
8159	-11283
8210	-11284
8214	-11285
8408	-11286
8606	-11287
9071	-11288
9084	-11289
9174	-11290
9219	-11291
9224	-11292
9281	-11293
9332	-11294
9395	-11295
9669	-11296
9671	-11297
9688	-11298
9808	-11299
9870	-11300
9991	-11301
▁928	-11302
▁Bar	-11303
▁upd	-11304
ality	-11305
isola	-11306
▁1311	-11307
▁1461	-11308
▁2270	-11309
▁2362	-11310
▁2614	-11311
▁3222	-11312
▁3314	-11313
▁3635	-11314
▁3731	-11315
▁4423	-11316
▁5334	-11317
▁5786	-11318
▁6043	-11319
▁6668	-11320
▁6896	-11321
▁7783	-11322
▁Buon	-11323
▁coni	-11324
▁irre	-11325
▁pork	-11326
▁11711	-11327
▁39031	-11328
▁85264	-11329
▁Haven	-11330
▁Think	-11331
▁affer	-11332
▁bacio	-11333
▁foste	-11334
▁habit	-11335
▁hurts	-11336
▁stars	-11337
▁succo	-11338
▁compra	-11339
▁flying	-11340
▁regola	-11341
▁ringra	-11342
▁sapevi	-11343
▁uscita	-11344
▁educato	-11345
▁privato	-11346
▁sweater	-11347
▁Continua	-11348
▁creative	-11349
▁fissando	-11350
▁programm	-11351
▁trovarli	-11352
▁domattina	-11353
rì	-11354
cai	-11355
pes	-11356
rsi	-11357
▁Ed	-11358
0099	-11359
0175	-11360
0633	-11361
5186	-11362
5384	-11363
5429	-11364
5437	-11365
5439	-11366
5490	-11367
5493	-11368
5617	-11369
5631	-11370
5634	-11371
7050	-11372
7350	-11373
7351	-11374
7453	-11375
7592	-11376
7602	-11377
7649	-11378
7700	-11379
7703	-11380
7791	-11381
7809	-11382
7893	-11383
8111	-11384
8122	-11385
8144	-11386
8161	-11387
8196	-11388
8249	-11389
8288	-11390
8298	-11391
8360	-11392
8375	-11393
8661	-11394
8662	-11395
8874	-11396
9216	-11397
9375	-11398
9386	-11399
9587	-11400
9608	-11401
9619	-11402
9628	-11403
9631	-11404
9692	-11405
9698	-11406
9892	-11407
9895	-11408
9990	-11409
vali	-11410
▁479	-11411
▁845	-11412
▁914	-11413
▁Gen	-11414
▁Sud	-11415
isted	-11416
lling	-11417
shirt	-11418
using	-11419
▁1912	-11420
▁3185	-11421
▁3211	-11422
▁4431	-11423
▁4715	-11424
▁4990	-11425
▁5721	-11426
▁6143	-11427
▁Però	-11428
▁modi	-11429
▁sons	-11430
▁toil	-11431
organi	-11432
▁10123	-11433
▁11728	-11434
▁Greek	-11435
▁Obama	-11436
▁numer	-11437
▁pasto	-11438
▁pomod	-11439
▁serie	-11440
▁speed	-11441
▁tatua	-11442
▁vinse	-11443
▁Berlin	-11444
▁Mayuko	-11445
▁barely	-11446
▁cadere	-11447
▁guests	-11448
▁liberi	-11449
▁violin	-11450
▁Stavamo	-11451
▁abitato	-11452
▁indovin	-11453
▁stomaco	-11454
▁annoiata	-11455
▁conoscono	-11456
▁divertite	-11457
▁incoraggi	-11458
▁pessimistic	-11459
mig	-11460
▁ge	-11461
0420	-11462
0627	-11463
0628	-11464
0643	-11465
0656	-11466
0660	-11467
0687	-11468
0688	-11469
5371	-11470
5430	-11471
5627	-11472
5649	-11473
5686	-11474
7163	-11475
7433	-11476
7441	-11477
7442	-11478
7559	-11479
7598	-11480
7873	-11481
8136	-11482
8143	-11483
8197	-11484
8295	-11485
8333	-11486
8345	-11487
8352	-11488
8608	-11489
8622	-11490
9029	-11491
9064	-11492
9065	-11493
9188	-11494
9390	-11495
9398	-11496
9409	-11497
9444	-11498
9449	-11499
9481	-11500
9801	-11501
9880	-11502
9954	-11503
▁Add	-11504
▁env	-11505
▁gym	-11506
▁iss	-11507
▁psy	-11508
erate	-11509
▁1663	-11510
▁2741	-11511
▁2893	-11512
▁2962	-11513
▁3377	-11514
▁3534	-11515
▁5631	-11516
▁6205	-11517
▁8163	-11518
▁weap	-11519
ensore	-11520
tional	-11521
▁10536	-11522
▁Cercò	-11523
▁Riman	-11524
▁bugia	-11525
▁calze	-11526
▁lingu	-11527
▁pazza	-11528
▁sauce	-11529
▁scusa	-11530
ostante	-11531
▁attemp	-11532
▁discou	-11533
▁ground	-11534
▁method	-11535
▁prices	-11536
▁priest	-11537
▁reserv	-11538
▁appears	-11539
▁guadagn	-11540
▁neither	-11541
▁risolto	-11542
▁bathroom	-11543
▁becoming	-11544
▁chiacchi	-11545
▁continuò	-11546
▁infastid	-11547
▁messages	-11548
▁position	-11549
▁discutere	-11550
▁definitely	-11551
▁funzionare	-11552
▁personally	-11553
▁preferirei	-11554
▁madrelingua	-11555
▁partecipato	-11556
▁ok	-11557
0240	-11558
0254	-11559
0605	-11560
0652	-11561
0663	-11562
5112	-11563
5173	-11564
5362	-11565
5417	-11566
5431	-11567
5494	-11568
5616	-11569
5687	-11570
7184	-11571
7219	-11572
7248	-11573
7391	-11574
7423	-11575
7576	-11576
7578	-11577
7585	-11578
7651	-11579
7875	-11580
8118	-11581
8127	-11582
8205	-11583
8236	-11584
8271	-11585
8299	-11586
8315	-11587
8383	-11588
8692	-11589
8695	-11590
9146	-11591
9225	-11592
9323	-11593
9392	-11594
9453	-11595
9461	-11596
9653	-11597
9683	-11598
9770	-11599
9973	-11600
angh	-11601
ases	-11602
▁569	-11603
▁Jan	-11604
▁saf	-11605
▁sgu	-11606
gnant	-11607
itore	-11608
liare	-11609
ostro	-11610
ously	-11611
▁1345	-11612
▁2092	-11613
▁2206	-11614
▁2352	-11615
▁2728	-11616
▁2912	-11617
▁3241	-11618
▁3538	-11619
▁4854	-11620
▁5344	-11621
▁6216	-11622
▁6352	-11623
▁6742	-11624
▁7681	-11625
▁9703	-11626
▁9714	-11627
▁civi	-11628
▁coca	-11629
▁espl	-11630
▁teat	-11631
ically	-11632
▁10490	-11633
▁11289	-11634
▁28212	-11635
▁74444	-11636
▁White	-11637
▁mucca	-11638
▁persi	-11639
▁sdrai	-11640
▁stood	-11641
▁Forget	-11642
▁Ritorn	-11643
▁malati	-11644
▁minimo	-11645
▁pagata	-11646
▁storie	-11647
▁tomato	-11648
▁urgent	-11649
▁Farebbe	-11650
▁Provate	-11651
▁approve	-11652
▁confirm	-11653
▁firmato	-11654
▁freedom	-11655
▁individ	-11656
▁soldati	-11657
▁wounded	-11658
▁affamate	-11659
▁magazine	-11660
▁potresti	-11661
▁vergogna	-11662
iny	-11663
ris	-11664
0191	-11665
0262	-11666
0620	-11667
0623	-11668
5347	-11669
5378	-11670
5438	-11671
5470	-11672
5483	-11673
5618	-11674
5622	-11675
5629	-11676
5655	-11677
5852	-11678
7100	-11679
7253	-11680
7611	-11681
8108	-11682
8225	-11683
8262	-11684
8281	-11685
8286	-11686
8314	-11687
8341	-11688
8425	-11689
8637	-11690
8660	-11691
8668	-11692
9062	-11693
9153	-11694
9260	-11695
9291	-11696
9294	-11697
9378	-11698
9388	-11699
9436	-11700
9585	-11701
9663	-11702
9883	-11703
9981	-11704
anna	-11705
bbio	-11706
liar	-11707
▁139	-11708
▁Cla	-11709
▁1063	-11710
▁1535	-11711
▁1814	-11712
▁2461	-11713
▁2511	-11714
▁2522	-11715
▁3149	-11716
▁3150	-11717
▁3653	-11718
▁4242	-11719
▁4581	-11720
▁4624	-11721
▁4893	-11722
▁5921	-11723
▁6743	-11724
▁7407	-11725
▁7773	-11726
▁8486	-11727
▁carp	-11728
▁peel	-11729
▁voti	-11730
▁11745	-11731
▁20121	-11732
▁Hurry	-11733
▁field	-11734
▁parag	-11735
▁rimar	-11736
▁umore	-11737
▁Sarete	-11738
▁caccia	-11739
▁condiv	-11740
▁finger	-11741
▁grosso	-11742
▁spalle	-11743
▁spends	-11744
▁amazing	-11745
▁ascolti	-11746
▁credeva	-11747
▁foresta	-11748
▁pronoun	-11749
▁urgente	-11750
▁illegale	-11751
▁chiamarlo	-11752
▁confessed	-11753
▁suggerito	-11754
▁cioccolata	-11755
,"	-11756
BI	-11757
Di	-11758
rlo	-11759
0241	-11760
5072	-11761
5169	-11762
5178	-11763
5326	-11764
5416	-11765
5456	-11766
5481	-11767
5495	-11768
5797	-11769
5800	-11770
7074	-11771
7076	-11772
7090	-11773
7103	-11774
7140	-11775
7182	-11776
7230	-11777
7348	-11778
7388	-11779
7393	-11780
7489	-11781
7505	-11782
7798	-11783
7805	-11784
7851	-11785
7885	-11786
7897	-11787
8112	-11788
8130	-11789
8198	-11790
8244	-11791
8278	-11792
8422	-11793
8640	-11794
8642	-11795
8689	-11796
9160	-11797
9191	-11798
9199	-11799
9217	-11800
9223	-11801
9411	-11802
9454	-11803
9485	-11804
9503	-11805
9624	-11806
9629	-11807
9638	-11808
9672	-11809
9686	-11810
9696	-11811
9697	-11812
9874	-11813
▁640	-11814
▁813	-11815
▁Mil	-11816
▁sou	-11817
inawa	-11818
urare	-11819
▁1523	-11820
▁2439	-11821
▁2947	-11822
▁3204	-11823
▁3282	-11824
▁3508	-11825
▁5348	-11826
▁6471	-11827
▁7911	-11828
▁fila	-11829
leased	-11830
▁84776	-11831
▁Senza	-11832
▁Three	-11833
▁coinc	-11834
▁farle	-11835
▁porte	-11836
▁spari	-11837
▁tooth	-11838
▁trovo	-11839
▁umano	-11840
▁usual	-11841
▁Insegn	-11842
▁colour	-11843
▁credit	-11844
▁dubbio	-11845
▁writes	-11846
▁Berlino	-11847
▁Finland	-11848
▁Okinawa	-11849
▁Shouldn	-11850
▁tornate	-11851
▁bandiera	-11852
▁francobo	-11853
▁imbarazz	-11854
▁progress	-11855
▁trovarle	-11856
▁character	-11857
▁indossava	-11858
▁coraggiosa	-11859
▁fotografie	-11860
▁friendship	-11861
▁ridiculous	-11862
▁parcheggiare	-11863
▁profondamente	-11864
lex	-11865
0132	-11866
0233	-11867
0445	-11868
0639	-11869
5406	-11870
5413	-11871
5682	-11872
5877	-11873
7094	-11874
7102	-11875
7128	-11876
7252	-11877
7325	-11878
7332	-11879
7378	-11880
7379	-11881
7626	-11882
7682	-11883
7854	-11884
7857	-11885
7877	-11886
8100	-11887
8148	-11888
8151	-11889
8181	-11890
8207	-11891
8266	-11892
8275	-11893
8279	-11894
8649	-11895
8675	-11896
8894	-11897
9009	-11898
9055	-11899
9059	-11900
9141	-11901
9173	-11902
9222	-11903
9363	-11904
9365	-11905
9457	-11906
9508	-11907
9593	-11908
9610	-11909
9685	-11910
9875	-11911
9979	-11912
9984	-11913
imam	-11914
roat	-11915
▁545	-11916
▁Nuo	-11917
▁caf	-11918
▁kno	-11919
▁mir	-11920
arest	-11921
astro	-11922
bborn	-11923
china	-11924
menta	-11925
▁1149	-11926
▁1741	-11927
▁1802	-11928
▁2457	-11929
▁2884	-11930
▁3041	-11931
▁3557	-11932
▁4397	-11933
▁4667	-11934
▁5042	-11935
▁5608	-11936
▁6142	-11937
▁6736	-11938
▁7014	-11939
▁dito	-11940
▁lady	-11941
▁nera	-11942
angolo	-11943
attoli	-11944
▁11709	-11945
▁18864	-11946
▁21118	-11947
▁appla	-11948
▁breat	-11949
▁calli	-11950
▁coach	-11951
▁colpi	-11952
▁conse	-11953
▁esper	-11954
▁favou	-11955
▁ordin	-11956
▁ovvio	-11957
▁porto	-11958
ologist	-11959
▁anello	-11960
▁hockey	-11961
▁latino	-11962
▁mobile	-11963
▁mostrò	-11964
▁slight	-11965
▁assicur	-11966
▁classes	-11967
▁ovunque	-11968
▁pioverà	-11969
▁prepare	-11970
▁ridendo	-11971
▁stavamo	-11972
▁Potremmo	-11973
▁abbracci	-11974
▁chiamano	-11975
▁fantasmi	-11976
▁midnight	-11977
▁original	-11978
▁stubborn	-11979
▁successi	-11980
▁whatever	-11981
▁challenge	-11982
▁knowledge	-11983
▁combattere	-11984
▁fallimento	-11985
▁mezzanotte	-11986
▁underestimated	-11987
ky	-11988
ray	-11989
▁Pr	-11990
0182	-11991
0238	-11992
0305	-11993
0425	-11994
0444	-11995
0640	-11996
0686	-11997
5125	-11998
5327	-11999
5381	-12000
5428	-12001
5679	-12002
7116	-12003
7466	-12004
7556	-12005
7673	-12006
7698	-12007
7774	-12008
7802	-12009
7808	-12010
7856	-12011
7871	-12012
7879	-12013
8110	-12014
8133	-12015
8242	-12016
8387	-12017
8392	-12018
8603	-12019
8638	-12020
8645	-12021
9002	-12022
9051	-12023
9147	-12024
9197	-12025
9215	-12026
9240	-12027
9295	-12028
9308	-12029
9490	-12030
9509	-12031
9554	-12032
9572	-12033
9584	-12034
9661	-12035
9689	-12036
9857	-12037
Euro	-12038
gori	-12039
urie	-12040
▁Mos	-12041
▁Smo	-12042
▁ria	-12043
asses	-12044
entle	-12045
▁1999	-12046
▁2282	-12047
▁2314	-12048
▁3224	-12049
▁5072	-12050
▁5372	-12051
▁6545	-12052
▁6945	-12053
▁7041	-12054
▁8667	-12055
▁8701	-12056
▁army	-12057
▁diet	-12058
▁loss	-12059
▁pros	-12060
▁rubò	-12061
▁11095	-12062
▁11840	-12063
▁calmo	-12064
▁forno	-12065
▁prete	-12066
▁rains	-12067
▁spera	-12068
▁swear	-12069
▁umani	-12070
▁vanta	-12071
▁cugino	-12072
▁genius	-12073
▁nipote	-12074
▁disgust	-12075
▁fidarmi	-12076
▁impazzi	-12077
▁sbarazz	-12078
▁theater	-12079
▁uccello	-12080
▁Speriamo	-12081
▁asciugam	-12082
▁cantando	-12083
▁deserves	-12084
▁fermarlo	-12085
▁nuotando	-12086
▁ottenuto	-12087
▁seguendo	-12088
▁ubriachi	-12089
▁lamentele	-12090
▁preparata	-12091
▁ragazzino	-12092
▁discovered	-12093
▁incontrate	-12094
▁preferisce	-12095
▁neighborhood	-12096
0174	-12097
0236	-12098
0269	-12099
0606	-12100
0609	-12101
0622	-12102
5181	-12103
5229	-12104
5289	-12105
5331	-12106
5370	-12107
5403	-12108
5434	-12109
5442	-12110
5448	-12111
5473	-12112
5613	-12113
5619	-12114
5690	-12115
7231	-12116
7298	-12117
7306	-12118
7403	-12119
7439	-12120
7452	-12121
7507	-12122
7570	-12123
7772	-12124
7782	-12125
7898	-12126
8211	-12127
8282	-12128
8287	-12129
8296	-12130
8297	-12131
8338	-12132
8342	-12133
8424	-12134
8438	-12135
8455	-12136
8610	-12137
8647	-12138
8653	-12139
9091	-12140
9148	-12141
9171	-12142
9189	-12143
9204	-12144
9213	-12145
9261	-12146
9273	-12147
9287	-12148
9296	-12149
9351	-12150
9370	-12151
9377	-12152
9424	-12153
9578	-12154
9583	-12155
9586	-12156
9599	-12157
9633	-12158
9679	-12159
ettu	-12160
ggiò	-12161
tivi	-12162
▁968	-12163
▁Dia	-12164
agger	-12165
▁1141	-12166
▁1142	-12167
▁1553	-12168
▁1730	-12169
▁1922	-12170
▁2950	-12171
▁3518	-12172
▁3525	-12173
▁3641	-12174
▁4344	-12175
▁4517	-12176
▁5190	-12177
▁5690	-12178
▁5750	-12179
▁7164	-12180
▁7663	-12181
▁darà	-12182
▁sess	-12183
▁vedi	-12184
▁yach	-12185
▁34033	-12186
▁39150	-12187
▁Monte	-12188
▁fuggi	-12189
▁lento	-12190
▁pelle	-12191
▁scusi	-12192
▁trovi	-12193
▁vende	-12194
landese	-12195
writing	-12196
▁Scegli	-12197
▁avermi	-12198
▁corner	-12199
▁depart	-12200
▁lunghe	-12201
▁pieces	-12202
▁retire	-12203
▁rimase	-12204
▁rispon	-12205
▁anziani	-12206
▁arguing	-12207
▁terremo	-12208
▁trapped	-12209
▁disoccup	-12210
▁invented	-12211
▁attraente	-12212
▁interesse	-12213
▁religione	-12214
▁scrittore	-12215
▁straniera	-12216
▁condizioni	-12217
▁incontrata	-12218
0003	-12219
0303	-12220
0311	-12221
0340	-12222
0621	-12223
0670	-12224
5180	-12225
5374	-12226
5392	-12227
5395	-12228
5415	-12229
5620	-12230
5652	-12231
5685	-12232
5775	-12233
7051	-12234
7092	-12235
7117	-12236
7162	-12237
7289	-12238
7398	-12239
7426	-12240
7474	-12241
7554	-12242
7571	-12243
7640	-12244
7653	-12245
7672	-12246
7951	-12247
8115	-12248
8121	-12249
8150	-12250
8173	-12251
8201	-12252
8212	-12253
8220	-12254
8320	-12255
8371	-12256
8382	-12257
8409	-12258
8658	-12259
9048	-12260
9060	-12261
9143	-12262
9293	-12263
9304	-12264
9325	-12265
9340	-12266
9352	-12267
9360	-12268
9403	-12269
9440	-12270
9598	-12271
9630	-12272
9651	-12273
9682	-12274
9793	-12275
9807	-12276
9956	-12277
hama	-12278
olio	-12279
▁819	-12280
▁ist	-12281
genza	-12282
▁1109	-12283
▁1512	-12284
▁2734	-12285
▁3112	-12286
▁3125	-12287
▁6212	-12288
▁6265	-12289
▁7034	-12290
▁7442	-12291
▁alte	-12292
▁larg	-12293
▁mone	-12294
▁oper	-12295
▁stru	-12296
▁unbe	-12297
▁22414	-12298
▁22431	-12299
▁39208	-12300
▁74011	-12301
▁Babbo	-12302
▁Money	-12303
▁genio	-12304
▁grass	-12305
▁prude	-12306
▁febbre	-12307
▁fisica	-12308
▁hugged	-12309
▁kicked	-12310
▁nearby	-12311
▁though	-12312
▁avremmo	-12313
▁confusa	-12314
▁toccare	-12315
▁tradito	-12316
▁Prenderò	-12317
▁Yokohama	-12318
▁pranzare	-12319
▁superare	-12320
▁advantage	-12321
▁happiness	-12322
▁piacevole	-12323
▁conosciuta	-12324
▁conosciuti	-12325
▁ultimamente	-12326
ju	-12327
amp	-12328
bed	-12329
ilo	-12330
umo	-12331
▁Or	-12332
0113	-12333
0128	-12334
0130	-12335
0162	-12336
0194	-12337
0270	-12338
0337	-12339
0478	-12340
0488	-12341
0619	-12342
0648	-12343
5122	-12344
5156	-12345
5246	-12346
5273	-12347
5316	-12348
5382	-12349
5391	-12350
5418	-12351
5453	-12352
7125	-12353
7171	-12354
7481	-12355
7494	-12356
7601	-12357
7627	-12358
7657	-12359
7675	-12360
7678	-12361
7752	-12362
7781	-12363
7899	-12364
8147	-12365
8170	-12366
8190	-12367
8217	-12368
8226	-12369
8247	-12370
8252	-12371
8289	-12372
8293	-12373
8463	-12374
8464	-12375
8467	-12376
8614	-12377
8628	-12378
8685	-12379
8887	-12380
9052	-12381
9099	-12382
9196	-12383
9212	-12384
9228	-12385
9259	-12386
9286	-12387
9305	-12388
9324	-12389
9362	-12390
9387	-12391
9609	-12392
9615	-12393
9650	-12394
9681	-12395
9691	-12396
9756	-12397
9792	-12398
9800	-12399
9879	-12400
9884	-12401
erry	-12402
tolo	-12403
▁430	-12404
▁Ess	-12405
▁Joe	-12406
loyed	-12407
offer	-12408
quila	-12409
▁1815	-12410
▁2037	-12411
▁2904	-12412
▁3426	-12413
▁3431	-12414
▁3546	-12415
▁5646	-12416
▁6636	-12417
▁7049	-12418
▁7252	-12419
▁8002	-12420
▁8378	-12421
▁9708	-12422
▁anne	-12423
▁bush	-12424
▁caro	-12425
▁frit	-12426
▁neck	-12427
▁rabb	-12428
Europa	-12429
aranno	-12430
uzioni	-12431
ventur	-12432
▁20143	-12433
▁Check	-12434
▁Start	-12435
▁doors	-12436
▁fashi	-12437
▁motor	-12438
▁salsa	-12439
▁screw	-12440
albergo	-12441
offerta	-12442
▁Avanti	-12443
▁giusti	-12444
▁proced	-12445
ttamente	-12446
▁abbiano	-12447
▁cognome	-12448
▁inutile	-12449
▁qualcos	-12450
▁commenti	-12451
▁compagni	-12452
▁comprerà	-12453
▁deceived	-12454
▁disagree	-12455
▁discussed	-12456
▁insegnando	-12457
▁vegetarian	-12458
▁calligrafia	-12459
iac	-12460
▁Sy	-12461
0200	-12462
0367	-12463
0404	-12464
0460	-12465
0484	-12466
5144	-12467
5145	-12468
5157	-12469
5185	-12470
5270	-12471
5286	-12472
5333	-12473
5337	-12474
5342	-12475
5368	-12476
5388	-12477
5458	-12478
5465	-12479
5612	-12480
5694	-12481
5699	-12482
5886	-12483
7132	-12484
7262	-12485
7303	-12486
7329	-12487
7347	-12488
7375	-12489
7425	-12490
7429	-12491
7432	-12492
7594	-12493
8128	-12494
8171	-12495
8268	-12496
8306	-12497
8366	-12498
8398	-12499
8401	-12500
8407	-12501
8423	-12502
8602	-12503
8604	-12504
8616	-12505
9135	-12506
9161	-12507
9181	-12508
9289	-12509
9368	-12510
9434	-12511
9474	-12512
9573	-12513
9604	-12514
9612	-12515
9627	-12516
9678	-12517
9970	-12518
9971	-12519
geon	-12520
▁Buy	-12521
▁Mex	-12522
▁har	-12523
▁oli	-12524
▁uso	-12525
icura	-12526
▁1574	-12527
▁1884	-12528
▁2512	-12529
▁2697	-12530
▁3352	-12531
▁3395	-12532
▁3803	-12533
▁4530	-12534
▁5358	-12535
▁6290	-12536
▁6770	-12537
▁7097	-12538
▁8922	-12539
▁Cant	-12540
▁Lucy	-12541
▁cusc	-12542
▁effe	-12543
intera	-12544
▁22836	-12545
▁25461	-12546
▁65322	-12547
▁85213	-12548
▁Provi	-12549
▁amato	-12550
▁andar	-12551
▁impic	-12552
▁pasti	-12553
▁provi	-12554
▁traff	-12555
▁Chiama	-12556
▁candid	-12557
▁compri	-12558
▁places	-12559
zzazione	-12560
▁Ascolta	-12561
▁Fareste	-12562
▁guidato	-12563
▁instruc	-12564
▁independ	-12565
▁invitati	-12566
▁scoraggi	-12567
▁soldiers	-12568
▁threaten	-12569
▁interrupt	-12570
▁ourselves	-12571
▁preoccupa	-12572
▁sfortunato	-12573
▁temperature	-12574
▁preoccupatevi	-12575
asa	-12576
pus	-12577
▁Ah	-12578
0071	-12579
0075	-12580
0139	-12581
0264	-12582
0293	-12583
0410	-12584
0417	-12585
0601	-12586
5351	-12587
5355	-12588
5363	-12589
5394	-12590
5573	-12591
5581	-12592
5583	-12593
5588	-12594
5663	-12595
5668	-12596
5697	-12597
5784	-12598
5799	-12599
7004	-12600
7055	-12601
7072	-12602
7110	-12603
7341	-12604
7420	-12605
7440	-12606
7496	-12607
7500	-12608
7575	-12609
7656	-12610
7753	-12611
7895	-12612
8251	-12613
8307	-12614
8309	-12615
8327	-12616
8376	-12617
8607	-12618
8673	-12619
9022	-12620
9025	-12621
9034	-12622
9100	-12623
9140	-12624
9198	-12625
9264	-12626
9334	-12627
9354	-12628
9430	-12629
9551	-12630
9575	-12631
9580	-12632
9635	-12633
9660	-12634
9775	-12635
9809	-12636
9888	-12637
9896	-12638
9897	-12639
9972	-12640
9974	-12641
ampi	-12642
fabe	-12643
▁Tre	-12644
▁eli	-12645
▁mul	-12646
anzia	-12647
orter	-12648
▁1541	-12649
▁2216	-12650
▁2674	-12651
▁2816	-12652
▁2921	-12653
▁2933	-12654
▁2955	-12655
▁3144	-12656
▁3424	-12657
▁6264	-12658
▁6448	-12659
▁9707	-12660
▁bast	-12661
▁bull	-12662
▁ener	-12663
▁fatt	-12664
▁gang	-12665
▁imit	-12666
▁obey	-12667
▁size	-12668
▁sodo	-12669
▁topo	-12670
▁voca	-12671
ctions	-12672
liable	-12673
▁10796	-12674
▁11866	-12675
▁87311	-12676
▁dieta	-12677
▁email	-12678
▁hello	-12679
▁hesit	-12680
▁persa	-12681
▁sposò	-12682
▁tedes	-12683
▁uncon	-12684
▁volto	-12685
▁weigh	-12686
veranno	-12687
▁Faccio	-12688
▁fascin	-12689
▁hardly	-12690
▁interf	-12691
▁photos	-12692
▁pratic	-12693
▁testim	-12694
▁artista	-12695
▁conferm	-12696
▁contemp	-12697
▁stomach	-12698
▁criminal	-12699
▁distance	-12700
▁lasciata	-12701
▁prenderà	-12702
▁universe	-12703
▁volevate	-12704
▁troveremo	-12705
▁handwriting	-12706
gga	-12707
0134	-12708
0202	-12709
0244	-12710
0271	-12711
0309	-12712
0477	-12713
0615	-12714
0649	-12715
0658	-12716
0685	-12717
0689	-12718
5175	-12719
5276	-12720
5298	-12721
5320	-12722
5356	-12723
5457	-12724
5509	-12725
5671	-12726
5689	-12727
5794	-12728
5853	-12729
7075	-12730
7183	-12731
7185	-12732
7203	-12733
7234	-12734
7263	-12735
7267	-12736
7279	-12737
7330	-12738
7343	-12739
7354	-12740
7389	-12741
7487	-12742
7628	-12743
7662	-12744
7779	-12745
7786	-12746
8129	-12747
8168	-12748
8179	-12749
8183	-12750
8200	-12751
8354	-12752
8377	-12753
8386	-12754
8417	-12755
8426	-12756
8432	-12757
8489	-12758
8681	-12759
8688	-12760
8851	-12761
8892	-12762
9156	-12763
9169	-12764
9237	-12765
9244	-12766
9252	-12767
9258	-12768
9290	-12769
9343	-12770
9406	-12771
9407	-12772
9425	-12773
9579	-12774
9623	-12775
9643	-12776
osen	-12777
▁aug	-12778
▁kil	-12779
▁1165	-12780
▁2732	-12781
▁3010	-12782
▁3016	-12783
▁3260	-12784
▁3402	-12785
▁3663	-12786
▁3744	-12787
▁3802	-12788
▁5536	-12789
▁6173	-12790
▁6540	-12791
▁8921	-12792
▁Last	-12793
ording	-12794
▁21111	-12795
▁39034	-12796
▁39163	-12797
▁65313	-12798
▁addic	-12799
▁airpl	-12800
▁brush	-12801
▁calci	-12802
▁corse	-12803
▁entrò	-12804
▁farsi	-12805
▁scale	-12806
▁strad	-12807
▁towel	-12808
emember	-12809
▁Chiesi	-12810
▁Napole	-12811
▁calcul	-12812
▁dargli	-12813
▁difend	-12814
▁disori	-12815
▁gentle	-12816
▁insist	-12817
▁lunghi	-12818
▁pushed	-12819
insalata	-12820
ressione	-12821
▁abitano	-12822
▁avreste	-12823
▁failure	-12824
▁piccoli	-12825
▁accusato	-12826
▁chiamerà	-12827
▁orecchie	-12828
▁parlarne	-12829
fortunately	-12830
▁attractive	-12831
▁pericolosa	-12832
▁abbandonato	-12833
"?	-12834
▁El	-12835
0055	-12836
0114	-12837
0154	-12838
0197	-12839
0324	-12840
0383	-12841
0391	-12842
0399	-12843
0447	-12844
0463	-12845
0600	-12846
0614	-12847
0629	-12848
0653	-12849
0676	-12850
0699	-12851
5131	-12852
5291	-12853
5332	-12854
5489	-12855
5506	-12856
5609	-12857
5646	-12858
7083	-12859
7093	-12860
7133	-12861
7239	-12862
7249	-12863
7287	-12864
7334	-12865
7392	-12866
7430	-12867
7462	-12868
7558	-12869
7617	-12870
7631	-12871
7633	-12872
7645	-12873
7660	-12874
7776	-12875
7858	-12876
8332	-12877
8363	-12878
8480	-12879
8641	-12880
8899	-12881
9008	-12882
9010	-12883
9013	-12884
9056	-12885
9058	-12886
9079	-12887
9090	-12888
9205	-12889
9246	-12890
9251	-12891
9279	-12892
9280	-12893
9292	-12894
9341	-12895
9383	-12896
9447	-12897
9581	-12898
9706	-12899
9853	-12900
9951	-12901
arth	-12902
itor	-12903
oles	-12904
teri	-12905
uses	-12906
utte	-12907
▁Fum	-12908
▁Via	-12909
▁une	-12910
esday	-12911
hotel	-12912
▁1883	-12913
▁3334	-12914
▁3419	-12915
▁3590	-12916
▁4634	-12917
▁6174	-12918
▁6288	-12919
▁6699	-12920
▁7544	-12921
▁7726	-12922
▁7772	-12923
▁8425	-12924
▁9007	-12925
▁Budd	-12926
▁fiam	-12927
▁fido	-12928
▁finì	-12929
▁moda	-12930
▁sala	-12931
icando	-12932
▁39087	-12933
▁65324	-12934
▁Santa	-12935
▁cande	-12936
▁dubbi	-12937
▁fatte	-12938
▁grato	-12939
▁scort	-12940
▁sesso	-12941
▁stick	-12942
▁umili	-12943
▁yacht	-12944
▁Studio	-12945
▁blamed	-12946
▁compia	-12947
▁coppia	-12948
▁riesca	-12949
▁scient	-12950
▁credete	-12951
▁credito	-12952
▁interro	-12953
▁saresti	-12954
olarmente	-12955
▁Remember	-12956
▁articolo	-12957
▁careless	-12958
▁indipend	-12959
▁scappare	-12960
▁traffico	-12961
esperienza	-12962
▁Christian	-12963
▁andarmene	-12964
▁aspettava	-12965
▁assistant	-12966
▁lasciarlo	-12967
▁opportunity	-12968
cif	-12969
lip	-12970
rel	-12971
urd	-12972
0059	-12973
0133	-12974
0205	-12975
0219	-12976
0250	-12977
0273	-12978
0283	-12979
0292	-12980
0297	-12981
0338	-12982
0342	-12983
0344	-12984
0394	-12985
0450	-12986
0632	-12987
0636	-12988
0664	-12989
0697	-12990
5111	-12991
5301	-12992
5309	-12993
5324	-12994
5345	-12995
5443	-12996
5450	-12997
5570	-12998
5598	-12999
5648	-13000
5651	-13001
7152	-13002
7167	-13003
7208	-13004
7213	-13005
7254	-13006
7260	-13007
7284	-13008
7305	-13009
7333	-13010
7337	-13011
7400	-13012
7410	-13013
7417	-13014
7435	-13015
7436	-13016
7457	-13017
7493	-13018
7605	-13019
7634	-13020
7663	-13021
7665	-13022
7666	-13023
7670	-13024
7756	-13025
7852	-13026
7855	-13027
8177	-13028
8194	-13029
8290	-13030
8357	-13031
8359	-13032
8437	-13033
8454	-13034
8479	-13035
8491	-13036
8600	-13037
8882	-13038
8896	-13039
9043	-13040
9054	-13041
9081	-13042
9194	-13043
9245	-13044
9326	-13045
9329	-13046
9376	-13047
9441	-13048
9452	-13049
9465	-13050
9489	-13051
9525	-13052
9636	-13053
9805	-13054
9889	-13055
osse	-13056
ouch	-13057
tato	-13058
vene	-13059
▁Shi	-13060
▁Vis	-13061
▁tip	-13062
ially	-13063
▁1662	-13064
▁2401	-13065
▁2812	-13066
▁2958	-13067
▁3413	-13068
▁3643	-13069
▁5105	-13070
▁5336	-13071
▁5592	-13072
▁5824	-13073
▁6151	-13074
▁7045	-13075
▁8021	-13076
▁8162	-13077
▁8322	-13078
▁8423	-13079
▁8927	-13080
▁evil	-13081
▁iPad	-13082
▁surr	-13083
▁10992	-13084
▁37323	-13085
▁39138	-13086
▁impre	-13087
▁insta	-13088
▁picci	-13089
▁respi	-13090
▁tornò	-13091
▁anyway	-13092
▁cenato	-13093
▁relati	-13094
▁sugges	-13095
▁teatro	-13096
▁toller	-13097
▁vicine	-13098
▁Without	-13099
▁dichiar	-13100
▁lavando	-13101
▁nervosi	-13102
▁related	-13103
▁riscald	-13104
▁tornati	-13105
▁cleaning	-13106
▁generale	-13107
▁giornali	-13108
▁mangiate	-13109
▁pleasure	-13110
▁Americans	-13111
▁annullato	-13112
▁attaccato	-13113
▁favourite	-13114
▁introduce	-13115
▁disaccordo	-13116
▁divertenti	-13117
▁direttamente	-13118
▁terribilmente	-13119
ux	-13120
0249	-13121
0253	-13122
0275	-13123
0451	-13124
0570	-13125
0603	-13126
0608	-13127
0624	-13128
0637	-13129
0682	-13130
5113	-13131
5184	-13132
5204	-13133
5231	-13134
5308	-13135
5367	-13136
5426	-13137
5468	-13138
5558	-13139
5600	-13140
5610	-13141
5615	-13142
5640	-13143
5641	-13144
5654	-13145
5666	-13146
5670	-13147
5796	-13148
7001	-13149
7106	-13150
7107	-13151
7123	-13152
7280	-13153
7281	-13154
7301	-13155
7310	-13156
7373	-13157
7390	-13158
7416	-13159
7445	-13160
7460	-13161
7639	-13162
7661	-13163
7679	-13164
7804	-13165
7807	-13166
7881	-13167
8239	-13168
8284	-13169
8304	-13170
8326	-13171
8367	-13172
8373	-13173
8435	-13174
8471	-13175
8644	-13176
8650	-13177
8686	-13178
8877	-13179
8881	-13180
9005	-13181
9007	-13182
9115	-13183
9158	-13184
9168	-13185
9172	-13186
9267	-13187
9302	-13188
9355	-13189
9361	-13190
9426	-13191
9429	-13192
9458	-13193
9460	-13194
9555	-13195
9588	-13196
9616	-13197
9620	-13198
9680	-13199
cast	-13200
ging	-13201
uded	-13202
▁2074	-13203
▁2230	-13204
▁2617	-13205
▁2968	-13206
▁3408	-13207
▁4724	-13208
▁5330	-13209
▁5979	-13210
▁6691	-13211
▁7890	-13212
▁8704	-13213
▁Hand	-13214
▁affe	-13215
▁avrò	-13216
▁dozz	-13217
ggiate	-13218
▁26463	-13219
▁39032	-13220
▁Close	-13221
▁Earth	-13222
▁Fammi	-13223
▁Learn	-13224
▁calma	-13225
▁cosci	-13226
▁helps	-13227
▁limit	-13228
▁pants	-13229
▁rugby	-13230
▁sells	-13231
▁vuoto	-13232
uccello	-13233
▁affron	-13234
▁banane	-13235
▁compet	-13236
▁diario	-13237
▁membro	-13238
▁memory	-13239
▁negozi	-13240
▁poesie	-13241
▁scivol	-13242
▁strapp	-13243
▁toilet	-13244
ombrello	-13245
▁Mettete	-13246
▁captain	-13247
▁exagger	-13248
▁fortune	-13249
▁frigori	-13250
▁Chiamate	-13251
▁comprerò	-13252
▁distanza	-13253
▁infelici	-13254
▁sostitui	-13255
▁convincere	-13256
0100	-13257
0115	-13258
0208	-13259
0228	-13260
0248	-13261
0302	-13262
0333	-13263
0341	-13264
0674	-13265
5104	-13266
5171	-13267
5203	-13268
5287	-13269
5314	-13270
5366	-13271
5383	-13272
5423	-13273
5427	-13274
5463	-13275
5491	-13276
5606	-13277
5667	-13278
5790	-13279
7079	-13280
7082	-13281
7105	-13282
7186	-13283
7206	-13284
7242	-13285
7270	-13286
7275	-13287
7318	-13288
7427	-13289
7468	-13290
7469	-13291
7573	-13292
7589	-13293
7635	-13294
7636	-13295
7644	-13296
7694	-13297
8237	-13298
8283	-13299
8305	-13300
8380	-13301
8393	-13302
8395	-13303
8493	-13304
8494	-13305
8669	-13306
8893	-13307
9151	-13308
9214	-13309
9241	-13310
9247	-13311
9266	-13312
9276	-13313
9322	-13314
9373	-13315
9437	-13316
9438	-13317
9487	-13318
9559	-13319
9645	-13320
9659	-13321
arsh	-13322
usse	-13323
▁814	-13324
▁985	-13325
▁Bre	-13326
▁Tua	-13327
▁nin	-13328
inale	-13329
▁2143	-13330
▁2737	-13331
▁2824	-13332
▁2964	-13333
▁3412	-13334
▁3794	-13335
▁3841	-13336
▁4298	-13337
▁5390	-13338
▁6320	-13339
▁6586	-13340
▁8456	-13341
▁8883	-13342
▁Abit	-13343
▁Judy	-13344
▁Nara	-13345
▁Pona	-13346
▁Toki	-13347
▁okay	-13348
▁sbri	-13349
▁11270	-13350
▁11915	-13351
▁Cerca	-13352
▁cadde	-13353
▁impul	-13354
▁micro	-13355
▁risks	-13356
▁rivel	-13357
▁scien	-13358
▁vetro	-13359
azienda	-13360
▁Madrid	-13361
▁member	-13362
▁modern	-13363
▁funeral	-13364
▁kissing	-13365
▁planted	-13366
▁portata	-13367
▁scusato	-13368
▁sedersi	-13369
▁vendita	-13370
vviamente	-13371
▁describe	-13372
▁pazienti	-13373
▁raccolto	-13374
▁spending	-13375
▁tradotto	-13376
▁assonnata	-13377
▁interfere	-13378
▁trasferito	-13379
▁continuamente	-13380
ues	-13381
▁ep	-13382
0137	-13383
0204	-13384
0207	-13385
0232	-13386
0266	-13387
0308	-13388
0471	-13389
0479	-13390
0503	-13391
0641	-13392
0667	-13393
0668	-13394
0669	-13395
5110	-13396
5197	-13397
5230	-13398
5283	-13399
5353	-13400
5380	-13401
5387	-13402
5474	-13403
5480	-13404
5599	-13405
5604	-13406
5623	-13407
5643	-13408
5674	-13409
5793	-13410
5854	-13411
5893	-13412
7052	-13413
7154	-13414
7168	-13415
7174	-13416
7216	-13417
7235	-13418
7237	-13419
7259	-13420
7261	-13421
7265	-13422
7266	-13423
7271	-13424
7274	-13425
7313	-13426
7362	-13427
7405	-13428
7495	-13429
7600	-13430
7609	-13431
7669	-13432
7696	-13433
7754	-13434
7896	-13435
7982	-13436
8164	-13437
8280	-13438
8292	-13439
8313	-13440
8322	-13441
8365	-13442
8406	-13443
8495	-13444
8620	-13445
8648	-13446
8663	-13447
8678	-13448
8687	-13449
9001	-13450
9014	-13451
9036	-13452
9086	-13453
9087	-13454
9127	-13455
9200	-13456
9284	-13457
9344	-13458
9358	-13459
9418	-13460
9664	-13461
9751	-13462
9859	-13463
9890	-13464
gata	-13465
olic	-13466
▁occ	-13467
▁tes	-13468
atics	-13469
tains	-13470
vello	-13471
▁1230	-13472
▁1552	-13473
▁1852	-13474
▁1874	-13475
▁1977	-13476
▁2188	-13477
▁2264	-13478
▁3283	-13479
▁3491	-13480
▁3531	-13481
▁5716	-13482
▁6128	-13483
▁7534	-13484
▁8535	-13485
▁8881	-13486
▁9233	-13487
▁Racc	-13488
▁capt	-13489
▁gall	-13490
▁hill	-13491
▁inte	-13492
▁publ	-13493
▁sham	-13494
▁26441	-13495
▁49835	-13496
▁89123	-13497
▁Corre	-13498
▁Segui	-13499
▁andai	-13500
▁awful	-13501
▁belli	-13502
▁bruci	-13503
▁reads	-13504
▁tante	-13505
improvv	-13506
▁begins	-13507
▁musulm	-13508
▁notato	-13509
▁permit	-13510
▁ragion	-13511
▁saving	-13512
▁sciocc	-13513
▁sentii	-13514
▁British	-13515
▁compren	-13516
▁energia	-13517
▁fingers	-13518
▁hearing	-13519
▁lettura	-13520
▁naziona	-13521
▁nuotato	-13522
▁trovati	-13523
▁appeared	-13524
▁bloccato	-13525
▁comments	-13526
▁corretto	-13527
▁opinioni	-13528
▁prendete	-13529
▁sapevate	-13530
▁sentirsi	-13531
▁speciali	-13532
▁standing	-13533
▁trovarmi	-13534
improvviso	-13535
▁ambitious	-13536
▁aspetterò	-13537
▁straniero	-13538
▁spaventati	-13539
▁commerciale	-13540
▁frigorifero	-13541
0201	-13542
0220	-13543
0230	-13544
0234	-13545
0288	-13546
0310	-13547
0312	-13548
0346	-13549
0377	-13550
0398	-13551
0402	-13552
0436	-13553
0457	-13554
0459	-13555
0474	-13556
0572	-13557
0661	-13558
0693	-13559
5108	-13560
5138	-13561
5139	-13562
5207	-13563
5215	-13564
5219	-13565
5272	-13566
5293	-13567
5307	-13568
5339	-13569
5359	-13570
5361	-13571
5625	-13572
5698	-13573
5756	-13574
5871	-13575
5896	-13576
6772	-13577
7134	-13578
7160	-13579
7190	-13580
7241	-13581
7246	-13582
7247	-13583
7256	-13584
7268	-13585
7361	-13586
7412	-13587
7422	-13588
7428	-13589
7449	-13590
7470	-13591
7614	-13592
7622	-13593
7664	-13594
7684	-13595
7874	-13596
7880	-13597
8114	-13598
8169	-13599
8224	-13600
8235	-13601
8257	-13602
8316	-13603
8348	-13604
8356	-13605
8372	-13606
8436	-13607
8609	-13608
8634	-13609
9023	-13610
9030	-13611
9150	-13612
9152	-13613
9203	-13614
9206	-13615
9239	-13616
9335	-13617
9367	-13618
9394	-13619
9396	-13620
9401	-13621
9422	-13622
9450	-13623
9455	-13624
9665	-13625
9804	-13626
9858	-13627
9876	-13628
9898	-13629
anie	-13630
ppio	-13631
tene	-13632
▁880	-13633
▁foc	-13634
▁oce	-13635
▁unf	-13636
▁van	-13637
gando	-13638
ugged	-13639
volto	-13640
▁1088	-13641
▁1098	-13642
▁1494	-13643
▁1936	-13644
▁2400	-13645
▁3333	-13646
▁3541	-13647
▁3651	-13648
▁4529	-13649
▁5470	-13650
▁5591	-13651
▁5956	-13652
▁6132	-13653
▁9734	-13654
▁abba	-13655
▁bite	-13656
▁forz	-13657
▁inso	-13658
▁pill	-13659
chiare	-13660
entato	-13661
▁11400	-13662
▁18414	-13663
▁30243	-13664
▁37324	-13665
▁39149	-13666
▁85266	-13667
▁brain	-13668
▁dorme	-13669
▁fieri	-13670
▁pigra	-13671
▁stren	-13672
▁tasti	-13673
▁andava	-13674
▁cancro	-13675
▁minore	-13676
▁perder	-13677
▁sedere	-13678
▁usando	-13679
▁cheated	-13680
▁kidding	-13681
▁sguardo	-13682
▁towards	-13683
indirizzo	-13684
▁Continuò	-13685
▁Controll	-13686
▁Mangiate	-13687
▁discreet	-13688
▁familiar	-13689
▁religion	-13690
▁research	-13691
▁sposarsi	-13692
▁tornando	-13693
▁connection	-13694
xed	-13695
▁Na	-13696
0105	-13697
0111	-13698
0124	-13699
0136	-13700
0177	-13701
0183	-13702
0261	-13703
0267	-13704
0280	-13705
0352	-13706
0358	-13707
0401	-13708
0413	-13709
0443	-13710
0446	-13711
0455	-13712
0616	-13713
0657	-13714
0671	-13715
0692	-13716
5058	-13717
5170	-13718
5278	-13719
5300	-13720
5336	-13721
5407	-13722
5409	-13723
5411	-13724
5471	-13725
5500	-13726
5557	-13727
5579	-13728
5586	-13729
5636	-13730
5876	-13731
7053	-13732
7073	-13733
7077	-13734
7104	-13735
7138	-13736
7142	-13737
7153	-13738
7170	-13739
7179	-13740
7264	-13741
7291	-13742
7296	-13743
7315	-13744
7319	-13745
7413	-13746
7443	-13747
7459	-13748
7463	-13749
7501	-13750
7506	-13751
7648	-13752
7659	-13753
7695	-13754
7773	-13755
7778	-13756
7975	-13757
7981	-13758
8117	-13759
8138	-13760
8276	-13761
8311	-13762
8358	-13763
8421	-13764
8476	-13765
8477	-13766
8612	-13767
8621	-13768
8624	-13769
8636	-13770
8652	-13771
8654	-13772
8674	-13773
8683	-13774
9047	-13775
9050	-13776
9080	-13777
9162	-13778
9226	-13779
9345	-13780
9357	-13781
9366	-13782
9372	-13783
9374	-13784
9443	-13785
9464	-13786
9558	-13787
9626	-13788
9658	-13789
9666	-13790
9676	-13791
9891	-13792
▁580	-13793
▁Mel	-13794
idera	-13795
verai	-13796
▁1139	-13797
▁1316	-13798
▁1343	-13799
▁2094	-13800
▁3088	-13801
▁3359	-13802
▁3536	-13803
▁3761	-13804
▁3922	-13805
▁4015	-13806
▁4274	-13807
▁4569	-13808
▁4751	-13809
▁5755	-13810
▁6108	-13811
▁6343	-13812
▁6944	-13813
▁7563	-13814
▁None	-13815
▁Paul	-13816
▁dete	-13817
▁irri	-13818
▁meto	-13819
ularly	-13820
▁11494	-13821
▁23611	-13822
▁65231	-13823
▁begun	-13824
▁diary	-13825
▁nuota	-13826
▁organ	-13827
ggiando	-13828
ulation	-13829
▁Iniziò	-13830
▁School	-13831
▁chiede	-13832
▁chiesi	-13833
▁faceva	-13834
▁karate	-13835
▁motivo	-13836
▁nacque	-13837
▁season	-13838
▁collect	-13839
▁concern	-13840
▁contagi	-13841
▁dovette	-13842
▁elected	-13843
▁interna	-13844
▁matters	-13845
▁vecchie	-13846
▁cambierà	-13847
▁collabor	-13848
▁ignoring	-13849
▁interpre	-13850
▁riparato	-13851
▁contribui	-13852
▁scioccato	-13853
▁viaggiato	-13854
▁chiacchier	-13855
▁istruzioni	-13856
▁instructions	-13857
zu	-13858
ili	-13859
0072	-13860
0243	-13861
0289	-13862
0350	-13863
0356	-13864
0396	-13865
0645	-13866
0677	-13867
5126	-13868
5132	-13869
5148	-13870
5303	-13871
5310	-13872
5344	-13873
5398	-13874
5400	-13875
5484	-13876
5574	-13877
5589	-13878
5607	-13879
5653	-13880
5683	-13881
5703	-13882
5795	-13883
7095	-13884
7111	-13885
7209	-13886
7227	-13887
7250	-13888
7273	-13889
7278	-13890
7323	-13891
7339	-13892
7357	-13893
7380	-13894
7438	-13895
7475	-13896
7483	-13897
7484	-13898
7498	-13899
7557	-13900
7572	-13901
7608	-13902
7615	-13903
7655	-13904
7671	-13905
7683	-13906
7686	-13907
7794	-13908
8107	-13909
8166	-13910
8230	-13911
8250	-13912
8378	-13913
8396	-13914
8419	-13915
8472	-13916
8618	-13917
8626	-13918
8635	-13919
8657	-13920
8664	-13921
9066	-13922
9083	-13923
9131	-13924
9132	-13925
9195	-13926
9249	-13927
9439	-13928
9477	-13929
9486	-13930
9494	-13931
9556	-13932
9621	-13933
9806	-13934
erba	-13935
usta	-13936
▁428	-13937
▁728	-13938
▁Odi	-13939
▁Rid	-13940
▁Sit	-13941
istro	-13942
▁1066	-13943
▁1545	-13944
▁2449	-13945
▁2631	-13946
▁2788	-13947
▁2981	-13948
▁3124	-13949
▁4247	-13950
▁5051	-13951
▁5353	-13952
▁5596	-13953
▁5747	-13954
▁6603	-13955
▁Turk	-13956
▁ansi	-13957
▁evid	-13958
▁farf	-13959
eteria	-13960
ingere	-13961
veremo	-13962
▁18860	-13963
▁42441	-13964
▁77062	-13965
▁bassa	-13966
▁crush	-13967
▁dallo	-13968
▁owner	-13969
▁spell	-13970
▁Laurie	-13971
▁Mostra	-13972
▁accust	-13973
▁attore	-13974
▁betray	-13975
▁caduta	-13976
▁desire	-13977
▁gotten	-13978
▁interp	-13979
▁mathem	-13980
▁offend	-13981
▁quante	-13982
▁rubata	-13983
icamente	-13984
▁Secondo	-13985
▁beating	-13986
▁journal	-13987
▁selling	-13988
▁andarono	-13989
▁ignorato	-13990
▁misunder	-13991
▁palestra	-13992
▁cafeteria	-13993
▁interview	-13994
▁motivated	-13995
▁ricordate	-13996
▁svegliata	-13997
▁dimentichi	-13998
▁downstairs	-13999
▁sopravviss	-14000
The	-14001
icò	-14002
ugu	-14003
umb	-14004
0009	-14005
0148	-14006
0171	-14007
0196	-14008
0222	-14009
0299	-14010
0319	-14011
0320	-14012
0400	-14013
0423	-14014
0440	-14015
0441	-14016
0465	-14017
0646	-14018
0655	-14019
0659	-14020
0684	-14021
0698	-14022
5137	-14023
5174	-14024
5195	-14025
5196	-14026
5292	-14027
5325	-14028
5340	-14029
5377	-14030
5386	-14031
5404	-14032
5425	-14033
5449	-14034
5572	-14035
5605	-14036
5695	-14037
5803	-14038
5805	-14039
5850	-14040
5975	-14041
7070	-14042
7089	-14043
7113	-14044
7172	-14045
7177	-14046
7188	-14047
7257	-14048
7297	-14049
7353	-14050
7387	-14051
7419	-14052
7447	-14053
7454	-14054
7473	-14055
7488	-14056
7699	-14057
7751	-14058
7793	-14059
7953	-14060
7992	-14061
8216	-14062
8227	-14063
8405	-14064
8441	-14065
8468	-14066
8888	-14067
9015	-14068
9020	-14069
9093	-14070
9119	-14071
9124	-14072
9163	-14073
9167	-14074
9183	-14075
9320	-14076
9321	-14077
9350	-14078
9402	-14079
9552	-14080
9589	-14081
9632	-14082
9690	-14083
9802	-14084
9854	-14085
9885	-14086
aled	-14087
ards	-14088
▁935	-14089
▁agi	-14090
▁cic	-14091
▁pel	-14092
▁zom	-14093
ccoli	-14094
▁1522	-14095
▁1561	-14096
▁1611	-14097
▁2034	-14098
▁2395	-14099
▁3043	-14100
▁3140	-14101
▁3311	-14102
▁3410	-14103
▁3854	-14104
▁4258	-14105
▁4582	-14106
▁5727	-14107
▁6033	-14108
▁6091	-14109
▁6902	-14110
▁7532	-14111
▁7551	-14112
▁8013	-14113
▁8733	-14114
▁9702	-14115
▁ripe	-14116
▁sees	-14117
▁toss	-14118
etting	-14119
▁10021	-14120
▁23341	-14121
▁26952	-14122
▁Scord	-14123
▁cerca	-14124
▁fiato	-14125
▁forse	-14126
▁mappa	-14127
▁merit	-14128
▁punti	-14129
▁ricor	-14130
▁sangu	-14131
▁shape	-14132
▁starà	-14133
▁stile	-14134
▁effici	-14135
▁frutto	-14136
▁hammer	-14137
▁lesson	-14138
▁aumento	-14139
▁engaged	-14140
▁ingenuo	-14141
▁respond	-14142
▁tratten	-14143
▁funerale	-14144
▁interrog	-14145
▁possiede	-14146
▁salutare	-14147
▁argomento	-14148
▁consigliò	-14149
▁convincer	-14150
▁principale	-14151
▁Inghilterra	-14152
isy	-14153
umn	-14154
yle	-14155
0053	-14156
0181	-14157
0199	-14158
0213	-14159
0259	-14160
0345	-14161
0370	-14162
0395	-14163
0430	-14164
0468	-14165
0473	-14166
0490	-14167
0599	-14168
0647	-14169
0673	-14170
5140	-14171
5237	-14172
5313	-14173
5318	-14174
5346	-14175
5349	-14176
5350	-14177
5369	-14178
5441	-14179
5478	-14180
5502	-14181
5575	-14182
5590	-14183
5597	-14184
5632	-14185
5642	-14186
5660	-14187
5681	-14188
7084	-14189
7098	-14190
7099	-14191
7124	-14192
7139	-14193
7180	-14194
7205	-14195
7243	-14196
7299	-14197
7309	-14198
7321	-14199
7355	-14200
7408	-14201
7414	-14202
7431	-14203
7455	-14204
7596	-14205
7607	-14206
7616	-14207
7676	-14208
7688	-14209
8102	-14210
8188	-14211
8317	-14212
8340	-14213
8457	-14214
8617	-14215
8699	-14216
8853	-14217
8996	-14218
9021	-14219
9137	-14220
9275	-14221
9408	-14222
9412	-14223
9413	-14224
9431	-14225
9463	-14226
9476	-14227
9497	-14228
9570	-14229
9752	-14230
9856	-14231
9894	-14232
9899	-14233
dete	-14234
rent	-14235
▁869	-14236
▁999	-14237
▁Sas	-14238
▁rum	-14239
▁tac	-14240
aries	-14241
istan	-14242
landa	-14243
▁1872	-14244
▁2607	-14245
▁2846	-14246
▁3516	-14247
▁3571	-14248
▁5313	-14249
▁5815	-14250
▁5858	-14251
▁6733	-14252
▁6792	-14253
▁7798	-14254
▁8224	-14255
▁8482	-14256
▁9440	-14257
▁9821	-14258
▁bomb	-14259
▁reag	-14260
▁sele	-14261
▁vacc	-14262
glielo	-14263
tained	-14264
▁10181	-14265
▁39036	-14266
▁57321	-14267
▁67633	-14268
▁Peter	-14269
▁alger	-14270
▁aller	-14271
▁grown	-14272
▁inevi	-14273
▁plant	-14274
▁sbron	-14275
▁walks	-14276
▁Divent	-14277
▁amiamo	-14278
▁cittad	-14279
▁claust	-14280
▁clever	-14281
▁conduc	-14282
▁dipend	-14283
▁elenco	-14284
▁esiste	-14285
▁parked	-14286
▁Austria	-14287
▁Smoking	-14288
▁located	-14289
▁periodo	-14290
▁useless	-14291
zialmente	-14292
▁Entrambi	-14293
▁cervello	-14294
▁correndo	-14295
▁cucinato	-14296
▁discusso	-14297
▁politico	-14298
▁comprando	-14299
▁delizioso	-14300
▁intention	-14301
▁occasione	-14302
▁accustomed	-14303
▁noleggiare	-14304
0141	-14305
0184	-14306
0246	-14307
0278	-14308
0374	-14309
0416	-14310
0573	-14311
5162	-14312
5190	-14313
5263	-14314
5329	-14315
5348	-14316
5408	-14317
5436	-14318
5447	-14319
5460	-14320
5466	-14321
5603	-14322
5608	-14323
5645	-14324
5676	-14325
7056	-14326
7136	-14327
7192	-14328
7211	-14329
7226	-14330
7316	-14331
7367	-14332
7374	-14333
7399	-14334
7478	-14335
7502	-14336
7619	-14337
7621	-14338
7706	-14339
7984	-14340
8116	-14341
8273	-14342
8308	-14343
8384	-14344
8613	-14345
8629	-14346
8632	-14347
8879	-14348
9006	-14349
9032	-14350
9139	-14351
9201	-14352
9211	-14353
9235	-14354
9268	-14355
9297	-14356
9306	-14357
9327	-14358
9328	-14359
9333	-14360
9339	-14361
9417	-14362
9420	-14363
9469	-14364
9493	-14365
9495	-14366
9622	-14367
9774	-14368
9778	-14369
9871	-14370
9882	-14371
9953	-14372
cati	-14373
cete	-14374
entì	-14375
ides	-14376
▁Alz	-14377
▁Bas	-14378
▁odd	-14379
▁pit	-14380
etato	-14381
immag	-14382
resse	-14383
▁1143	-14384
▁1453	-14385
▁2107	-14386
▁2389	-14387
▁2416	-14388
▁2437	-14389
▁2608	-14390
▁2865	-14391
▁3122	-14392
▁3811	-14393
▁3861	-14394
▁5160	-14395
▁5992	-14396
▁6030	-14397
▁6051	-14398
▁6710	-14399
▁Shut	-14400
▁Then	-14401
▁dati	-14402
▁dumb	-14403
▁insu	-14404
▁scoi	-14405
▁spot	-14406
jected	-14407
▁10100	-14408
▁11723	-14409
▁11741	-14410
▁11876	-14411
▁39145	-14412
▁Diven	-14413
▁Inter	-14414
▁Verrà	-14415
▁dolci	-14416
▁spont	-14417
ceranno	-14418
▁Dubito	-14419
▁Saremo	-14420
▁cambiò	-14421
▁proper	-14422
▁shared	-14423
▁tirato	-14424
▁Parlerò	-14425
▁peccato	-14426
ascensore	-14427
▁aggiunto	-14428
▁contenta	-14429
▁fantasma	-14430
▁parliamo	-14431
▁celebrate	-14432
▁coinvolto	-14433
▁contraria	-14434
▁sigaretta	-14435
▁svegliare	-14436
▁amichevole	-14437
▁camminando	-14438
▁discussione	-14439
▁temperatura	-14440
▁affascinante	-14441
jud	-14442
lya	-14443
mia	-14444
0118	-14445
0159	-14446
0237	-14447
0251	-14448
0307	-14449
0392	-14450
0393	-14451
0403	-14452
0458	-14453
0462	-14454
0476	-14455
0499	-14456
0571	-14457
0582	-14458
0650	-14459
0665	-14460
5079	-14461
5146	-14462
5188	-14463
5221	-14464
5279	-14465
5297	-14466
5334	-14467
5373	-14468
5444	-14469
5445	-14470
5485	-14471
5621	-14472
5630	-14473
5684	-14474
5696	-14475
5751	-14476
7054	-14477
7086	-14478
7189	-14479
7221	-14480
7356	-14481
7364	-14482
7406	-14483
7437	-14484
7461	-14485
7479	-14486
7595	-14487
7597	-14488
7646	-14489
8193	-14490
8204	-14491
8221	-14492
8223	-14493
8349	-14494
8362	-14495
8385	-14496
8397	-14497
8414	-14498
8460	-14499
9018	-14500
9057	-14501
9072	-14502
9095	-14503
9114	-14504
9134	-14505
9136	-14506
9256	-14507
9299	-14508
9347	-14509
9404	-14510
9419	-14511
9428	-14512
9601	-14513
9607	-14514
9649	-14515
9677	-14516
9773	-14517
9877	-14518
Sono	-14519
cora	-14520
gnos	-14521
ulty	-14522
▁Day	-14523
▁Qui	-14524
▁Sus	-14525
apers	-14526
ayama	-14527
edito	-14528
impie	-14529
olino	-14530
▁1653	-14531
▁2132	-14532
▁2423	-14533
▁2516	-14534
▁2537	-14535
▁2768	-14536
▁2797	-14537
▁3213	-14538
▁3310	-14539
▁3371	-14540
▁5151	-14541
▁5955	-14542
▁6350	-14543
▁6476	-14544
▁6875	-14545
▁8020	-14546
▁8288	-14547
▁8372	-14548
▁8896	-14549
▁9211	-14550
▁chim	-14551
▁debb	-14552
▁femm	-14553
zation	-14554
▁45024	-14555
▁Aiuta	-14556
▁Parti	-14557
▁Silya	-14558
▁capac	-14559
▁cinqu	-14560
▁fully	-14561
▁kinds	-14562
▁poems	-14563
▁queen	-14564
▁sched	-14565
▁sings	-14566
▁unemp	-14567
▁woods	-14568
▁Studia	-14569
▁devast	-14570
▁doppio	-14571
▁fecero	-14572
▁hidden	-14573
▁ordinò	-14574
▁culture	-14575
▁drowned	-14576
▁insetti	-14577
▁largest	-14578
▁witness	-14579
▁batteria	-14580
▁internet	-14581
▁responsi	-14582
▁spegnere	-14583
▁americana	-14584
▁ammettere	-14585
▁bicchieri	-14586
▁ignorando	-14587
▁interessa	-14588
▁Ovviamente	-14589
▁differente	-14590
▁impaziente	-14591
▁successful	-14592
▁discouraged	-14593
▁interessate	-14594
▁nationality	-14595
bl	-14596
Tom	-14597
boy	-14598
mos	-14599
urs	-14600
urt	-14601
0101	-14602
0172	-14603
0226	-14604
0255	-14605
0268	-14606
0287	-14607
0295	-14608
0315	-14609
0327	-14610
0330	-14611
0368	-14612
0409	-14613
0431	-14614
0493	-14615
0497	-14616
0679	-14617
5089	-14618
5151	-14619
5163	-14620
5200	-14621
5304	-14622
5323	-14623
5365	-14624
5385	-14625
5410	-14626
5452	-14627
7057	-14628
7087	-14629
7108	-14630
7151	-14631
7258	-14632
7269	-14633
7482	-14634
7486	-14635
7623	-14636
7888	-14637
7993	-14638
8113	-14639
8231	-14640
8245	-14641
8318	-14642
8418	-14643
8442	-14644
8666	-14645
8693	-14646
8809	-14647
9019	-14648
9089	-14649
9105	-14650
9128	-14651
9133	-14652
9170	-14653
9175	-14654
9207	-14655
9257	-14656
9285	-14657
9301	-14658
9310	-14659
9330	-14660
9349	-14661
9385	-14662
9445	-14663
9467	-14664
9617	-14665
9687	-14666
9795	-14667
9995	-14668
base	-14669
elsi	-14670
unte	-14671
▁750	-14672
▁lup	-14673
▁rad	-14674
▁umi	-14675
anges	-14676
orale	-14677
orato	-14678
▁1120	-14679
▁1534	-14680
▁1934	-14681
▁2181	-14682
▁2427	-14683
▁2623	-14684
▁2729	-14685
▁3168	-14686
▁3385	-14687
▁3505	-14688
▁4669	-14689
▁5205	-14690
▁5711	-14691
▁9533	-14692
▁Gran	-14693
▁Rich	-14694
▁cipo	-14695
▁dott	-14696
▁fake	-14697
▁lack	-14698
▁owns	-14699
▁poll	-14700
▁teen	-14701
▁vent	-14702
▁virt	-14703
entive	-14704
▁10110	-14705
▁69021	-14706
▁abiti	-14707
▁amare	-14708
▁punct	-14709
infermi	-14710
▁Shangh	-14711
▁alzata	-14712
▁energe	-14713
▁gelosi	-14714
▁ghosts	-14715
▁gratis	-14716
▁2046775	-14717
▁climbed	-14718
▁effettu	-14719
▁lottery	-14720
▁minimum	-14721
▁uniform	-14722
▁Cominciò	-14723
▁capitare	-14724
▁database	-14725
▁trecento	-14726
▁corrected	-14727
▁nasconder	-14728
▁proposito	-14729
▁straordin	-14730
▁conoscerla	-14731
▁pessimista	-14732
▁nazionalità	-14733
▁dispiacerebbe	-14734
wi	-14735
bio	-14736
dri	-14737
0078	-14738
0096	-14739
0142	-14740
0321	-14741
0397	-14742
0418	-14743
0448	-14744
0466	-14745
0470	-14746
0494	-14747
0690	-14748
0782	-14749
5109	-14750
5136	-14751
5194	-14752
5202	-14753
5241	-14754
5243	-14755
5257	-14756
5265	-14757
5284	-14758
5288	-14759
5290	-14760
5412	-14761
5486	-14762
5635	-14763
5754	-14764
5973	-14765
7122	-14766
7175	-14767
7191	-14768
7326	-14769
7327	-14770
7328	-14771
7365	-14772
7368	-14773
7401	-14774
7490	-14775
7491	-14776
7613	-14777
7681	-14778
7790	-14779
7878	-14780
7892	-14781
7974	-14782
8394	-14783
8411	-14784
8462	-14785
8470	-14786
8484	-14787
8630	-14788
8631	-14789
8655	-14790
9106	-14791
9144	-14792
9154	-14793
9208	-14794
9271	-14795
9316	-14796
9381	-14797
9415	-14798
9470	-14799
9472	-14800
9483	-14801
9526	-14802
9596	-14803
9753	-14804
adio	-14805
erli	-14806
look	-14807
▁hel	-14808
▁mut	-14809
ckets	-14810
going	-14811
ornia	-14812
ustom	-14813
▁1724	-14814
▁1794	-14815
▁2411	-14816
▁3000	-14817
▁3012	-14818
▁3014	-14819
▁3231	-14820
▁3379	-14821
▁3463	-14822
▁3843	-14823
▁4207	-14824
▁6703	-14825
▁6951	-14826
▁7017	-14827
▁7025	-14828
▁7810	-14829
▁8726	-14830
▁vaso	-14831
▁vuln	-14832
▁10248	-14833
▁22036	-14834
▁25443	-14835
▁30231	-14836
▁34034	-14837
▁Leggi	-14838
▁Women	-14839
▁brown	-14840
▁dovrò	-14841
▁exams	-14842
▁labor	-14843
▁ought	-14844
▁tromb	-14845
▁unico	-14846
▁assume	-14847
▁cities	-14848
▁colori	-14849
▁farmer	-14850
▁jumped	-14851
▁master	-14852
▁simply	-14853
universo	-14854
▁consult	-14855
▁direbbe	-14856
▁scriver	-14857
▁stupidi	-14858
▁Mangiamo	-14859
▁electric	-14860
▁supporto	-14861
▁worrying	-14862
▁Translate	-14863
▁disorgani	-14864
▁pressione	-14865
▁conosciute	-14866
▁raggiunger	-14867
▁condividere	-14868
ds	-14869
0073	-14870
0092	-14871
0140	-14872
0147	-14873
0163	-14874
0185	-14875
0210	-14876
0239	-14877
0296	-14878
0314	-14879
0362	-14880
0373	-14881
0381	-14882
0415	-14883
0892	-14884
5130	-14885
5198	-14886
5214	-14887
5250	-14888
5285	-14889
5305	-14890
5312	-14891
5319	-14892
5321	-14893
5328	-14894
5376	-14895
5393	-14896
5475	-14897
5596	-14898
5692	-14899
5855	-14900
7101	-14901
7119	-14902
7156	-14903
7164	-14904
7166	-14905
7202	-14906
7312	-14907
7335	-14908
7360	-14909
7638	-14910
7652	-14911
7687	-14912
8001	-14913
8185	-14914
8192	-14915
8218	-14916
8269	-14917
8330	-14918
8353	-14919
8415	-14920
8429	-14921
8469	-14922
8487	-14923
8665	-14924
8854	-14925
8891	-14926
9024	-14927
9035	-14928
9112	-14929
9182	-14930
9242	-14931
9262	-14932
9283	-14933
9288	-14934
9318	-14935
9397	-14936
9484	-14937
9492	-14938
9500	-14939
9640	-14940
9662	-14941
9999	-14942
orsi	-14943
▁1991	-14944
▁2041	-14945
▁2820	-14946
▁2836	-14947
▁2867	-14948
▁3139	-14949
▁3329	-14950
▁3552	-14951
▁3735	-14952
▁3858	-14953
▁4231	-14954
▁4492	-14955
▁4841	-14956
▁5274	-14957
▁5340	-14958
▁5731	-14959
▁6086	-14960
▁6215	-14961
▁6594	-14962
▁6685	-14963
▁6694	-14964
▁7740	-14965
▁Sosp	-14966
▁adap	-14967
▁arre	-14968
▁baga	-14969
▁blow	-14970
▁guar	-14971
▁rise	-14972
▁whom	-14973
istico	-14974
▁10071	-14975
▁11035	-14976
▁11800	-14977
▁21117	-14978
▁28224	-14979
▁65312	-14980
▁charm	-14981
▁eleph	-14982
▁gliel	-14983
▁intri	-14984
▁jeans	-14985
▁opera	-14986
▁brutte	-14987
▁delete	-14988
▁noiosa	-14989
▁rescue	-14990
▁troppa	-14991
▁cammina	-14992
▁inverno	-14993
▁lamenta	-14994
▁lessons	-14995
▁partner	-14996
▁preparò	-14997
▁sparare	-14998
▁argument	-14999
▁elezioni	-15000
▁lavorano	-15001
▁lotteria	-15002
▁pregnant	-15003
▁stradale	-15004
▁strength	-15005
▁daughters	-15006
▁direzione	-15007
▁ingannato	-15008
▁innocence	-15009
▁stranieri	-15010
▁funzionando	-15011
▁migliorando	-15012
▁opportunità	-15013
FO	-15014
ral	-15015
▁sv	-15016
0089	-15017
0125	-15018
0167	-15019
0168	-15020
0186	-15021
0224	-15022
0245	-15023
0247	-15024
0265	-15025
0354	-15026
0378	-15027
0389	-15028
0414	-15029
0421	-15030
0438	-15031
0452	-15032
0469	-15033
0630	-15034
0642	-15035
0678	-15036
5129	-15037
5161	-15038
5209	-15039
5252	-15040
5306	-15041
5454	-15042
5628	-15043
5661	-15044
5874	-15045
5899	-15046
7144	-15047
7150	-15048
7197	-15049
7207	-15050
7229	-15051
7409	-15052
7421	-15053
7472	-15054
7485	-15055
7625	-15056
8119	-15057
8180	-15058
8233	-15059
8301	-15060
8323	-15061
8364	-15062
8403	-15063
8410	-15064
8412	-15065
8434	-15066
8465	-15067
8474	-15068
8496	-15069
8605	-15070
8672	-15071
8800	-15072
9027	-15073
9037	-15074
9088	-15075
9096	-15076
9157	-15077
9165	-15078
9243	-15079
9253	-15080
9277	-15081
9382	-15082
9391	-15083
9393	-15084
9399	-15085
9410	-15086
9414	-15087
9496	-15088
9504	-15089
9614	-15090
9634	-15091
9656	-15092
9851	-15093
9887	-15094
anic	-15095
vata	-15096
▁Egy	-15097
▁Rep	-15098
▁hon	-15099
inati	-15100
menia	-15101
quake	-15102
▁2385	-15103
▁2908	-15104
▁2914	-15105
▁3392	-15106
▁3406	-15107
▁3837	-15108
▁4241	-15109
▁4534	-15110
▁4583	-15111
▁5572	-15112
▁6443	-15113
▁6546	-15114
▁7438	-15115
▁7489	-15116
▁7554	-15117
▁8636	-15118
▁8833	-15119
▁Anna	-15120
▁Suon	-15121
▁nudo	-15122
▁reci	-15123
▁sexy	-15124
▁stro	-15125
▁unli	-15126
arente	-15127
▁10896	-15128
▁19514	-15129
▁30244	-15130
▁39120	-15131
▁Roman	-15132
▁Suona	-15133
▁facts	-15134
▁lesse	-15135
▁notes	-15136
▁paren	-15137
▁skinn	-15138
▁spesa	-15139
▁stink	-15140
glasses	-15141
▁Quelli	-15142
▁acting	-15143
▁advise	-15144
▁azioni	-15145
▁compos	-15146
▁deeply	-15147
▁object	-15148
▁thanks	-15149
▁advance	-15150
▁collina	-15151
▁improba	-15152
▁incinta	-15153
▁keeping	-15154
▁piccole	-15155
▁scritta	-15156
▁service	-15157
▁suppose	-15158
▁violino	-15159
▁keyboard	-15160
▁scettico	-15161
▁spontane	-15162
▁tagliare	-15163
▁aiuteremo	-15164
▁paranoico	-15165
▁scomparso	-15166
▁terrified	-15167
▁contattare	-15168
▁earthquake	-15169
▁incredible	-15170
▁orgogliosi	-15171
▁comfortable	-15172
▁acconsentito	-15173
▁discretamente	-15174
wor	-15175
0070	-15176
0187	-15177
0192	-15178
0221	-15179
0229	-15180
0242	-15181
0285	-15182
0355	-15183
0372	-15184
0387	-15185
0435	-15186
0437	-15187
0486	-15188
0775	-15189
0792	-15190
5002	-15191
5164	-15192
5177	-15193
5201	-15194
5402	-15195
5488	-15196
5624	-15197
5638	-15198
5659	-15199
5665	-15200
5773	-15201
5782	-15202
5807	-15203
5856	-15204
5873	-15205
5971	-15206
7131	-15207
7137	-15208
7143	-15209
7201	-15210
7276	-15211
7282	-15212
7294	-15213
7308	-15214
7340	-15215
7363	-15216
7456	-15217
7603	-15218
7604	-15219
7650	-15220
7889	-15221
7986	-15222
8059	-15223
8103	-15224
8388	-15225
8452	-15226
8456	-15227
8481	-15228
8482	-15229
8488	-15230
8623	-15231
8643	-15232
8684	-15233
8690	-15234
8806	-15235
8870	-15236
8871	-15237
8880	-15238
9038	-15239
9046	-15240
9101	-15241
9184	-15242
9190	-15243
9270	-15244
9315	-15245
9380	-15246
9482	-15247
9527	-15248
9646	-15249
9872	-15250
arre	-15251
irur	-15252
pare	-15253
uted	-15254
vite	-15255
wood	-15256
▁830	-15257
▁Mic	-15258
▁Pio	-15259
ativi	-15260
iches	-15261
▁1923	-15262
▁1963	-15263
▁2521	-15264
▁2640	-15265
▁2931	-15266
▁2985	-15267
▁3110	-15268
▁3376	-15269
▁3411	-15270
▁3683	-15271
▁3723	-15272
▁3876	-15273
▁4090	-15274
▁5057	-15275
▁5152	-15276
▁5361	-15277
▁5718	-15278
▁6133	-15279
▁6144	-15280
▁6664	-15281
▁6912	-15282
▁7794	-15283
▁8432	-15284
▁8714	-15285
▁Swit	-15286
▁papp	-15287
▁trag	-15288
andese	-15289
ential	-15290
husias	-15291
resent	-15292
▁27136	-15293
▁39046	-15294
▁Gliel	-15295
▁Impar	-15296
▁batta	-15297
▁cacci	-15298
▁meals	-15299
▁presi	-15300
▁round	-15301
▁scene	-15302
▁tappe	-15303
▁112221	-15304
▁behave	-15305
▁dispre	-15306
▁gelose	-15307
▁infini	-15308
▁mirror	-15309
▁odiavo	-15310
▁orders	-15311
▁sporca	-15312
▁Turkish	-15313
▁actress	-15314
▁bananas	-15315
▁candele	-15316
▁causato	-15317
▁cousins	-15318
▁practic	-15319
▁scienza	-15320
▁Parliamo	-15321
▁biscotti	-15322
▁elevator	-15323
▁fabbrica	-15324
▁serpenti	-15325
▁stagione	-15326
▁velocità	-15327
▁visiting	-15328
▁lasciarla	-15329
▁difficulty	-15330
▁meravigliosa	-15331
dy	-15332
aga	-15333
gne	-15334
▁ze	-15335
0076	-15336
0104	-15337
0129	-15338
0149	-15339
0188	-15340
0203	-15341
0214	-15342
0257	-15343
0347	-15344
0369	-15345
0379	-15346
0485	-15347
0644	-15348
0675	-15349
0756	-15350
0798	-15351
0859	-15352
5055	-15353
5118	-15354
5152	-15355
5205	-15356
5274	-15357
5275	-15358
5299	-15359
5315	-15360
5341	-15361
5467	-15362
5482	-15363
5664	-15364
5673	-15365
5753	-15366
5786	-15367
5806	-15368
7161	-15369
7181	-15370
7195	-15371
7220	-15372
7225	-15373
7233	-15374
7238	-15375
7244	-15376
7307	-15377
7346	-15378
7424	-15379
7434	-15380
7642	-15381
7691	-15382
7701	-15383
7853	-15384
7956	-15385
8206	-15386
8310	-15387
8312	-15388
8328	-15389
8402	-15390
8443	-15391
8483	-15392
8492	-15393
8498	-15394
8627	-15395
8646	-15396
8808	-15397
8889	-15398
9061	-15399
9159	-15400
9177	-15401
9210	-15402
9274	-15403
9300	-15404
9319	-15405
9421	-15406
9462	-15407
9471	-15408
9480	-15409
9498	-15410
9502	-15411
9641	-15412
9952	-15413
mbre	-15414
rale	-15415
rest	-15416
wing	-15417
▁828	-15418
▁typ	-15419
eropl	-15420
ologo	-15421
▁1260	-15422
▁1700	-15423
▁1868	-15424
▁2001	-15425
▁2585	-15426
▁2685	-15427
▁2967	-15428
▁3163	-15429
▁3528	-15430
▁3554	-15431
▁3637	-15432
▁5221	-15433
▁5916	-15434
▁6253	-15435
▁6261	-15436
▁6669	-15437
▁6796	-15438
▁6809	-15439
▁6916	-15440
▁7782	-15441
▁8012	-15442
▁9918	-15443
▁Talk	-15444
▁audi	-15445
▁esso	-15446
▁gola	-15447
▁shit	-15448
ahashi	-15449
▁19664	-15450
▁21115	-15451
▁22362	-15452
▁22449	-15453
▁57323	-15454
▁74033	-15455
▁achie	-15456
▁metta	-15457
▁poeta	-15458
▁sweat	-15459
▁tenga	-15460
ression	-15461
▁Chiami	-15462
▁arance	-15463
▁chirur	-15464
▁ferite	-15465
▁malate	-15466
▁miglia	-15467
▁modest	-15468
▁resour	-15469
▁source	-15470
▁vedete	-15471
▁andarci	-15472
▁disagio	-15473
▁disease	-15474
▁dreamed	-15475
▁emergen	-15476
▁mattino	-15477
▁rendere	-15478
▁tenendo	-15479
▁tequila	-15480
▁apparten	-15481
▁comprata	-15482
▁comunque	-15483
▁ignorare	-15484
▁opinions	-15485
▁parlarle	-15486
▁pensiero	-15487
▁piccante	-15488
▁presente	-15489
▁riguarda	-15490
▁riposare	-15491
▁scortese	-15492
▁sembravo	-15493
▁trombone	-15494
▁Takahashi	-15495
▁abbassare	-15496
▁bibliotec	-15497
▁innocenza	-15498
▁librarian	-15499
▁terremoto	-15500
▁necessaria	-15501
▁cominciando	-15502
▁francobolli	-15503
▁imagination	-15504
▁correttamente	-15505
▁immaginazione	-15506
aki	-15507
0088	-15508
0090	-15509
0095	-15510
0155	-15511
0178	-15512
0225	-15513
0258	-15514
0260	-15515
0306	-15516
0348	-15517
0406	-15518
0453	-15519
0456	-15520
0575	-15521
0691	-15522
0694	-15523
5105	-15524
5114	-15525
5153	-15526
5223	-15527
5226	-15528
5259	-15529
5354	-15530
5364	-15531
5688	-15532
5693	-15533
5851	-15534
7157	-15535
7196	-15536
7232	-15537
7295	-15538
7404	-15539
7418	-15540
7480	-15541
7620	-15542
7668	-15543
8337	-15544
8413	-15545
8490	-15546
9098	-15547
9102	-15548
9120	-15549
9155	-15550
9193	-15551
9317	-15552
9456	-15553
9507	-15554
grap	-15555
mare	-15556
posi	-15557
ship	-15558
▁931	-15559
▁Ins	-15560
▁Lun	-15561
▁nar	-15562
▁oni	-15563
▁rot	-15564
▁tos	-15565
orean	-15566
ritti	-15567
▁1061	-15568
▁1276	-15569
▁1295	-15570
▁2182	-15571
▁2331	-15572
▁2353	-15573
▁2731	-15574
▁2959	-15575
▁3096	-15576
▁3514	-15577
▁4012	-15578
▁4663	-15579
▁4961	-15580
▁5386	-15581
▁5533	-15582
▁6555	-15583
▁6713	-15584
▁8976	-15585
▁9023	-15586
▁benz	-15587
▁cart	-15588
▁esam	-15589
▁evit	-15590
▁fidi	-15591
▁infe	-15592
▁navi	-15593
▁nota	-15594
▁sind	-15595
▁sort	-15596
eriere	-15597
indici	-15598
▁10206	-15599
▁11720	-15600
▁11798	-15601
▁25122	-15602
▁28231	-15603
▁36363	-15604
▁59164	-15605
▁97233	-15606
▁Happy	-15607
▁bleed	-15608
▁immig	-15609
▁incro	-15610
▁manip	-15611
▁media	-15612
▁rivol	-15613
▁shout	-15614
▁treni	-15615
▁Devono	-15616
▁figure	-15617
▁hoping	-15618
▁ordini	-15619
▁pepper	-15620
▁refuse	-15621
▁segret	-15622
ualmente	-15623
▁coperta	-15624
▁cuscino	-15625
▁depends	-15626
▁furioso	-15627
▁passegg	-15628
▁pessimo	-15629
▁produce	-15630
▁sounded	-15631
▁adottato	-15632
▁assumere	-15633
▁broccoli	-15634
▁capiterà	-15635
▁completo	-15636
▁forgiven	-15637
▁infranto	-15638
▁libreria	-15639
▁marriage	-15640
▁murdered	-15641
▁portando	-15642
▁potreste	-15643
▁wondered	-15644
▁aspettate	-15645
▁battaglia	-15646
▁sbrigarsi	-15647
▁aggressivo	-15648
▁frequently	-15649
▁funzionato	-15650
▁sandwiches	-15651
▁tranquillo	-15652
▁alternative	-15653
▁principiante	-15654
▁responsabilità	-15655
bs	-15656
ids	-15657
osh	-15658
uma	-15659
ump	-15660
▁Ph	-15661
0050	-15662
0143	-15663
0158	-15664
0190	-15665
0215	-15666
0290	-15667
0317	-15668
0326	-15669
0332	-15670
0339	-15671
0361	-15672
0364	-15673
0371	-15674
0434	-15675
0442	-15676
0480	-15677
0487	-15678
0581	-15679
0781	-15680
5084	-15681
5093	-15682
5115	-15683
5168	-15684
5206	-15685
5216	-15686
5227	-15687
5238	-15688
5255	-15689
5379	-15690
5424	-15691
5455	-15692
5499	-15693
5704	-15694
5770	-15695
5772	-15696
5774	-15697
5776	-15698
7091	-15699
7129	-15700
7176	-15701
7193	-15702
7212	-15703
7214	-15704
7345	-15705
7643	-15706
8172	-15707
8232	-15708
8234	-15709
8285	-15710
8321	-15711
8369	-15712
8399	-15713
8448	-15714
8461	-15715
8478	-15716
8876	-15717
9004	-15718
9028	-15719
9068	-15720
9125	-15721
9254	-15722
9309	-15723
9606	-15724
9642	-15725
udio	-15726
▁ogg	-15727
▁raw	-15728
oloso	-15729
onale	-15730
opera	-15731
orane	-15732
rando	-15733
vable	-15734
▁1059	-15735
▁1107	-15736
▁1271	-15737
▁1871	-15738
▁1979	-15739
▁2083	-15740
▁2196	-15741
▁2515	-15742
▁3271	-15743
▁5069	-15744
▁5370	-15745
▁5393	-15746
▁5673	-15747
▁5746	-15748
▁5946	-15749
▁5981	-15750
▁6162	-15751
▁6291	-15752
▁6550	-15753
▁6584	-15754
▁6632	-15755
▁6911	-15756
▁7561	-15757
▁8650	-15758
▁8928	-15759
▁Succ	-15760
▁core	-15761
▁labb	-15762
▁phil	-15763
▁rang	-15764
▁sail	-15765
▁twin	-15766
▁vuol	-15767
gliare	-15768
lingon	-15769
▁10908	-15770
▁39168	-15771
▁42023	-15772
▁44952	-15773
▁Throw	-15774
▁collo	-15775
▁cough	-15776
▁danne	-15777
▁gioia	-15778
▁magro	-15779
▁segno	-15780
▁smise	-15781
▁spoon	-15782
ambasci	-15783
arancia	-15784
▁Quanta	-15785
▁charge	-15786
▁creato	-15787
▁custom	-15788
▁esager	-15789
▁feriti	-15790
▁libere	-15791
▁pillow	-15792
▁spaven	-15793
▁strane	-15794
▁throat	-15795
ingresso	-15796
▁Leggete	-15797
▁affront	-15798
▁benzina	-15799
▁citizen	-15800
▁destino	-15801
▁esausto	-15802
▁factory	-15803
▁hurting	-15804
▁nearest	-15805
▁tornado	-15806
▁airplane	-15807
▁fattoria	-15808
▁informed	-15809
▁pressure	-15810
▁dedicated	-15811
▁neighbour	-15812
▁perdonato	-15813
▁sunglasses	-15814
▁asciugamano	-15815
▁intelligence	-15816
▁parcheggiato	-15817
▁understanding	-15818
aky	-15819
enz	-15820
uca	-15821
▁Bo	-15822
0008	-15823
0106	-15824
0126	-15825
0211	-15826
0216	-15827
0318	-15828
0322	-15829
0335	-15830
0426	-15831
0596	-15832
0754	-15833
0857	-15834
0886	-15835
2193	-15836
5165	-15837
5189	-15838
5222	-15839
5232	-15840
5239	-15841
5249	-15842
5295	-15843
5405	-15844
5637	-15845
5798	-15846
[...]
